{
  "version": "1.0",
  "truncation": null,
  "padding": null,
  "added_tokens": [
    {
      "id": 0,
      "content": "[UNK]",
      "single_word": false,
      "lstrip": false,
      "rstrip": false,
      "normalized": false,
      "special": true
    },
    {
      "id": 1,
      "content": "[CLS]",
      "single_word": false,
      "lstrip": false,
      "rstrip": false,
      "normalized": false,
      "special": true
    },
    {
      "id": 2,
      "content": "[SEP]",
      "single_word": false,
      "lstrip": false,
      "rstrip": false,
      "normalized": false,
      "special": true
    },
    {
      "id": 3,
      "content": "[PAD]",
      "single_word": false,
      "lstrip": false,
      "rstrip": false,
      "normalized": false,
      "special": true
    },
    {
      "id": 4,
      "content": "[MASK]",
      "single_word": false,
      "lstrip": false,
      "rstrip": false,
      "normalized": false,
      "special": true
    }
  ],
  "normalizer": null,
  "pre_tokenizer": {
    "type": "Whitespace"
  },
  "post_processor": {
    "type": "TemplateProcessing",
    "single": [
      {
        "SpecialToken": {
          "id": "[CLS]",
          "type_id": 0
        }
      },
      {
        "Sequence": {
          "id": "A",
          "type_id": 0
        }
      },
      {
        "SpecialToken": {
          "id": "[SEP]",
          "type_id": 0
        }
      }
    ],
    "pair": [
      {
        "SpecialToken": {
          "id": "[CLS]",
          "type_id": 0
        }
      },
      {
        "Sequence": {
          "id": "A",
          "type_id": 0
        }
      },
      {
        "SpecialToken": {
          "id": "[SEP]",
          "type_id": 0
        }
      },
      {
        "Sequence": {
          "id": "B",
          "type_id": 1
        }
      },
      {
        "SpecialToken": {
          "id": "[SEP]",
          "type_id": 1
        }
      }
    ],
    "special_tokens": {
      "[CLS]": {
        "id": "[CLS]",
        "ids": [
          1
        ],
        "tokens": [
          "[CLS]"
        ]
      },
      "[SEP]": {
        "id": "[SEP]",
        "ids": [
          2
        ],
        "tokens": [
          "[SEP]"
        ]
      }
    }
  },
  "decoder": null,
  "model": {
    "type": "WordPiece",
    "unk_token": "[UNK]",
    "continuing_subword_prefix": "##",
    "max_input_chars_per_word": 100,
    "vocab": {
      "[UNK]": 0,
      "[CLS]": 1,
      "[SEP]": 2,
      "[PAD]": 3,
      "[MASK]": 4,
      "a": 5,
      "b": 6,
      "c": 7,
      "d": 8,
      "e": 9,
      "f": 10,
      "g": 11,
      "h": 12,
      "i": 13,
      "j": 14,
      "k": 15,
      "l": 16,
      "m": 17,
      "n": 18,
      "o": 19,
      "p": 20,
      "q": 21,
      "r": 22,
      "s": 23,
      "t": 24,
      "u": 25,
      "v": 26,
      "w": 27,
      "x": 28,
      "y": 29,
      "z": 30,
      "": 31,
      "": 32,
      "": 33,
      "©": 34,
      "«": 35,
      "­": 36,
      "®": 37,
      "°": 38,
      "²": 39,
      "µ": 40,
      "·": 41,
      "º": 42,
      "¼": 43,
      "½": 44,
      "à": 45,
      "â": 46,
      "ã": 47,
      "ä": 48,
      "ç": 49,
      "è": 50,
      "é": 51,
      "ê": 52,
      "ë": 53,
      "í": 54,
      "î": 55,
      "ï": 56,
      "ñ": 57,
      "ò": 58,
      "ô": 59,
      "ø": 60,
      "–": 61,
      "—": 62,
      "‘": 63,
      "’": 64,
      "•": 65,
      "…": 66,
      "€": 67,
      "⇒": 68,
      "◦": 69,
      "##e": 70,
      "##c": 71,
      "##o": 72,
      "##r": 73,
      "##d": 74,
      "##u": 75,
      "##p": 76,
      "##n": 77,
      "##f": 78,
      "##l": 79,
      "##a": 80,
      "##i": 81,
      "##b": 82,
      "##t": 83,
      "##y": 84,
      "##s": 85,
      "##h": 86,
      "##g": 87,
      "##w": 88,
      "##v": 89,
      "##k": 90,
      "##m": 91,
      "##z": 92,
      "##x": 93,
      "##q": 94,
      "##ò": 95,
      "##j": 96,
      "##é": 97,
      "##…": 98,
      "##ô": 99,
      "##è": 100,
      "##ñ": 101,
      "##à": 102,
      "##ã": 103,
      "##ë": 104,
      "##ø": 105,
      "##ä": 106,
      "##ê": 107,
      "##ç": 108,
      "##î": 109,
      "##â": 110,
      "##í": 111,
      "##er": 112,
      "th": 113,
      "##on": 114,
      "##or": 115,
      "##es": 116,
      "##in": 117,
      "##an": 118,
      "the": 119,
      "in": 120,
      "##ti": 121,
      "##ed": 122,
      "##al": 123,
      "##en": 124,
      "an": 125,
      "##ar": 126,
      "##ro": 127,
      "of": 128,
      "and": 129,
      "##at": 130,
      "##ing": 131,
      "##re": 132,
      "##ic": 133,
      "##st": 134,
      "to": 135,
      "##tion": 136,
      "##ts": 137,
      "##il": 138,
      "##it": 139,
      "##as": 140,
      "##el": 141,
      "##ad": 142,
      "##ou": 143,
      "##ec": 144,
      "##et": 145,
      "##por": 146,
      "pro": 147,
      "##om": 148,
      "##is": 149,
      "##uc": 150,
      "##ation": 151,
      "##ent": 152,
      "##od": 153,
      "is": 154,
      "for": 155,
      "##th": 156,
      "##ac": 157,
      "con": 158,
      "##ood": 159,
      "##ri": 160,
      "##port": 161,
      "##duc": 162,
      "re": 163,
      "ex": 164,
      "##ly": 165,
      "##ur": 166,
      "##ers": 167,
      "##ul": 168,
      "produc": 169,
      "##le": 170,
      "can": 171,
      "##ion": 172,
      "im": 173,
      "##ol": 174,
      "##ig": 175,
      "st": 176,
      "be": 177,
      "##ill": 178,
      "##ver": 179,
      "##ve": 180,
      "as": 181,
      "are": 182,
      "on": 183,
      "canad": 184,
      "##um": 185,
      "##ab": 186,
      "com": 187,
      "food": 188,
      "##ce": 189,
      "##am": 190,
      "##ark": 191,
      "##and": 192,
      "ch": 193,
      "##ag": 194,
      "##ess": 195,
      "##id": 196,
      "##ter": 197,
      "or": 198,
      "##ir": 199,
      "##ow": 200,
      "##ith": 201,
      "##pp": 202,
      "##ment": 203,
      "##est": 204,
      "##ot": 205,
      "with": 206,
      "al": 207,
      "fro": 208,
      "wh": 209,
      "inc": 210,
      "##ap": 211,
      "##oun": 212,
      "##ut": 213,
      "##ry": 214,
      "##op": 215,
      "##ist": 216,
      "ag": 217,
      "mark": 218,
      "sh": 219,
      "from": 220,
      "##ain": 221,
      "by": 222,
      "##ia": 223,
      "products": 224,
      "##ay": 225,
      "##ate": 226,
      "##illion": 227,
      "##ian": 228,
      "su": 229,
      "ind": 230,
      "tr": 231,
      "##ust": 232,
      "import": 233,
      "##tic": 234,
      "##em": 235,
      "##oc": 236,
      "##us": 237,
      "market": 238,
      "##ect": 239,
      "cons": 240,
      "##if": 241,
      "##igh": 242,
      "##ric": 243,
      "##ports": 244,
      "##im": 245,
      "##ear": 246,
      "##ast": 247,
      "comp": 248,
      "##ity": 249,
      "##os": 250,
      "##ch": 251,
      "at": 252,
      "##un": 253,
      "##ount": 254,
      "that": 255,
      "##ere": 256,
      "##cc": 257,
      "##ure": 258,
      "million": 259,
      "us": 260,
      "##ies": 261,
      "##ail": 262,
      "##ant": 263,
      "un": 264,
      "canada": 265,
      "de": 266,
      "##reas": 267,
      "en": 268,
      "this": 269,
      "##ade": 270,
      "##gh": 271,
      "##ra": 272,
      "##ue": 273,
      "se": 274,
      "gro": 275,
      "##ww": 276,
      "##ents": 277,
      "##ult": 278,
      "##ore": 279,
      "##our": 280,
      "sp": 281,
      "##ther": 282,
      "canadian": 283,
      "it": 284,
      "cont": 285,
      "has": 286,
      "##age": 287,
      "##vel": 288,
      "##res": 289,
      "me": 290,
      "##qu": 291,
      "##ew": 292,
      "reg": 293,
      "##ld": 294,
      "count": 295,
      "##all": 296,
      "##ese": 297,
      "##ong": 298,
      "##ak": 299,
      "was": 300,
      "##ud": 301,
      "ha": 302,
      "per": 303,
      "consum": 304,
      "##iv": 305,
      "app": 306,
      "increas": 307,
      "##end": 308,
      "##ated": 309,
      "##ine": 310,
      "##iz": 311,
      "##tern": 312,
      "##ost": 313,
      "exp": 314,
      "ad": 315,
      "##ations": 316,
      "wor": 317,
      "##ial": 318,
      "export": 319,
      "res": 320,
      "##fic": 321,
      "##ell": 322,
      "pl": 323,
      "##ish": 324,
      "##act": 325,
      "have": 326,
      "not": 327,
      "##able": 328,
      "trade": 329,
      "##ign": 330,
      "##iti": 331,
      "year": 332,
      "##og": 333,
      "man": 334,
      "grow": 335,
      "##ual": 336,
      "##ip": 337,
      "##arg": 338,
      "##for": 339,
      "##ard": 340,
      "he": 341,
      "other": 342,
      "##ich": 343,
      "##ous": 344,
      "acc": 345,
      "##ans": 346,
      "co": 347,
      "##rael": 348,
      "##cess": 349,
      "##onom": 350,
      "##per": 351,
      "##ricult": 352,
      "##ational": 353,
      "comm": 354,
      "##ight": 355,
      "##ber": 356,
      "le": 357,
      "##ang": 358,
      "imports": 359,
      "indust": 360,
      "ph": 361,
      "chin": 362,
      "##der": 363,
      "agricult": 364,
      "par": 365,
      "israel": 366,
      "##food": 367,
      "##so": 368,
      "val": 369,
      "exports": 370,
      "country": 371,
      "its": 372,
      "high": 373,
      "fr": 374,
      "over": 375,
      "##ater": 376,
      "##ati": 377,
      "##ome": 378,
      "all": 379,
      "jap": 380,
      "will": 381,
      "##erv": 382,
      "compan": 383,
      "##ition": 384,
      "which": 385,
      "##ech": 386,
      "##ff": 387,
      "also": 388,
      "##rib": 389,
      "##ack": 390,
      "their": 391,
      "int": 392,
      "##ax": 393,
      "##gan": 394,
      "suc": 395,
      "##les": 396,
      "imported": 397,
      "##ary": 398,
      "more": 399,
      "japan": 400,
      "larg": 401,
      "##over": 402,
      "cad": 403,
      "br": 404,
      "##lud": 405,
      "em": 406,
      "pop": 407,
      "##ire": 408,
      "##ural": 409,
      "##ities": 410,
      "##form": 411,
      "popul": 412,
      "##ors": 413,
      "##ould": 414,
      "industry": 415,
      "tot": 416,
      "##ific": 417,
      "##velop": 418,
      "##ib": 419,
      "new": 420,
      "##ance": 421,
      "intern": 422,
      "includ": 423,
      "##ates": 424,
      "dec": 425,
      "process": 426,
      "##ens": 427,
      "ec": 428,
      "ab": 429,
      "##ence": 430,
      "prov": 431,
      "develop": 432,
      "##ally": 433,
      "ac": 434,
      "product": 435,
      "rel": 436,
      "loc": 437,
      "##ice": 438,
      "##av": 439,
      "rec": 440,
      "ar": 441,
      "##par": 442,
      "these": 443,
      "##ef": 444,
      "##tt": 445,
      "dist": 446,
      "total": 447,
      "##ugh": 448,
      "##ments": 449,
      "pre": 450,
      "##oll": 451,
      "econom": 452,
      "organ": 453,
      "##ries": 454,
      "am": 455,
      "value": 456,
      "##alth": 457,
      "##lic": 458,
      "##ons": 459,
      "than": 460,
      "agri": 461,
      "growth": 462,
      "china": 463,
      "##fer": 464,
      "there": 465,
      "##echn": 466,
      "##ets": 467,
      "##ays": 468,
      "gen": 469,
      "##we": 470,
      "##ely": 471,
      "##iet": 472,
      "##ms": 473,
      "requ": 474,
      "meat": 475,
      "ne": 476,
      "##ide": 477,
      "sal": 478,
      "##ai": 479,
      "##ace": 480,
      "billion": 481,
      "such": 482,
      "##ery": 483,
      "##ily": 484,
      "##out": 485,
      "production": 486,
      "##ption": 487,
      "##ile": 488,
      "##overn": 489,
      "bo": 490,
      "##ttp": 491,
      "sect": 492,
      "##ied": 493,
      "##ection": 494,
      "##ach": 495,
      "sa": 496,
      "we": 497,
      "##ree": 498,
      "min": 499,
      "govern": 500,
      "##iness": 501,
      "supp": 502,
      "health": 503,
      "##enc": 504,
      "##ite": 505,
      "##usiness": 506,
      "years": 507,
      "fir": 508,
      "good": 509,
      "http": 510,
      "cl": 511,
      "fore": 512,
      "agrifood": 513,
      "foreign": 514,
      "were": 515,
      "ma": 516,
      "##erti": 517,
      "pric": 518,
      "qu": 519,
      "serv": 520,
      "spec": 521,
      "fax": 522,
      "most": 523,
      "op": 524,
      "str": 525,
      "region": 526,
      "##ok": 527,
      "##ipp": 528,
      "##tive": 529,
      "##ive": 530,
      "##sp": 531,
      "##pt": 532,
      "bas": 533,
      "no": 534,
      "inv": 535,
      "been": 536,
      "foods": 537,
      "inform": 538,
      "india": 539,
      "add": 540,
      "##olog": 541,
      "lab": 542,
      "##ass": 543,
      "##verage": 544,
      "##ub": 545,
      "but": 546,
      "ret": 547,
      "pri": 548,
      "##enti": 549,
      "##als": 550,
      "##ected": 551,
      "##ven": 552,
      "##gr": 553,
      "international": 554,
      "government": 555,
      "population": 556,
      "companies": 557,
      "##rough": 558,
      "world": 559,
      "business": 560,
      "may": 561,
      "##ines": 562,
      "##www": 563,
      "past": 564,
      "##ct": 565,
      "cap": 566,
      "sector": 567,
      "maj": 568,
      "information": 569,
      "under": 570,
      "bi": 571,
      "out": 572,
      "sing": 573,
      "##aw": 574,
      "distrib": 575,
      "major": 576,
      "##str": 577,
      "agricultural": 578,
      "##rop": 579,
      "increasing": 580,
      "##lish": 581,
      "cor": 582,
      "##ral": 583,
      "##up": 584,
      "##ited": 585,
      "##old": 586,
      "so": 587,
      "##echnolog": 588,
      "pres": 589,
      "imp": 590,
      "##ame": 591,
      "one": 592,
      "sub": 593,
      "local": 594,
      "##mark": 595,
      "##ord": 596,
      "##earch": 597,
      "shall": 598,
      "av": 599,
      "how": 600,
      "nor": 601,
      "dr": 602,
      "##ough": 603,
      "##ise": 604,
      "##ey": 605,
      "##ution": 606,
      "regul": 607,
      "inf": 608,
      "rep": 609,
      "gener": 610,
      "##resh": 611,
      "agriculture": 612,
      "cent": 613,
      "##ory": 614,
      "ann": 615,
      "countries": 616,
      "inter": 617,
      "httpwww": 618,
      "af": 619,
      "phil": 620,
      "##ee": 621,
      "##ces": 622,
      "##uf": 623,
      "##apor": 624,
      "##eti": 625,
      "fl": 626,
      "development": 627,
      "main": 628,
      "##her": 629,
      "they": 630,
      "consumers": 631,
      "retail": 632,
      "dem": 633,
      "appro": 634,
      "into": 635,
      "li": 636,
      "mon": 637,
      "sou": 638,
      "bet": 639,
      "light": 640,
      "##ex": 641,
      "through": 642,
      "fru": 643,
      "##ks": 644,
      "certi": 645,
      "##its": 646,
      "##ical": 647,
      "fresh": 648,
      "sour": 649,
      "sl": 650,
      "##co": 651,
      "ob": 652,
      "www": 653,
      "well": 654,
      "##apore": 655,
      "up": 656,
      "oil": 657,
      "only": 658,
      "pe": 659,
      "##arm": 660,
      "stor": 661,
      "pack": 662,
      "sy": 663,
      "should": 664,
      "bec": 665,
      "##sti": 666,
      "##ards": 667,
      "goods": 668,
      "research": 669,
      "##ound": 670,
      "##echnology": 671,
      "mal": 672,
      "singapore": 673,
      "##urr": 674,
      "car": 675,
      "dom": 676,
      "##ov": 677,
      "super": 678,
      "sales": 679,
      "var": 680,
      "brand": 681,
      "sm": 682,
      "##ently": 683,
      "##nam": 684,
      "##ices": 685,
      "philipp": 686,
      "tel": 687,
      "##eng": 688,
      "##get": 689,
      "##own": 690,
      "##amily": 691,
      "##ose": 692,
      "do": 693,
      "por": 694,
      "##ufact": 695,
      "trans": 696,
      "##ug": 697,
      "##ond": 698,
      "manufact": 699,
      "fin": 700,
      "any": 701,
      "##ase": 702,
      "fe": 703,
      "##ever": 704,
      "##gin": 705,
      "##air": 706,
      "##edi": 707,
      "consumption": 708,
      "foll": 709,
      "tim": 710,
      "report": 711,
      "follow": 712,
      "fish": 713,
      "average": 714,
      "pr": 715,
      "##und": 716,
      "certific": 717,
      "gr": 718,
      "##ious": 719,
      "consumer": 720,
      "increase": 721,
      "part": 722,
      "num": 723,
      "##ted": 724,
      "about": 725,
      "##ietnam": 726,
      "##are": 727,
      "##ains": 728,
      "however": 729,
      "annual": 730,
      "##ating": 731,
      "ass": 732,
      "dis": 733,
      "##uring": 734,
      "while": 735,
      "demand": 736,
      "curr": 737,
      "gre": 738,
      "low": 739,
      "sc": 740,
      "stand": 741,
      "des": 742,
      "##ick": 743,
      "worth": 744,
      "ro": 745,
      "tw": 746,
      "##iss": 747,
      "##land": 748,
      "vietnam": 749,
      "##ustral": 750,
      "suppl": 751,
      "ve": 752,
      "##lo": 753,
      "increased": 754,
      "exporters": 755,
      "ju": 756,
      "##ility": 757,
      "##ake": 758,
      "austral": 759,
      "pur": 760,
      "##gcc": 761,
      "sign": 762,
      "##erm": 763,
      "##ern": 764,
      "require": 765,
      "##ued": 766,
      "##anc": 767,
      "cr": 768,
      "##ivers": 769,
      "some": 770,
      "##ange": 771,
      "star": 772,
      "##tics": 773,
      "rest": 774,
      "##ures": 775,
      "large": 776,
      "email": 777,
      "economic": 778,
      "first": 779,
      "eg": 780,
      "ori": 781,
      "##ible": 782,
      "must": 783,
      "##ince": 784,
      "south": 785,
      "##ween": 786,
      "dire": 787,
      "##tel": 788,
      "largest": 789,
      "##ateg": 790,
      "company": 791,
      "between": 792,
      "mater": 793,
      "pos": 794,
      "##tain": 795,
      "material": 796,
      "iss": 797,
      "contin": 798,
      "qual": 799,
      "##ants": 800,
      "hal": 801,
      "sea": 802,
      "trad": 803,
      "include": 804,
      "##portun": 805,
      "##olum": 806,
      "organic": 807,
      "##com": 808,
      "##ration": 809,
      "##ages": 810,
      "##ty": 811,
      "opportun": 812,
      "invest": 813,
      "biot": 814,
      "two": 815,
      "sec": 816,
      "##til": 817,
      "##ize": 818,
      "expected": 819,
      "rem": 820,
      "veget": 821,
      "est": 822,
      "pol": 823,
      "##ones": 824,
      "fruit": 825,
      "competi": 826,
      "capit": 827,
      "direct": 828,
      "pot": 829,
      "offic": 830,
      "##ys": 831,
      "##eds": 832,
      "##read": 833,
      "number": 834,
      "many": 835,
      "##estic": 836,
      "adv": 837,
      "malays": 838,
      "supermark": 839,
      "quality": 840,
      "##ision": 841,
      "price": 842,
      "mod": 843,
      "##ered": 844,
      "##ustom": 845,
      "small": 846,
      "if": 847,
      "##wn": 848,
      "form": 849,
      "##ablish": 850,
      "partic": 851,
      "##ized": 852,
      "origin": 853,
      "due": 854,
      "avail": 855,
      "tons": 856,
      "##ma": 857,
      "##ock": 858,
      "resp": 859,
      "custom": 860,
      "##yp": 861,
      "##int": 862,
      "establish": 863,
      "bu": 864,
      "decreas": 865,
      "markets": 866,
      "including": 867,
      "##ately": 868,
      "lik": 869,
      "australia": 870,
      "po": 871,
      "##aged": 872,
      "##ean": 873,
      "use": 874,
      "growing": 875,
      "##ission": 876,
      "dif": 877,
      "used": 878,
      "regist": 879,
      "##ves": 880,
      "##stem": 881,
      "accord": 882,
      "processed": 883,
      "mil": 884,
      "##one": 885,
      "el": 886,
      "very": 887,
      "##aus": 888,
      "##part": 889,
      "system": 890,
      "sur": 891,
      "services": 892,
      "water": 893,
      "##ix": 894,
      "##ular": 895,
      "minist": 896,
      "time": 897,
      "prepar": 898,
      "north": 899,
      "##ph": 900,
      "conc": 901,
      "met": 902,
      "##led": 903,
      "##val": 904,
      "level": 905,
      "domestic": 906,
      "philippines": 907,
      "label": 908,
      "regulations": 909,
      "##vely": 910,
      "del": 911,
      "##zen": 912,
      "chinese": 913,
      "pers": 914,
      "##atis": 915,
      "astr": 916,
      "national": 917,
      "united": 918,
      "applic": 919,
      "processing": 920,
      "provid": 921,
      "pasta": 922,
      "hong": 923,
      "access": 924,
      "manufactur": 925,
      "malaysia": 926,
      "astronom": 927,
      "cre": 928,
      "equ": 929,
      "##td": 930,
      "anim": 931,
      "##une": 932,
      "distribution": 933,
      "key": 934,
      "red": 935,
      "##vi": 936,
      "thail": 937,
      "##urn": 938,
      "frozen": 939,
      "thailand": 940,
      "oper": 941,
      "##ency": 942,
      "cost": 943,
      "ir": 944,
      "kong": 945,
      "##ience": 946,
      "when": 947,
      "att": 948,
      "group": 949,
      "purch": 950,
      "eu": 951,
      "made": 952,
      "##try": 953,
      "##ization": 954,
      "plant": 955,
      "ter": 956,
      "det": 957,
      "##ues": 958,
      "economy": 959,
      "requir": 960,
      "##eal": 961,
      "##eat": 962,
      "work": 963,
      "ext": 964,
      "repres": 965,
      "standards": 966,
      "aff": 967,
      "liv": 968,
      "indones": 969,
      "addition": 970,
      "##ved": 971,
      "esti": 972,
      "enter": 973,
      "signific": 974,
      "requirements": 975,
      "estim": 976,
      "au": 977,
      "since": 978,
      "prom": 979,
      "asia": 980,
      "lead": 981,
      "service": 982,
      "stores": 983,
      "##se": 984,
      "consid": 985,
      "general": 986,
      "list": 987,
      "##ublic": 988,
      "##ember": 989,
      "fact": 990,
      "##aph": 991,
      "depart": 992,
      "priv": 993,
      "source": 994,
      "land": 995,
      "##dp": 996,
      "states": 997,
      "significant": 998,
      "volum": 999,
      "based": 1000,
      "opportunities": 1001,
      "##ings": 1002,
      "##ability": 1003,
      "distribut": 1004,
      "typ": 1005,
      "##uct": 1006,
      "who": 1007,
      "contain": 1008,
      "##ative": 1009,
      "impro": 1010,
      "##hip": 1011,
      "##ind": 1012,
      "cond": 1013,
      "areas": 1014,
      "##tical": 1015,
      "ministry": 1016,
      "##erc": 1017,
      "##amp": 1018,
      "##gcca": 1019,
      "dri": 1020,
      "rate": 1021,
      "play": 1022,
      "israeli": 1023,
      "kn": 1024,
      "lo": 1025,
      "##fa": 1026,
      "insp": 1027,
      "reach": 1028,
      "special": 1029,
      "biotechnology": 1030,
      "ltd": 1031,
      "##ects": 1032,
      "statis": 1033,
      "important": 1034,
      "gu": 1035,
      "less": 1036,
      "being": 1037,
      "available": 1038,
      "milk": 1039,
      "##rol": 1040,
      "##though": 1041,
      "although": 1042,
      "person": 1043,
      "##pr": 1044,
      "##……": 1045,
      "##tions": 1046,
      "##ogr": 1047,
      "##gar": 1048,
      "interest": 1049,
      "second": 1050,
      "bar": 1051,
      "##xim": 1052,
      "##ending": 1053,
      "auth": 1054,
      "id": 1055,
      "tar": 1056,
      "conf": 1057,
      "sup": 1058,
      "japanese": 1059,
      "materials": 1060,
      "indonesia": 1061,
      "volume": 1062,
      "##icy": 1063,
      "account": 1064,
      "##ouse": 1065,
      "##tm": 1066,
      "top": 1067,
      "wheat": 1068,
      "##ential": 1069,
      "fre": 1070,
      "kore": 1071,
      "marketing": 1072,
      "eng": 1073,
      "##etic": 1074,
      "##ats": 1075,
      "##cept": 1076,
      "own": 1077,
      "vis": 1078,
      "##let": 1079,
      "state": 1080,
      "nat": 1081,
      "##fore": 1082,
      "##aur": 1083,
      "##ie": 1084,
      "##ban": 1085,
      "##ward": 1086,
      "where": 1087,
      "ed": 1088,
      "would": 1089,
      "##uts": 1090,
      "##ables": 1091,
      "order": 1092,
      "popular": 1093,
      "investment": 1094,
      "like": 1095,
      "##view": 1096,
      "during": 1097,
      "gdp": 1098,
      "##af": 1099,
      "three": 1100,
      "##tiv": 1101,
      "##oci": 1102,
      "##iff": 1103,
      "prices": 1104,
      "east": 1105,
      "##ae": 1106,
      "strong": 1107,
      "fac": 1108,
      "read": 1109,
      "univers": 1110,
      "capita": 1111,
      "bl": 1112,
      "hel": 1113,
      "within": 1114,
      "both": 1115,
      "specific": 1116,
      "##ause": 1117,
      "##aking": 1118,
      "##to": 1119,
      "##ared": 1120,
      "##roduc": 1121,
      "fur": 1122,
      "pow": 1123,
      "##itt": 1124,
      "##acific": 1125,
      "##ified": 1126,
      "##ipment": 1127,
      "halal": 1128,
      "department": 1129,
      "lim": 1130,
      "non": 1131,
      "##iod": 1132,
      "perm": 1133,
      "approxim": 1134,
      "currently": 1135,
      "according": 1136,
      "##ier": 1137,
      "##ased": 1138,
      "associ": 1139,
      "##ograph": 1140,
      "##fl": 1141,
      "amer": 1142,
      "restaur": 1143,
      "seafood": 1144,
      "estimated": 1145,
      "author": 1146,
      "bel": 1147,
      "mo": 1148,
      "##ient": 1149,
      "further": 1150,
      "net": 1151,
      "##ress": 1152,
      "##sh": 1153,
      "item": 1154,
      "meas": 1155,
      "period": 1156,
      "internet": 1157,
      "particular": 1158,
      "##ealand": 1159,
      "fast": 1160,
      "five": 1161,
      "rice": 1162,
      "zealand": 1163,
      "progr": 1164,
      "income": 1165,
      "each": 1166,
      "##erg": 1167,
      "##anti": 1168,
      "decl": 1169,
      "##efamily": 1170,
      "following": 1171,
      "represent": 1172,
      "ef": 1173,
      "law": 1174,
      "prot": 1175,
      "share": 1176,
      "commod": 1177,
      "provide": 1178,
      "##wan": 1179,
      "##ank": 1180,
      "##arant": 1181,
      "pork": 1182,
      "tariff": 1183,
      "lic": 1184,
      "##angh": 1185,
      "month": 1186,
      "ear": 1187,
      "farm": 1188,
      "family": 1189,
      "had": 1190,
      "##aefamily": 1191,
      "##ories": 1192,
      "expand": 1193,
      "his": 1194,
      "technology": 1195,
      "##inc": 1196,
      "##ases": 1197,
      "coff": 1198,
      "present": 1199,
      "peop": 1200,
      "support": 1201,
      "map": 1202,
      "tai": 1203,
      "##au": 1204,
      "##istan": 1205,
      "importer": 1206,
      "sever": 1207,
      "vegetables": 1208,
      "##ep": 1209,
      "stud": 1210,
      "drug": 1211,
      "after": 1212,
      "brands": 1213,
      "customs": 1214,
      "differ": 1215,
      "approximately": 1216,
      "same": 1217,
      "table": 1218,
      "conven": 1219,
      "see": 1220,
      "success": 1221,
      "inspection": 1222,
      "aro": 1223,
      "##ink": 1224,
      "chick": 1225,
      "using": 1226,
      "prim": 1227,
      "##till": 1228,
      "required": 1229,
      "players": 1230,
      "free": 1231,
      "found": 1232,
      "##ades": 1233,
      "relations": 1234,
      "statistics": 1235,
      "coffee": 1236,
      "taiwan": 1237,
      "dat": 1238,
      "hand": 1239,
      "mar": 1240,
      "swe": 1241,
      "##ins": 1242,
      "##ercial": 1243,
      "bri": 1244,
      "col": 1245,
      "ur": 1246,
      "##ann": 1247,
      "area": 1248,
      "shangh": 1249,
      "importers": 1250,
      "supply": 1251,
      "infr": 1252,
      "city": 1253,
      "categ": 1254,
      "house": 1255,
      "jo": 1256,
      "dep": 1257,
      "result": 1258,
      "still": 1259,
      "##ge": 1260,
      "##ends": 1261,
      "##itions": 1262,
      "corpor": 1263,
      "certificate": 1264,
      "americ": 1265,
      "la": 1266,
      "long": 1267,
      "##ta": 1268,
      "##most": 1269,
      "##ined": 1270,
      "##atory": 1271,
      "##aging": 1272,
      "show": 1273,
      "indian": 1274,
      "equipment": 1275,
      "europ": 1276,
      "##uary": 1277,
      "##pl": 1278,
      "##uch": 1279,
      "rap": 1280,
      "##tc": 1281,
      "##ject": 1282,
      "supermarkets": 1283,
      "pacific": 1284,
      "you": 1285,
      "##ination": 1286,
      "##ott": 1287,
      "sugar": 1288,
      "transport": 1289,
      "private": 1290,
      "ever": 1291,
      "tun": 1292,
      "##ca": 1293,
      "##ss": 1294,
      "##ger": 1295,
      "##intern": 1296,
      "##ale": 1297,
      "##ild": 1298,
      "saf": 1299,
      "items": 1300,
      "ev": 1301,
      "sk": 1302,
      "##ced": 1303,
      "##ato": 1304,
      "##els": 1305,
      "##lets": 1306,
      "almost": 1307,
      "control": 1308,
      "##elling": 1309,
      "arab": 1310,
      "##export": 1311,
      "certification": 1312,
      "shanghai": 1313,
      "fut": 1314,
      "##isc": 1315,
      "##estock": 1316,
      "act": 1317,
      "##stit": 1318,
      "##ength": 1319,
      "livestock": 1320,
      "crop": 1321,
      "eff": 1322,
      "te": 1323,
      "##ling": 1324,
      "##hol": 1325,
      "##onn": 1326,
      "ingr": 1327,
      "commission": 1328,
      "commercial": 1329,
      "open": 1330,
      "buy": 1331,
      "##ucture": 1332,
      "ingredi": 1333,
      "name": 1334,
      "##ft": 1335,
      "those": 1336,
      "##oul": 1337,
      "##lement": 1338,
      "##illed": 1339,
      "sun": 1340,
      "end": 1341,
      "because": 1342,
      "does": 1343,
      "feed": 1344,
      "consider": 1345,
      "future": 1346,
      "post": 1347,
      "ris": 1348,
      "##ract": 1349,
      "##augh": 1350,
      "##vers": 1351,
      "##ird": 1352,
      "##ched": 1353,
      "hot": 1354,
      "last": 1355,
      "med": 1356,
      "sim": 1357,
      "size": 1358,
      "##ble": 1359,
      "##estern": 1360,
      "apples": 1361,
      "among": 1362,
      "sources": 1363,
      "program": 1364,
      "several": 1365,
      "sel": 1366,
      "indic": 1367,
      "higher": 1368,
      "remain": 1369,
      "sweet": 1370,
      "techn": 1371,
      "##io": 1372,
      "##htm": 1373,
      "##go": 1374,
      "##esc": 1375,
      "##ape": 1376,
      "exper": 1377,
      "cook": 1378,
      "rapid": 1379,
      "##min": 1380,
      "##rial": 1381,
      "contact": 1382,
      "##ribut": 1383,
      "partn": 1384,
      "cle": 1385,
      "prof": 1386,
      "canadas": 1387,
      "##idd": 1388,
      "potential": 1389,
      "much": 1390,
      "tre": 1391,
      "##way": 1392,
      "##ving": 1393,
      "complet": 1394,
      "soy": 1395,
      "##cohol": 1396,
      "animal": 1397,
      "public": 1398,
      "test": 1399,
      "##ful": 1400,
      "##ised": 1401,
      "common": 1402,
      "brune": 1403,
      "artic": 1404,
      "various": 1405,
      "natural": 1406,
      "people": 1407,
      "corporation": 1408,
      "##aughter": 1409,
      "##acts": 1410,
      "##uss": 1411,
      "recent": 1412,
      "hy": 1413,
      "now": 1414,
      "western": 1415,
      "##ten": 1416,
      "##ended": 1417,
      "slaughter": 1418,
      "disc": 1419,
      "dried": 1420,
      "korea": 1421,
      "down": 1422,
      "our": 1423,
      "sn": 1424,
      "##iers": 1425,
      "##bers": 1426,
      "registration": 1427,
      "reduc": 1428,
      "chicken": 1429,
      "pay": 1430,
      "offer": 1431,
      "##ective": 1432,
      "##ectr": 1433,
      "##ually": 1434,
      "regional": 1435,
      "bro": 1436,
      "lif": 1437,
      "##day": 1438,
      "outlets": 1439,
      "improve": 1440,
      "bre": 1441,
      "expend": 1442,
      "introduc": 1443,
      "##airy": 1444,
      "supplied": 1445,
      "established": 1446,
      "decreasing": 1447,
      "iran": 1448,
      "##oultry": 1449,
      "conduc": 1450,
      "activ": 1451,
      "infl": 1452,
      "respons": 1453,
      "expendit": 1454,
      "nut": 1455,
      "##east": 1456,
      "##vir": 1457,
      "chain": 1458,
      "##agr": 1459,
      "atl": 1460,
      "rece": 1461,
      "obs": 1462,
      "become": 1463,
      "##edium": 1464,
      "prepared": 1465,
      "confection": 1466,
      "dairy": 1467,
      "medium": 1468,
      "poultry": 1469,
      "##oi": 1470,
      "##ium": 1471,
      "##eration": 1472,
      "ins": 1473,
      "produced": 1474,
      "need": 1475,
      "web": 1476,
      "approval": 1477,
      "manufacturers": 1478,
      "terms": 1479,
      "##fait": 1480,
      "brunei": 1481,
      "ben": 1482,
      "mr": 1483,
      "pat": 1484,
      "##pos": 1485,
      "inr": 1486,
      "##itive": 1487,
      "cover": 1488,
      "coop": 1489,
      "##avor": 1490,
      "increasingly": 1491,
      "storage": 1492,
      "additional": 1493,
      "best": 1494,
      "cat": 1495,
      "##cent": 1496,
      "##hold": 1497,
      "##ont": 1498,
      "##ties": 1499,
      "before": 1500,
      "##agn": 1501,
      "allow": 1502,
      "packaged": 1503,
      "tradition": 1504,
      "convenience": 1505,
      "##minist": 1506,
      "##viron": 1507,
      "even": 1508,
      "turn": 1509,
      "##ting": 1510,
      "exc": 1511,
      "produce": 1512,
      "beef": 1513,
      "environ": 1514,
      "##iety": 1515,
      "strateg": 1516,
      "supermarket": 1517,
      "modern": 1518,
      "could": 1519,
      "div": 1520,
      "here": 1521,
      "near": 1522,
      "instit": 1523,
      "meet": 1524,
      "##akes": 1525,
      "philippine": 1526,
      "find": 1527,
      "issued": 1528,
      "continue": 1529,
      "cream": 1530,
      "leading": 1531,
      "##ev": 1532,
      "anal": 1533,
      "##ecti": 1534,
      "administ": 1535,
      "quarant": 1536,
      "limited": 1537,
      "data": 1538,
      "environment": 1539,
      "ens": 1540,
      "domin": 1541,
      "desc": 1542,
      "help": 1543,
      "urban": 1544,
      "quarantine": 1545,
      "giv": 1546,
      "##eries": 1547,
      "cann": 1548,
      "##verages": 1549,
      "centre": 1550,
      "egg": 1551,
      "particularly": 1552,
      "article": 1553,
      "bang": 1554,
      "raw": 1555,
      "##bo": 1556,
      "##omet": 1557,
      "##ley": 1558,
      "beverage": 1559,
      "exported": 1560,
      "pharm": 1561,
      "valued": 1562,
      "firms": 1563,
      "household": 1564,
      "doc": 1565,
      "foc": 1566,
      "##itor": 1567,
      "beverages": 1568,
      "prefer": 1569,
      "fruits": 1570,
      "suppliers": 1571,
      "provided": 1572,
      "bul": 1573,
      "etc": 1574,
      "##gov": 1575,
      "##org": 1576,
      "##anch": 1577,
      "ref": 1578,
      "totaled": 1579,
      "class": 1580,
      "great": 1581,
      "concern": 1582,
      "rapidly": 1583,
      "##red": 1584,
      "##te": 1585,
      "##inks": 1586,
      "##ather": 1587,
      "exporter": 1588,
      "telesc": 1589,
      "followed": 1590,
      "current": 1591,
      "commodities": 1592,
      "telescop": 1593,
      "four": 1594,
      "##of": 1595,
      "##mon": 1596,
      "store": 1597,
      "agency": 1598,
      "##ocol": 1599,
      "consist": 1600,
      "##astr": 1601,
      "leg": 1602,
      "##ences": 1603,
      "address": 1604,
      "conditions": 1605,
      "ready": 1606,
      "ingredients": 1607,
      "west": 1608,
      "##ules": 1609,
      "##oles": 1610,
      "##igcc": 1611,
      "alcohol": 1612,
      "white": 1613,
      "emb": 1614,
      "box": 1615,
      "quanti": 1616,
      "##lob": 1617,
      "##ample": 1618,
      "nutri": 1619,
      "far": 1620,
      "few": 1621,
      "sar": 1622,
      "uae": 1623,
      "##fied": 1624,
      "##ecess": 1625,
      "##aceu": 1626,
      "application": 1627,
      "infrastr": 1628,
      "every": 1629,
      "go": 1630,
      "##iver": 1631,
      "##hib": 1632,
      "##ilities": 1633,
      "##ounts": 1634,
      "spending": 1635,
      "##udi": 1636,
      "##ially": 1637,
      "countrys": 1638,
      "genetic": 1639,
      "slow": 1640,
      "association": 1641,
      "infrastructure": 1642,
      "mor": 1643,
      "##ash": 1644,
      "##eld": 1645,
      "image": 1646,
      "phot": 1647,
      "##spec": 1648,
      "##airs": 1649,
      "determ": 1650,
      "licens": 1651,
      "confectionery": 1652,
      "##xt": 1653,
      "expl": 1654,
      "strength": 1655,
      "vari": 1656,
      "policy": 1657,
      "office": 1658,
      "tunis": 1659,
      "cer": 1660,
      "##plo": 1661,
      "chocol": 1662,
      "resour": 1663,
      "advant": 1664,
      "necess": 1665,
      "##vey": 1666,
      "juice": 1667,
      "cris": 1668,
      "position": 1669,
      "potato": 1670,
      "##maec": 1671,
      "distributors": 1672,
      "look": 1673,
      "freight": 1674,
      "permit": 1675,
      "effor": 1676,
      "tariffs": 1677,
      "##iddle": 1678,
      "home": 1679,
      "##inf": 1680,
      "forward": 1681,
      "entry": 1682,
      "highest": 1683,
      "firm": 1684,
      "mainly": 1685,
      "different": 1686,
      "##faitmaec": 1687,
      "##faitmaecigcc": 1688,
      "fil": 1689,
      "glob": 1690,
      "set": 1691,
      "vi": 1692,
      "##ield": 1693,
      "them": 1694,
      "proj": 1695,
      "chang": 1696,
      "chains": 1697,
      "##osher": 1698,
      "percent": 1699,
      "plants": 1700,
      "focus": 1701,
      "days": 1702,
      "ge": 1703,
      "mat": 1704,
      "make": 1705,
      "##oexport": 1706,
      "##ides": 1707,
      "what": 1708,
      "##ute": 1709,
      "seg": 1710,
      "overview": 1711,
      "organiz": 1712,
      "packaging": 1713,
      "competition": 1714,
      "fund": 1715,
      "jan": 1716,
      "##ead": 1717,
      "##sc": 1718,
      "##ort": 1719,
      "##ining": 1720,
      "often": 1721,
      "##ators": 1722,
      "##ism": 1723,
      "cho": 1724,
      "wholes": 1725,
      "organization": 1726,
      "added": 1727,
      "sci": 1728,
      "director": 1729,
      "know": 1730,
      "around": 1731,
      "ensure": 1732,
      "kg": 1733,
      "sched": 1734,
      "take": 1735,
      "##br": 1736,
      "##ypt": 1737,
      "initi": 1738,
      "off": 1739,
      "##ety": 1740,
      "place": 1741,
      "##atively": 1742,
      "next": 1743,
      "corn": 1744,
      "financ": 1745,
      "animals": 1746,
      "##adesh": 1747,
      "observ": 1748,
      "espec": 1749,
      "##ove": 1750,
      "##uri": 1751,
      "##pite": 1752,
      "##wor": 1753,
      "##omm": 1754,
      "sauc": 1755,
      "##assy": 1756,
      "despite": 1757,
      "directly": 1758,
      "levels": 1759,
      "terr": 1760,
      "affairs": 1761,
      "promot": 1762,
      "complete": 1763,
      "especially": 1764,
      "cal": 1765,
      "sol": 1766,
      "##other": 1767,
      "producers": 1768,
      "enc": 1769,
      "##ours": 1770,
      "spread": 1771,
      "meals": 1772,
      "industrial": 1773,
      "invol": 1774,
      "labelling": 1775,
      "generally": 1776,
      "prac": 1777,
      "vegetable": 1778,
      "reached": 1779,
      "powder": 1780,
      "restaurants": 1781,
      "expanding": 1782,
      "kil": 1783,
      "line": 1784,
      "pak": 1785,
      "sit": 1786,
      "##uation": 1787,
      "inst": 1788,
      "##ars": 1789,
      "##ements": 1790,
      "overall": 1791,
      "developed": 1792,
      "variety": 1793,
      "##lands": 1794,
      "stars": 1795,
      "##…………": 1796,
      "identi": 1797,
      "american": 1798,
      "partners": 1799,
      "snack": 1800,
      "docum": 1801,
      "certain": 1802,
      "big": 1803,
      "date": 1804,
      "ful": 1805,
      "oce": 1806,
      "##ah": 1807,
      "##ert": 1808,
      "##art": 1809,
      "##ason": 1810,
      "compared": 1811,
      "##thern": 1812,
      "contacts": 1813,
      "phys": 1814,
      "saudi": 1815,
      "basic": 1816,
      "survey": 1817,
      "soyb": 1818,
      "cere": 1819,
      "tast": 1820,
      "tonn": 1821,
      "##avel": 1822,
      "another": 1823,
      "##elf": 1824,
      "record": 1825,
      "obtain": 1826,
      "lower": 1827,
      "poss": 1828,
      "capital": 1829,
      "european": 1830,
      "expenditure": 1831,
      "pakistan": 1832,
      "divers": 1833,
      "sold": 1834,
      "tax": 1835,
      "##iq": 1836,
      "##arily": 1837,
      "##ises": 1838,
      "che": 1839,
      "##ived": 1840,
      "##ficient": 1841,
      "highly": 1842,
      "accept": 1843,
      "##avour": 1844,
      "amount": 1845,
      "sectors": 1846,
      "university": 1847,
      "transportation": 1848,
      "safety": 1849,
      "##ectively": 1850,
      "given": 1851,
      "pharmaceu": 1852,
      "embassy": 1853,
      "##ploy": 1854,
      "coll": 1855,
      "ice": 1856,
      "rates": 1857,
      "six": 1858,
      "##ik": 1859,
      "shop": 1860,
      "##alled": 1861,
      "##awa": 1862,
      "aviv": 1863,
      "slight": 1864,
      "astronomers": 1865,
      "january": 1866,
      "bak": 1867,
      "bank": 1868,
      "bisc": 1869,
      "germ": 1870,
      "mc": 1871,
      "nes": 1872,
      "range": 1873,
      "##wh": 1874,
      "proble": 1875,
      "##acter": 1876,
      "agree": 1877,
      "##unc": 1878,
      "##aceaefamily": 1879,
      "presence": 1880,
      "half": 1881,
      "type": 1882,
      "##ographic": 1883,
      "relationship": 1884,
      "sky": 1885,
      "clear": 1886,
      "influ": 1887,
      "ocean": 1888,
      "occ": 1889,
      "rules": 1890,
      "san": 1891,
      "##po": 1892,
      "##lim": 1893,
      "##yle": 1894,
      "##wards": 1895,
      "##ering": 1896,
      "##ecast": 1897,
      "exist": 1898,
      "##ify": 1899,
      "israels": 1900,
      "majority": 1901,
      "flour": 1902,
      "schedul": 1903,
      "tonnes": 1904,
      "biscu": 1905,
      "air": 1906,
      "eating": 1907,
      "mus": 1908,
      "oct": 1909,
      "sem": 1910,
      "##ladesh": 1911,
      "##az": 1912,
      "##tional": 1913,
      "##eter": 1914,
      "forecast": 1915,
      "chall": 1916,
      "agre": 1917,
      "energ": 1918,
      "apple": 1919,
      "least": 1920,
      "prev": 1921,
      "central": 1922,
      "manufacturing": 1923,
      "restric": 1924,
      "egypt": 1925,
      "diffic": 1926,
      "registered": 1927,
      "meth": 1928,
      "costs": 1929,
      "engine": 1930,
      "months": 1931,
      "traditional": 1932,
      "resources": 1933,
      "challeng": 1934,
      "sw": 1935,
      "vit": 1936,
      "##ness": 1937,
      "##ene": 1938,
      "##ares": 1939,
      "##stand": 1940,
      "##ions": 1941,
      "##ola": 1942,
      "##umm": 1943,
      "without": 1944,
      "usa": 1945,
      "seed": 1946,
      "ital": 1947,
      "manage": 1948,
      "regions": 1949,
      "##oughly": 1950,
      "afric": 1951,
      "##eties": 1952,
      "bulk": 1953,
      "agreement": 1954,
      "coun": 1955,
      "di": 1956,
      "youn": 1957,
      "##ench": 1958,
      "asian": 1959,
      "industries": 1960,
      "above": 1961,
      "trading": 1962,
      "global": 1963,
      "bil": 1964,
      "bread": 1965,
      "mt": 1966,
      "mac": 1967,
      "targ": 1968,
      "stre": 1969,
      "chem": 1970,
      "trends": 1971,
      "##ulture": 1972,
      "said": 1973,
      "afgh": 1974,
      "maintain": 1975,
      "competitive": 1976,
      "labels": 1977,
      "laws": 1978,
      "protection": 1979,
      "crops": 1980,
      "benef": 1981,
      "bangladesh": 1982,
      "varieties": 1983,
      "dess": 1984,
      "men": 1985,
      "tend": 1986,
      "##ao": 1987,
      "##ina": 1988,
      "##ically": 1989,
      "##ising": 1990,
      "real": 1991,
      "plan": 1992,
      "december": 1993,
      "recently": 1994,
      "capac": 1995,
      "design": 1996,
      "positive": 1997,
      "##isions": 1998,
      "authority": 1999,
      "analys": 2000,
      "advantage": 2001,
      "german": 2002,
      "method": 2003,
      "hold": 2004,
      "middle": 2005,
      "rural": 2006,
      "your": 2007,
      "##eas": 2008,
      "##ob": 2009,
      "##isms": 2010,
      "comb": 2011,
      "char": 2012,
      "chilled": 2013,
      "committ": 2014,
      "##ateral": 2015,
      "##atives": 2016,
      "##lesh": 2017,
      "butter": 2018,
      "prior": 2019,
      "subject": 2020,
      "visit": 2021,
      "cooperation": 2022,
      "scienti": 2023,
      "encour": 2024,
      "capacity": 2025,
      "fig": 2026,
      "ferti": 2027,
      "fair": 2028,
      "log": 2029,
      "roughly": 2030,
      "##line": 2031,
      "##me": 2032,
      "third": 2033,
      "##esti": 2034,
      "today": 2035,
      "beer": 2036,
      "##uty": 2037,
      "importing": 2038,
      "israeltel": 2039,
      "relatively": 2040,
      "standard": 2041,
      "accounted": 2042,
      "edible": 2043,
      "restaurant": 2044,
      "categories": 2045,
      "##infoexport": 2046,
      "slightly": 2047,
      "coc": 2048,
      "cities": 2049,
      "day": 2050,
      "hum": 2051,
      "mem": 2052,
      "round": 2053,
      "##ton": 2054,
      "then": 2055,
      "##ceed": 2056,
      "change": 2057,
      "groc": 2058,
      "located": 2059,
      "basis": 2060,
      "##international": 2061,
      "arabia": 2062,
      "du": 2063,
      "dest": 2064,
      "dise": 2065,
      "june": 2066,
      "wine": 2067,
      "##can": 2068,
      "##omes": 2069,
      "refer": 2070,
      "example": 2071,
      "##oph": 2072,
      "seen": 2073,
      "##ensive": 2074,
      "implement": 2075,
      "subst": 2076,
      "drinks": 2077,
      "port": 2078,
      "cred": 2079,
      "concent": 2080,
      "promo": 2081,
      "moroc": 2082,
      "tunisia": 2083,
      "wholesal": 2084,
      "energy": 2085,
      "analysis": 2086,
      "dens": 2087,
      "doll": 2088,
      "hist": 2089,
      "nam": 2090,
      "instr": 2091,
      "apply": 2092,
      "france": 2093,
      "##ification": 2094,
      "##ptions": 2095,
      "juicy": 2096,
      "issues": 2097,
      "manufacturer": 2098,
      "measures": 2099,
      "telescope": 2100,
      "crisp": 2101,
      "afghan": 2102,
      "back": 2103,
      "case": 2104,
      "har": 2105,
      "rip": 2106,
      "wto": 2107,
      "##df": 2108,
      "##aff": 2109,
      "##onic": 2110,
      "##tish": 2111,
      "##ably": 2112,
      "##ams": 2113,
      "##aintern": 2114,
      "##rict": 2115,
      "seeds": 2116,
      "meal": 2117,
      "perform": 2118,
      "##ivid": 2119,
      "issue": 2120,
      "decrease": 2121,
      "enterpr": 2122,
      "below": 2123,
      "primary": 2124,
      "atlas": 2125,
      "management": 2126,
      "concentr": 2127,
      "bod": 2128,
      "eat": 2129,
      "func": 2130,
      "mix": 2131,
      "rd": 2132,
      "##oy": 2133,
      "##ests": 2134,
      "proper": 2135,
      "##uses": 2136,
      "commun": 2137,
      "oils": 2138,
      "assist": 2139,
      "competit": 2140,
      "respectively": 2141,
      "detail": 2142,
      "commissioner": 2143,
      "division": 2144,
      "administration": 2145,
      "financial": 2146,
      "biscuits": 2147,
      "aug": 2148,
      "diet": 2149,
      "making": 2150,
      "##dfaitmaecigcc": 2151,
      "##fy": 2152,
      "##he": 2153,
      "towards": 2154,
      "##itted": 2155,
      "##istics": 2156,
      "##active": 2157,
      "chi": 2158,
      "content": 2159,
      "mean": 2160,
      "exporting": 2161,
      "arr": 2162,
      "##encies": 2163,
      "better": 2164,
      "pean": 2165,
      "grew": 2166,
      "build": 2167,
      "known": 2168,
      "conduct": 2169,
      "segment": 2170,
      "bilateral": 2171,
      "committee": 2172,
      "fertil": 2173,
      "members": 2174,
      "fam": 2175,
      "kosher": 2176,
      "mic": 2177,
      "pen": 2178,
      "ple": 2179,
      "section": 2180,
      "term": 2181,
      "asean": 2182,
      "individ": 2183,
      "##osh": 2184,
      "particip": 2185,
      "purchase": 2186,
      "working": 2187,
      "considered": 2188,
      "power": 2189,
      "testing": 2190,
      "quantity": 2191,
      "necessary": 2192,
      "nesoi": 2193,
      "gb": 2194,
      "pass": 2195,
      "pub": 2196,
      "wr": 2197,
      "##ek": 2198,
      "##tific": 2199,
      "##asing": 2200,
      "constr": 2201,
      "##amin": 2202,
      "accounts": 2203,
      "related": 2204,
      "subs": 2205,
      "green": 2206,
      "juices": 2207,
      "officer": 2208,
      "profile": 2209,
      "nearly": 2210,
      "agreements": 2211,
      "difficult": 2212,
      "dessert": 2213,
      "ka": 2214,
      "##mber": 2215,
      "##ances": 2216,
      "##thers": 2217,
      "##rim": 2218,
      "agent": 2219,
      "again": 2220,
      "usually": 2221,
      "contribut": 2222,
      "##elled": 2223,
      "road": 2224,
      "opportunity": 2225,
      "##ready": 2226,
      "elect": 2227,
      "types": 2228,
      "early": 2229,
      "successful": 2230,
      "category": 2231,
      "##internet": 2232,
      "descri": 2233,
      "canned": 2234,
      "spreads": 2235,
      "full": 2236,
      "target": 2237,
      "gain": 2238,
      "her": 2239,
      "mm": 2240,
      "mill": 2241,
      "pet": 2242,
      "##ci": 2243,
      "##icies": 2244,
      "def": 2245,
      "resid": 2246,
      "note": 2247,
      "includes": 2248,
      "relev": 2249,
      "clos": 2250,
      "labor": 2251,
      "soft": 2252,
      "times": 2253,
      "reported": 2254,
      "specialty": 2255,
      "students": 2256,
      "payment": 2257,
      "chocolate": 2258,
      "ripens": 2259,
      "publish": 2260,
      "cod": 2261,
      "cop": 2262,
      "gl": 2263,
      "mount": 2264,
      "vir": 2265,
      "##opp": 2266,
      "##ning": 2267,
      "##site": 2268,
      "##erce": 2269,
      "##inary": 2270,
      "##oming": 2271,
      "##aper": 2272,
      "age": 2273,
      "shipp": 2274,
      "union": 2275,
      "##ght": 2276,
      "sept": 2277,
      "healthy": 2278,
      "obj": 2279,
      "remains": 2280,
      "policies": 2281,
      "barley": 2282,
      "simil": 2283,
      "##html": 2284,
      "responsible": 2285,
      "micro": 2286,
      "individual": 2287,
      "bott": 2288,
      "cel": 2289,
      "gal": 2290,
      "ie": 2291,
      "km": 2292,
      "let": 2293,
      "live": 2294,
      "summ": 2295,
      "##gen": 2296,
      "##mos": 2297,
      "##sts": 2298,
      "##itary": 2299,
      "##asp": 2300,
      "proced": 2301,
      "##uls": 2302,
      "cand": 2303,
      "begin": 2304,
      "##vember": 2305,
      "ship": 2306,
      "trend": 2307,
      "enti": 2308,
      "plans": 2309,
      "french": 2310,
      "november": 2311,
      "scale": 2312,
      "july": 2313,
      "point": 2314,
      "accordance": 2315,
      "groups": 2316,
      "british": 2317,
      "treat": 2318,
      "activities": 2319,
      "africa": 2320,
      "human": 2321,
      "relevant": 2322,
      "similar": 2323,
      "cut": 2324,
      "colum": 2325,
      "member": 2326,
      "sell": 2327,
      "##ias": 2328,
      "##bia": 2329,
      "##medi": 2330,
      "##eral": 2331,
      "along": 2332,
      "short": 2333,
      "manil": 2334,
      "employ": 2335,
      "developing": 2336,
      "annually": 2337,
      "continues": 2338,
      "move": 2339,
      "primarily": 2340,
      "experi": 2341,
      "cooking": 2342,
      "eggs": 2343,
      "involved": 2344,
      "muslim": 2345,
      "##internationalgcca": 2346,
      "credit": 2347,
      "##ainternet": 2348,
      "fertiliz": 2349,
      "bure": 2350,
      "dou": 2351,
      "king": 2352,
      "rib": 2353,
      "way": 2354,
      "##based": 2355,
      "##tar": 2356,
      "##gest": 2357,
      "##erve": 2358,
      "exch": 2359,
      "exhib": 2360,
      "once": 2361,
      "travel": 2362,
      "##ears": 2363,
      "spectr": 2364,
      "expans": 2365,
      "included": 2366,
      "minim": 2367,
      "retailers": 2368,
      "carry": 2369,
      "systems": 2370,
      "applicant": 2371,
      "factors": 2372,
      "decline": 2373,
      "farmers": 2374,
      "life": 2375,
      "break": 2376,
      "##ontact": 2377,
      "determine": 2378,
      "sauce": 2379,
      "morocco": 2380,
      "spectrum": 2381,
      "bay": 2382,
      "lack": 2383,
      "site": 2384,
      "##app": 2385,
      "##atic": 2386,
      "##ior": 2387,
      "##bec": 2388,
      "##sw": 2389,
      "##tim": 2390,
      "##oms": 2391,
      "##ured": 2392,
      "##agov": 2393,
      "##ights": 2394,
      "##ung": 2395,
      "until": 2396,
      "commerce": 2397,
      "parts": 2398,
      "therefore": 2399,
      "return": 2400,
      "preserv": 2401,
      "center": 2402,
      "interested": 2403,
      "##ittle": 2404,
      "hyper": 2405,
      "territ": 2406,
      "aw": 2407,
      "apr": 2408,
      "bor": 2409,
      "my": 2410,
      "put": 2411,
      "soc": 2412,
      "##da": 2413,
      "##ner": 2414,
      "##wide": 2415,
      "##inces": 2416,
      "##ether": 2417,
      "##omen": 2418,
      "alger": 2419,
      "whether": 2420,
      "consign": 2421,
      "compet": 2422,
      "able": 2423,
      "provinces": 2424,
      "##lick": 2425,
      "weight": 2426,
      "##enced": 2427,
      "republic": 2428,
      "throughout": 2429,
      "distributor": 2430,
      "facilities": 2431,
      "networ": 2432,
      "##goti": 2433,
      "alcoholic": 2434,
      "density": 2435,
      "ach": 2436,
      "bal": 2437,
      "bra": 2438,
      "cif": 2439,
      "dra": 2440,
      "little": 2441,
      "mov": 2442,
      "pal": 2443,
      "rise": 2444,
      "yen": 2445,
      "##ober": 2446,
      "##by": 2447,
      "##gro": 2448,
      "##ways": 2449,
      "##ality": 2450,
      "refl": 2451,
      "except": 2452,
      "online": 2453,
      "##ump": 2454,
      "already": 2455,
      "incomes": 2456,
      "##utes": 2457,
      "feeds": 2458,
      "princ": 2459,
      "australian": 2460,
      "availability": 2461,
      "##matic": 2462,
      "electr": 2463,
      "astronomy": 2464,
      "universe": 2465,
      "joint": 2466,
      "event": 2467,
      "institution": 2468,
      "##bruary": 2469,
      "practic": 2470,
      "pharmaceutical": 2471,
      "competitors": 2472,
      "princip": 2473,
      "click": 2474,
      "den": 2475,
      "duty": 2476,
      "rad": 2477,
      "tri": 2478,
      "wid": 2479,
      "wide": 2480,
      "##uff": 2481,
      "##tle": 2482,
      "##aded": 2483,
      "##ecu": 2484,
      "island": 2485,
      "force": 2486,
      "chann": 2487,
      "##idaefamily": 2488,
      "##ither": 2489,
      "why": 2490,
      "compr": 2491,
      "regard": 2492,
      "franch": 2493,
      "province": 2494,
      "distance": 2495,
      "corp": 2496,
      "drink": 2497,
      "biotech": 2498,
      "provides": 2499,
      "operations": 2500,
      "purchases": 2501,
      "purchasing": 2502,
      "listed": 2503,
      "whole": 2504,
      "english": 2505,
      "study": 2506,
      "households": 2507,
      "projects": 2508,
      "organizations": 2509,
      "october": 2510,
      "germany": 2511,
      "grocery": 2512,
      "peanut": 2513,
      "either": 2514,
      "gold": 2515,
      "ni": 2516,
      "others": 2517,
      "que": 2518,
      "river": 2519,
      "##cil": 2520,
      "##va": 2521,
      "isl": 2522,
      "reports": 2523,
      "##ury": 2524,
      "beans": 2525,
      "come": 2526,
      "charg": 2527,
      "agencies": 2528,
      "##ained": 2529,
      "##ush": 2530,
      "spect": 2531,
      "space": 2532,
      "accur": 2533,
      "recomm": 2534,
      "negoti": 2535,
      "specified": 2536,
      "understand": 2537,
      "approved": 2538,
      "monitor": 2539,
      "february": 2540,
      "dispos": 2541,
      "greater": 2542,
      "preparations": 2543,
      "earth": 2544,
      "depending": 2545,
      "rising": 2546,
      "programs": 2547,
      "excell": 2548,
      "potatoes": 2549,
      "schedule": 2550,
      "afghanistan": 2551,
      "published": 2552,
      "exchange": 2553,
      "april": 2554,
      "achie": 2555,
      "los": 2556,
      "uk": 2557,
      "vanc": 2558,
      "yell": 2559,
      "##ple": 2560,
      "##lus": 2561,
      "##ters": 2562,
      "##man": 2563,
      "though": 2564,
      "##ened": 2565,
      "##ature": 2566,
      "##ouver": 2567,
      "##acy": 2568,
      "shopp": 2569,
      "##ighb": 2570,
      "contract": 2571,
      "##ttawa": 2572,
      "neighb": 2573,
      "base": 2574,
      "regulation": 2575,
      "##eep": 2576,
      "southeast": 2577,
      "astronomer": 2578,
      "commodity": 2579,
      "europe": 2580,
      "bureau": 2581,
      "expansion": 2582,
      "eas": 2583,
      "ele": 2584,
      "lines": 2585,
      "mul": 2586,
      "##egr": 2587,
      "##pro": 2588,
      "##aim": 2589,
      "##style": 2590,
      "##ented": 2591,
      "producer": 2592,
      "##lex": 2593,
      "##amination": 2594,
      "##ector": 2595,
      "consult": 2596,
      "##fici": 2597,
      "plac": 2598,
      "coast": 2599,
      "##angu": 2600,
      "##ribed": 2601,
      "supplier": 2602,
      "drugs": 2603,
      "lifest": 2604,
      "activity": 2605,
      "allowed": 2606,
      "previous": 2607,
      "street": 2608,
      "vancouver": 2609,
      "fri": 2610,
      "fall": 2611,
      "langu": 2612,
      "nood": 2613,
      "ol": 2614,
      "ra": 2615,
      "tex": 2616,
      "vent": 2617,
      "via": 2618,
      "wood": 2619,
      "yet": 2620,
      "##contact": 2621,
      "##ls": 2622,
      "##ture": 2623,
      "##organ": 2624,
      "prosp": 2625,
      "##acid": 2626,
      "##ribusiness": 2627,
      "emerg": 2628,
      "##eful": 2629,
      "needs": 2630,
      "clim": 2631,
      "quick": 2632,
      "single": 2633,
      "##market": 2634,
      "becoming": 2635,
      "poli": 2636,
      "official": 2637,
      "likely": 2638,
      "requires": 2639,
      "represents": 2640,
      "living": 2641,
      "barri": 2642,
      "held": 2643,
      "website": 2644,
      "genetically": 2645,
      "situation": 2646,
      "wholesalers": 2647,
      "excellent": 2648,
      "yellow": 2649,
      "did": 2650,
      "dry": 2651,
      "er": 2652,
      "fed": 2653,
      "hon": 2654,
      "him": 2655,
      "outs": 2656,
      "technolog": 2657,
      "taking": 2658,
      "##eans": 2659,
      "##ru": 2660,
      "##mo": 2661,
      "##zil": 2662,
      "##tis": 2663,
      "andor": 2664,
      "canola": 2665,
      "##ided": 2666,
      "uses": 2667,
      "##ibility": 2668,
      "##rought": 2669,
      "portion": 2670,
      "continued": 2671,
      "providing": 2672,
      "containing": 2673,
      "eastern": 2674,
      "depend": 2675,
      "america": 2676,
      "hotel": 2677,
      "technical": 2678,
      "##govil": 2679,
      "efforts": 2680,
      "powdered": 2681,
      "kilomet": 2682,
      "italy": 2683,
      "character": 2684,
      "ribb": 2685,
      "brazil": 2686,
      "aim": 2687,
      "ban": 2688,
      "ho": 2689,
      "lat": 2690,
      "old": 2691,
      "russ": 2692,
      "##ea": 2693,
      "##eed": 2694,
      "##ds": 2695,
      "##put": 2696,
      "##bre": 2697,
      "##tr": 2698,
      "##rom": 2699,
      "##ilit": 2700,
      "reform": 2701,
      "##ulate": 2702,
      "##ession": 2703,
      "##osed": 2704,
      "unit": 2705,
      "contr": 2706,
      "heav": 2707,
      "acid": 2708,
      "subacid": 2709,
      "obl": 2710,
      "vietnamese": 2711,
      "decreased": 2712,
      "metro": 2713,
      "##ography": 2714,
      "aromatic": 2715,
      "joh": 2716,
      "buyers": 2717,
      "##ique": 2718,
      "famil": 2719,
      "columbia": 2720,
      "educ": 2721,
      "hard": 2722,
      "il": 2723,
      "lake": 2724,
      "pq": 2725,
      "rather": 2726,
      "ver": 2727,
      "##ein": 2728,
      "##equ": 2729,
      "##nov": 2730,
      "##lied": 2731,
      "##wa": 2732,
      "##king": 2733,
      "thus": 2734,
      "##ross": 2735,
      "##ask": 2736,
      "##asons": 2737,
      "const": 2738,
      "##amb": 2739,
      "##pper": 2740,
      "agribusiness": 2741,
      "##ainf": 2742,
      "##rative": 2743,
      "season": 2744,
      "##ude": 2745,
      "increases": 2746,
      "##ervice": 2747,
      "reli": 2748,
      "locally": 2749,
      "economies": 2750,
      "mostly": 2751,
      "worlds": 2752,
      "norm": 2753,
      "flavor": 2754,
      "brief": 2755,
      "considerable": 2756,
      "snacks": 2757,
      "taste": 2758,
      "##while": 2759,
      "shipping": 2760,
      "cn": 2761,
      "cul": 2762,
      "cell": 2763,
      "field": 2764,
      "gum": 2765,
      "lu": 2766,
      "lit": 2767,
      "##cious": 2768,
      "##uel": 2769,
      "##yles": 2770,
      "thous": 2771,
      "thai": 2772,
      "##ator": 2773,
      "##elves": 2774,
      "stead": 2775,
      "began": 2776,
      "suite": 2777,
      "##usal": 2778,
      "consumed": 2779,
      "##ips": 2780,
      "larger": 2781,
      "##owned": 2782,
      "ports": 2783,
      "##anced": 2784,
      "modified": 2785,
      "customers": 2786,
      "##intosh": 2787,
      "##ledge": 2788,
      "popularity": 2789,
      "effective": 2790,
      "turnover": 2791,
      "effort": 2792,
      "cereals": 2793,
      "shops": 2794,
      "council": 2795,
      "young": 2796,
      "august": 2797,
      "meanwhile": 2798,
      "september": 2799,
      "candies": 2800,
      "islam": 2801,
      "outside": 2802,
      "thousand": 2803,
      "cases": 2804,
      "dail": 2805,
      "eval": 2806,
      "gas": 2807,
      "late": 2808,
      "nation": 2809,
      "tem": 2810,
      "##less": 2811,
      "##yal": 2812,
      "##tice": 2813,
      "##rid": 2814,
      "execu": 2815,
      "##ident": 2816,
      "indep": 2817,
      "##ticals": 2818,
      "deal": 2819,
      "means": 2820,
      "grown": 2821,
      "##ipin": 2822,
      "news": 2823,
      "prem": 2824,
      "neg": 2825,
      "sale": 2826,
      "poor": 2827,
      "attr": 2828,
      "contained": 2829,
      "measure": 2830,
      "strategy": 2831,
      "looking": 2832,
      "percentage": 2833,
      "chemical": 2834,
      "promotion": 2835,
      "##mediate": 2836,
      "practices": 2837,
      "golden": 2838,
      "noodles": 2839,
      "just": 2840,
      "magn": 2841,
      "poll": 2842,
      "win": 2843,
      "##ees": 2844,
      "##ring": 2845,
      "##ij": 2846,
      "##bi": 2847,
      "##ention": 2848,
      "##ics": 2849,
      "toget": 2850,
      "##israel": 2851,
      "child": 2852,
      "##irc": 2853,
      "##iang": 2854,
      "##ecting": 2855,
      "##unch": 2856,
      "enj": 2857,
      "separ": 2858,
      "##ogn": 2859,
      "leban": 2860,
      "##aves": 2861,
      "##avail": 2862,
      "organisms": 2863,
      "week": 2864,
      "impact": 2865,
      "frequ": 2866,
      "march": 2867,
      "tea": 2868,
      "medical": 2869,
      "reduced": 2870,
      "##book": 2871,
      "knowledge": 2872,
      "soybean": 2873,
      "figure": 2874,
      "logistics": 2875,
      "disease": 2876,
      "substanti": 2877,
      "instrum": 2878,
      "body": 2879,
      "john": 2880,
      "together": 2881,
      "cf": 2882,
      "cold": 2883,
      "ic": 2884,
      "rays": 2885,
      "##rup": 2886,
      "##za": 2887,
      "##erusal": 2888,
      "##tit": 2889,
      "##add": 2890,
      "##outh": 2891,
      "##istic": 2892,
      "exceed": 2893,
      "##olid": 2894,
      "beh": 2895,
      "alone": 2896,
      "agents": 2897,
      "importation": 2898,
      "compon": 2899,
      "##izing": 2900,
      "##ished": 2901,
      "intended": 2902,
      "rele": 2903,
      "close": 2904,
      "ques": 2905,
      "species": 2906,
      "corre": 2907,
      "southern": 2908,
      "press": 2909,
      "science": 2910,
      "delic": 2911,
      "guarant": 2912,
      "opened": 2913,
      "self": 2914,
      "indicated": 2915,
      "introduction": 2916,
      "received": 2917,
      "filipin": 2918,
      "changes": 2919,
      "promote": 2920,
      "partnership": 2921,
      "document": 2922,
      "documents": 2923,
      "possible": 2924,
      "problems": 2925,
      "building": 2926,
      "against": 2927,
      "algeria": 2928,
      "accuracy": 2929,
      "##availability": 2930,
      "##erusalem": 2931,
      "away": 2932,
      "cu": 2933,
      "caus": 2934,
      "fats": 2935,
      "hs": 2936,
      "mel": 2937,
      "mach": 2938,
      "nso": 2939,
      "overs": 2940,
      "pfa": 2941,
      "squ": 2942,
      "##son": 2943,
      "##ges": 2944,
      "##romon": 2945,
      "tour": 2946,
      "prob": 2947,
      "##rig": 2948,
      "##urs": 2949,
      "##ager": 2950,
      "##iance": 2951,
      "having": 2952,
      "head": 2953,
      "##foods": 2954,
      "integr": 2955,
      "abs": 2956,
      "northern": 2957,
      "centres": 2958,
      "pred": 2959,
      "role": 2960,
      "##phere": 2961,
      "significantly": 2962,
      "##flavor": 2963,
      "##agrgcca": 2964,
      "dominated": 2965,
      "legal": 2966,
      "view": 2967,
      "bakery": 2968,
      "semin": 2969,
      "engineering": 2970,
      "tender": 2971,
      "##estial": 2972,
      "enterprises": 2973,
      "celestial": 2974,
      "entire": 2975,
      "balance": 2976,
      "shopping": 2977,
      "daily": 2978,
      "ap": 2979,
      "ast": 2980,
      "aqu": 2981,
      "culture": 2982,
      "dro": 2983,
      "eth": 2984,
      "hor": 2985,
      "later": 2986,
      "mand": 2987,
      "sens": 2988,
      "tal": 2989,
      "##eg": 2990,
      "##de": 2991,
      "##uing": 2992,
      "##ores": 2993,
      "##ath": 2994,
      "##itable": 2995,
      "forest": 2996,
      "she": 2997,
      "shrim": 2998,
      "##aken": 2999,
      "japans": 3000,
      "provinc": 3001,
      "provisions": 3002,
      "across": 3003,
      "recogn": 3004,
      "never": 3005,
      "mineral": 3006,
      "packing": 3007,
      "carri": 3008,
      "transfer": 3009,
      "smaller": 3010,
      "preparation": 3011,
      "labeling": 3012,
      "created": 3013,
      "attract": 3014,
      "entered": 3015,
      "statistical": 3016,
      "moon": 3017,
      "colour": 3018,
      "risk": 3019,
      "downlo": 3020,
      "concerns": 3021,
      "farms": 3022,
      "obtained": 3023,
      "mcintosh": 3024,
      "restrictions": 3025,
      "challenges": 3026,
      "vitamin": 3027,
      "##infoexportgcc": 3028,
      "dollars": 3029,
      "copy": 3030,
      "manila": 3031,
      "lifestyles": 3032,
      "##romonitor": 3033,
      "tourism": 3034,
      "shrimp": 3035,
      "da": 3036,
      "ey": 3037,
      "max": 3038,
      "sch": 3039,
      "sound": 3040,
      "##oor": 3041,
      "##oid": 3042,
      "##di": 3043,
      "##fast": 3044,
      "##wise": 3045,
      "##vine": 3046,
      "##erous": 3047,
      "innov": 3048,
      "##iting": 3049,
      "##asi": 3050,
      "project": 3051,
      "atmos": 3052,
      "totalled": 3053,
      "arg": 3054,
      "minh": 3055,
      "bio": 3056,
      "##markets": 3057,
      "rob": 3058,
      "moder": 3059,
      "deliver": 3060,
      "affected": 3061,
      "container": 3062,
      "korean": 3063,
      "facilit": 3064,
      "blue": 3065,
      "broad": 3066,
      "herein": 3067,
      "forwarder": 3068,
      "soybeans": 3069,
      "laboratory": 3070,
      "breakfast": 3071,
      "olive": 3072,
      "kilometres": 3073,
      "temper": 3074,
      "delicious": 3075,
      "cuis": 3076,
      "dar": 3077,
      "ess": 3078,
      "gms": 3079,
      "iv": 3080,
      "lay": 3081,
      "nest": 3082,
      "pure": 3083,
      "ware": 3084,
      "##cm": 3085,
      "##dom": 3086,
      "##flesh": 3087,
      "##hy": 3088,
      "##vn": 3089,
      "##antic": 3090,
      "prohib": 3091,
      "##acom": 3092,
      "convers": 3093,
      "rev": 3094,
      "reve": 3095,
      "staff": 3096,
      "##idence": 3097,
      "sug": 3098,
      "##emark": 3099,
      "##ford": 3100,
      "##bert": 3101,
      "largely": 3102,
      "meats": 3103,
      "bovine": 3104,
      "syrup": 3105,
      "fisheries": 3106,
      "grant": 3107,
      "grains": 3108,
      "extre": 3109,
      "##indust": 3110,
      "owned": 3111,
      "insur": 3112,
      "##……………………": 3113,
      "cereal": 3114,
      "problem": 3115,
      "clearance": 3116,
      "border": 3117,
      "quebec": 3118,
      "disposable": 3119,
      "political": 3120,
      "barriers": 3121,
      "honey": 3122,
      "technologies": 3123,
      "attractive": 3124,
      "wareh": 3125,
      "ce": 3126,
      "came": 3127,
      "dub": 3128,
      "get": 3129,
      "makes": 3130,
      "right": 3131,
      "rank": 3132,
      "ul": 3133,
      "vine": 3134,
      "##oth": 3135,
      "##pose": 3136,
      "##gi": 3137,
      "##kn": 3138,
      "##mar": 3139,
      "##arter": 3140,
      "review": 3141,
      "reasons": 3142,
      "contains": 3143,
      "##ques": 3144,
      "growers": 3145,
      "bring": 3146,
      "branch": 3147,
      "active": 3148,
      "salmon": 3149,
      "claim": 3150,
      "regulatory": 3151,
      "##herlands": 3152,
      "soup": 3153,
      "oilse": 3154,
      "branding": 3155,
      "grain": 3156,
      "original": 3157,
      "attribut": 3158,
      "entering": 3159,
      "nature": 3160,
      "netherlands": 3161,
      "foundation": 3162,
      "hotels": 3163,
      "remaining": 3164,
      "experience": 3165,
      "discover": 3166,
      "institute": 3167,
      "##orgil": 3168,
      "matter": 3169,
      "methods": 3170,
      "scientific": 3171,
      "please": 3172,
      "subsid": 3173,
      "galax": 3174,
      "procedures": 3175,
      "doub": 3176,
      "language": 3177,
      "prospects": 3178,
      "climate": 3179,
      "downloaded": 3180,
      "eight": 3181,
      "favour": 3182,
      "mer": 3183,
      "nuts": 3184,
      "ten": 3185,
      "tur": 3186,
      "yield": 3187,
      "##ren": 3188,
      "##pdf": 3189,
      "##ii": 3190,
      "##har": 3191,
      "##met": 3192,
      "##zon": 3193,
      "##jp": 3194,
      "##aled": 3195,
      "##stuff": 3196,
      "##uction": 3197,
      "##ults": 3198,
      "##ills": 3199,
      "importance": 3200,
      "##cca": 3201,
      "deg": 3202,
      "seven": 3203,
      "otherwise": 3204,
      "emir": 3205,
      "location": 3206,
      "valueadd": 3207,
      "soil": 3208,
      "subm": 3209,
      "regular": 3210,
      "liber": 3211,
      "upon": 3212,
      "currency": 3213,
      "irrig": 3214,
      "typically": 3215,
      "accounting": 3216,
      "authorities": 3217,
      "belie": 3218,
      "atlantic": 3219,
      "cattle": 3220,
      "physic": 3221,
      "destination": 3222,
      "performance": 3223,
      "descriptions": 3224,
      "widely": 3225,
      "regarding": 3226,
      "valueadded": 3227,
      "called": 3228,
      "don": 3229,
      "face": 3230,
      "hect": 3231,
      "ke": 3232,
      "os": 3233,
      "ottawa": 3234,
      "pa": 3235,
      "pi": 3236,
      "paper": 3237,
      "run": 3238,
      "rail": 3239,
      "sat": 3240,
      "taken": 3241,
      "##ool": 3242,
      "##uy": 3243,
      "##yt": 3244,
      "##orn": 3245,
      "##ana": 3246,
      "##ening": 3247,
      "##atel": 3248,
      "concept": 3249,
      "##urity": 3250,
      "##ception": 3251,
      "cham": 3252,
      "##owers": 3253,
      "shif": 3254,
      "##iments": 3255,
      "plann": 3256,
      "relig": 3257,
      "saw": 3258,
      "governments": 3259,
      "presc": 3260,
      "repl": 3261,
      "liqu": 3262,
      "became": 3263,
      "carc": 3264,
      "certificates": 3265,
      "trademark": 3266,
      "purchased": 3267,
      "farming": 3268,
      "familystyle": 3269,
      "infrared": 3270,
      "effect": 3271,
      "partner": 3272,
      "clean": 3273,
      "conducted": 3274,
      "license": 3275,
      "forwarders": 3276,
      "offers": 3277,
      "existing": 3278,
      "macau": 3279,
      "##dfaitmaecigcca": 3280,
      "code": 3281,
      "bottled": 3282,
      "##ulses": 3283,
      "treatment": 3284,
      "fertilizer": 3285,
      "kingdom": 3286,
      "cfia": 3287,
      "atmosphere": 3288,
      "vinegar": 3289,
      "lot": 3290,
      "mission": 3291,
      "na": 3292,
      "ns": 3293,
      "nations": 3294,
      "wal": 3295,
      "##cs": 3296,
      "##rad": 3297,
      "##uk": 3298,
      "##face": 3299,
      "##tre": 3300,
      "##zer": 3301,
      "##xic": 3302,
      "##iter": 3303,
      "##eless": 3304,
      "ste": 3305,
      "ontar": 3306,
      "contents": 3307,
      "##alls": 3308,
      "plate": 3309,
      "valid": 3310,
      "##echan": 3311,
      "decision": 3312,
      "mind": 3313,
      "quite": 3314,
      "labour": 3315,
      "output": 3316,
      "announ": 3317,
      "intermediate": 3318,
      "superv": 3319,
      "##uge": 3320,
      "purpose": 3321,
      "requirement": 3322,
      "advanced": 3323,
      "poin": 3324,
      "guid": 3325,
      "lesson": 3326,
      "buying": 3327,
      "cookies": 3328,
      "cheese": 3329,
      "benefit": 3330,
      "histor": 3331,
      "electric": 3332,
      "##ficiency": 3333,
      "russia": 3334,
      "pollution": 3335,
      "substantial": 3336,
      "correct": 3337,
      "conversion": 3338,
      "insurance": 3339,
      "emirates": 3340,
      "ber": 3341,
      "ca": 3342,
      "cst": 3343,
      "fat": 3344,
      "fine": 3345,
      "fdi": 3346,
      "jam": 3347,
      "led": 3348,
      "ml": 3349,
      "pte": 3350,
      "pulses": 3351,
      "qc": 3352,
      "ren": 3353,
      "rang": 3354,
      "veter": 3355,
      "wet": 3356,
      "##dn": 3357,
      "##produc": 3358,
      "##ned": 3359,
      "##net": 3360,
      "##bit": 3361,
      "##year": 3362,
      "##vest": 3363,
      "##orient": 3364,
      "##inational": 3365,
      "##anoi": 3366,
      "##alam": 3367,
      "##reg": 3368,
      "##ict": 3369,
      "touri": 3370,
      "##asia": 3371,
      "##uck": 3372,
      "##ucle": 3373,
      "examination": 3374,
      "stock": 3375,
      "chap": 3376,
      "shar": 3377,
      "##empt": 3378,
      "consulate": 3379,
      "complex": 3380,
      "##resp": 3381,
      "##ewh": 3382,
      "appear": 3383,
      "adj": 3384,
      "adver": 3385,
      "emph": 3386,
      "arri": 3387,
      "notific": 3388,
      "afford": 3389,
      "##coil": 3390,
      "euromonitor": 3391,
      "improving": 3392,
      "readers": 3393,
      "##play": 3394,
      "introduced": 3395,
      "analy": 3396,
      "nutrition": 3397,
      "slowly": 3398,
      "funding": 3399,
      "identify": 3400,
      "benefits": 3401,
      "encouraged": 3402,
      "duties": 3403,
      "history": 3404,
      "details": 3405,
      "shipments": 3406,
      "territory": 3407,
      "consignment": 3408,
      "network": 3409,
      "moving": 3410,
      "independ": 3411,
      "enjoy": 3412,
      "square": 3413,
      "carcass": 3414,
      "ontario": 3415,
      "cater": 3416,
      "circ": 3417,
      "dark": 3418,
      "ku": 3419,
      "keep": 3420,
      "mid": 3421,
      "night": 3422,
      "nucle": 3423,
      "##cer": 3424,
      "##dagov": 3425,
      "##uper": 3426,
      "##lu": 3427,
      "##bon": 3428,
      "##ork": 3429,
      "too": 3430,
      "forms": 3431,
      "##aced": 3432,
      "##right": 3433,
      "reason": 3434,
      "##ulf": 3435,
      "stat": 3436,
      "strict": 3437,
      "##iry": 3438,
      "shape": 3439,
      "indias": 3440,
      "comply": 3441,
      "board": 3442,
      "healthier": 3443,
      "pricing": 3444,
      "foodservice": 3445,
      "reput": 3446,
      "##english": 3447,
      "final": 3448,
      "investments": 3449,
      "manufactured": 3450,
      "improved": 3451,
      "reaching": 3452,
      "secondary": 3453,
      "shows": 3454,
      "responsibility": 3455,
      "expenditures": 3456,
      "receiv": 3457,
      "needed": 3458,
      "patent": 3459,
      "greatly": 3460,
      "chocolates": 3461,
      "biggest": 3462,
      "recorded": 3463,
      "##infoexportgcca": 3464,
      "cocon": 3465,
      "names": 3466,
      "summary": 3467,
      "radio": 3468,
      "venture": 3469,
      "quickly": 3470,
      "ribbed": 3471,
      "evaluation": 3472,
      "children": 3473,
      "overseas": 3474,
      "dubai": 3475,
      "##oriented": 3476,
      "emphas": 3477,
      "bon": 3478,
      "bab": 3479,
      "cy": 3480,
      "dan": 3481,
      "dam": 3482,
      "done": 3483,
      "hop": 3484,
      "lenti": 3485,
      "link": 3486,
      "mechan": 3487,
      "nar": 3488,
      "pig": 3489,
      "rich": 3490,
      "sand": 3491,
      "selling": 3492,
      "tan": 3493,
      "util": 3494,
      "wast": 3495,
      "waves": 3496,
      "##li": 3497,
      "##ively": 3498,
      "##tra": 3499,
      "##yo": 3500,
      "##hi": 3501,
      "##tia": 3502,
      "##eness": 3503,
      "##elines": 3504,
      "propos": 3505,
      "##olution": 3506,
      "coming": 3507,
      "##irr": 3508,
      "always": 3509,
      "dev": 3510,
      "spend": 3511,
      "applied": 3512,
      "manager": 3513,
      "##fort": 3514,
      "##force": 3515,
      "acqu": 3516,
      "##ava": 3517,
      "club": 3518,
      "quarter": 3519,
      "structure": 3520,
      "flavour": 3521,
      "floor": 3522,
      "security": 3523,
      "represented": 3524,
      "team": 3525,
      "ingredient": 3526,
      "endors": 3527,
      "geographic": 3528,
      "##ike": 3529,
      "concentrated": 3530,
      "chief": 3531,
      "arrange": 3532,
      "experienced": 3533,
      "preserved": 3534,
      "compete": 3535,
      "palm": 3536,
      "##ground": 3537,
      "denmark": 3538,
      "families": 3539,
      "instruments": 3540,
      "provincial": 3541,
      "liberal": 3542,
      "points": 3543,
      "bus": 3544,
      "brought": 3545,
      "cit": 3546,
      "cos": 3547,
      "cuts": 3548,
      "fee": 3549,
      "give": 3550,
      "ham": 3551,
      "mag": 3552,
      "pover": 3553,
      "say": 3554,
      "sco": 3555,
      "sample": 3556,
      "want": 3557,
      "women": 3558,
      "##ctic": 3559,
      "##ots": 3560,
      "##ua": 3561,
      "##bs": 3562,
      "##onto": 3563,
      "##oronto": 3564,
      "##inal": 3565,
      "##enior": 3566,
      "reven": 3567,
      "##ulated": 3568,
      "produces": 3569,
      "orch": 3570,
      "##pped": 3571,
      "altern": 3572,
      "compl": 3573,
      "compar": 3574,
      "deep": 3575,
      "spring": 3576,
      "word": 3577,
      "chinas": 3578,
      "amounts": 3579,
      "quot": 3580,
      "corresp": 3581,
      "dress": 3582,
      "interview": 3583,
      "doing": 3584,
      "fees": 3585,
      "feat": 3586,
      "numbers": 3587,
      "numerous": 3588,
      "surface": 3589,
      "factor": 3590,
      "visible": 3591,
      "associated": 3592,
      "efficient": 3593,
      "protein": 3594,
      "licence": 3595,
      "handling": 3596,
      "resulting": 3597,
      "media": 3598,
      "##ussalam": 3599,
      "discount": 3600,
      "administrative": 3601,
      "telescopes": 3602,
      "consists": 3603,
      "changing": 3604,
      "organizer": 3605,
      "sauces": 3606,
      "calc": 3607,
      "solid": 3608,
      "mention": 3609,
      "functional": 3610,
      "property": 3611,
      "assistance": 3612,
      "penet": 3613,
      "hypermarkets": 3614,
      "channels": 3615,
      "recommended": 3616,
      "reforms": 3617,
      "cnca": 3618,
      "guarantee": 3619,
      "seminar": 3620,
      "maxim": 3621,
      "darussalam": 3622,
      "extrem": 3623,
      "oilseeds": 3624,
      "physicist": 3625,
      "guidelines": 3626,
      "veterinary": 3627,
      "chapter": 3628,
      "poverty": 3629,
      "correspond": 3630,
      "cou": 3631,
      "cam": 3632,
      "dog": 3633,
      "hours": 3634,
      "jerusalem": 3635,
      "kans": 3636,
      "links": 3637,
      "mig": 3638,
      "mult": 3639,
      "nd": 3640,
      "nz": 3641,
      "nich": 3642,
      "park": 3643,
      "ser": 3644,
      "samp": 3645,
      "##rus": 3646,
      "##free": 3647,
      "##areness": 3648,
      "toward": 3649,
      "##iles": 3650,
      "##econom": 3651,
      "conn": 3652,
      "imm": 3653,
      "##abilities": 3654,
      "foodstuff": 3655,
      "##term": 3656,
      "##mented": 3657,
      "suf": 3658,
      "sust": 3659,
      "index": 3660,
      "##ocks": 3661,
      "##usdagov": 3662,
      "unless": 3663,
      "enh": 3664,
      "enough": 3665,
      "spent": 3666,
      "expos": 3667,
      "##ellies": 3668,
      "##ense": 3669,
      "district": 3670,
      "weak": 3671,
      "businesses": 3672,
      "generic": 3673,
      "peas": 3674,
      "package": 3675,
      "malt": 3676,
      "##ugg": 3677,
      "assum": 3678,
      "started": 3679,
      "advis": 3680,
      "delta": 3681,
      "applicable": 3682,
      "operating": 3683,
      "operators": 3684,
      "extens": 3685,
      "idea": 3686,
      "##atsagr": 3687,
      "specifically": 3688,
      "fastfood": 3689,
      "maps": 3690,
      "longer": 3691,
      "indians": 3692,
      "profession": 3693,
      "snow": 3694,
      "inflation": 3695,
      "covered": 3696,
      "bestfoods": 3697,
      "traditionally": 3698,
      "divided": 3699,
      "concerned": 3700,
      "choice": 3701,
      "choose": 3702,
      "identified": 3703,
      "tastes": 3704,
      "designed": 3705,
      "harvest": 3706,
      "community": 3707,
      "exhibition": 3708,
      "awareness": 3709,
      "achieve": 3710,
      "neighbour": 3711,
      "constant": 3712,
      "normally": 3713,
      "islamic": 3714,
      "executive": 3715,
      "selfs": 3716,
      "caused": 3717,
      "moderately": 3718,
      "attributed": 3719,
      "hectares": 3720,
      "supervision": 3721,
      "extremely": 3722,
      "multinational": 3723,
      "aut": 3724,
      "bh": 3725,
      "bag": 3726,
      "bound": 3727,
      "cid": 3728,
      "dining": 3729,
      "fo": 3730,
      "jal": 3731,
      "lens": 3732,
      "mass": 3733,
      "mirr": 3734,
      "som": 3735,
      "sav": 3736,
      "wel": 3737,
      "##count": 3738,
      "##oa": 3739,
      "##ris": 3740,
      "##new": 3741,
      "##four": 3742,
      "##iar": 3743,
      "##iques": 3744,
      "##be": 3745,
      "##hape": 3746,
      "##med": 3747,
      "##more": 3748,
      "##inated": 3749,
      "##tified": 3750,
      "##atories": 3751,
      "tom": 3752,
      "##ison": 3753,
      "##ucks": 3754,
      "##action": 3755,
      "##ulation": 3756,
      "producing": 3757,
      "images": 3758,
      "stra": 3759,
      "chew": 3760,
      "shown": 3761,
      "shelled": 3762,
      "##iant": 3763,
      "conscious": 3764,
      "##unched": 3765,
      "##unsw": 3766,
      "ground": 3767,
      "express": 3768,
      "expensive": 3769,
      "works": 3770,
      "##ishes": 3771,
      "##ogen": 3772,
      "coord": 3773,
      "artific": 3774,
      "salad": 3775,
      "boost": 3776,
      "weather": 3777,
      "##ological": 3778,
      "##veness": 3779,
      "president": 3780,
      "httpwwwf": 3781,
      "former": 3782,
      "creating": 3783,
      "leader": 3784,
      "containers": 3785,
      "declar": 3786,
      "bright": 3787,
      "safe": 3788,
      "events": 3789,
      "techniques": 3790,
      "reduce": 3791,
      "pattern": 3792,
      "environmental": 3793,
      "cannot": 3794,
      "classification": 3795,
      "projected": 3796,
      "pharmaceuticals": 3797,
      "diagn": 3798,
      "younger": 3799,
      "beginning": 3800,
      "elements": 3801,
      "reliability": 3802,
      "luzon": 3803,
      "talks": 3804,
      "granted": 3805,
      "##known": 3806,
      "adjust": 3807,
      "kuwa": 3808,
      "##unswick": 3809,
      "aver": 3810,
      "aid": 3811,
      "ba": 3812,
      "cc": 3813,
      "cp": 3814,
      "cass": 3815,
      "camp": 3816,
      "gulf": 3817,
      "oc": 3818,
      "pb": 3819,
      "pan": 3820,
      "rust": 3821,
      "rout": 3822,
      "vers": 3823,
      "vide": 3824,
      "##key": 3825,
      "##mb": 3826,
      "##qs": 3827,
      "##onstr": 3828,
      "##inical": 3829,
      "ang": 3830,
      "##ari": 3831,
      "##refour": 3832,
      "tok": 3833,
      "##ading": 3834,
      "##eth": 3835,
      "##omp": 3836,
      "##actions": 3837,
      "orange": 3838,
      "##ired": 3839,
      "shelf": 3840,
      "consolid": 3841,
      "##chilled": 3842,
      "##ultural": 3843,
      "canadians": 3844,
      "mexic": 3845,
      "##aka": 3846,
      "phen": 3847,
      "itself": 3848,
      "willing": 3849,
      "brunswick": 3850,
      "decade": 3851,
      "ability": 3852,
      "recover": 3853,
      "thereof": 3854,
      "boy": 3855,
      "book": 3856,
      "wealth": 3857,
      "##gress": 3858,
      "##ropri": 3859,
      "fluct": 3860,
      "money": 3861,
      "egyp": 3862,
      "minister": 3863,
      "astronomical": 3864,
      "attention": 3865,
      "afflu": 3866,
      "permission": 3867,
      "authorized": 3868,
      "progress": 3869,
      "declining": 3870,
      "peoples": 3871,
      "launched": 3872,
      "tuna": 3873,
      "selected": 3874,
      "hygi": 3875,
      "offered": 3876,
      "cooper": 3877,
      "preferences": 3878,
      "focused": 3879,
      "promoting": 3880,
      "accepted": 3881,
      "acceptance": 3882,
      "engineered": 3883,
      "encourage": 3884,
      "contributed": 3885,
      "mmflesh": 3886,
      "residents": 3887,
      "losing": 3888,
      "federation": 3889,
      "contrast": 3890,
      "negative": 3891,
      "absor": 3892,
      "coconut": 3893,
      "lentils": 3894,
      "somewh": 3895,
      "chewing": 3896,
      "artificial": 3897,
      "diagnos": 3898,
      "fluctu": 3899,
      "cri": 3900,
      "cur": 3901,
      "cour": 3902,
      "fire": 3903,
      "hab": 3904,
      "jellies": 3905,
      "pestic": 3906,
      "sti": 3907,
      "series": 3908,
      "try": 3909,
      "tree": 3910,
      "wavel": 3911,
      "##conic": 3912,
      "##doc": 3913,
      "##na": 3914,
      "##ha": 3915,
      "##kosher": 3916,
      "##zens": 3917,
      "##jiang": 3918,
      "##anitary": 3919,
      "thems": 3920,
      "tool": 3921,
      "##asuper": 3922,
      "##urum": 3923,
      "stap": 3924,
      "step": 3925,
      "bear": 3926,
      "asp": 3927,
      "##abb": 3928,
      "##abel": 3929,
      "##apacific": 3930,
      "suitable": 3931,
      "##osanitary": 3932,
      "##unic": 3933,
      "millions": 3934,
      "usda": 3935,
      "gross": 3936,
      "##ource": 3937,
      "perce": 3938,
      "appropri": 3939,
      "results": 3940,
      "##itives": 3941,
      "managed": 3942,
      "##ouses": 3943,
      "##berry": 3944,
      "phyt": 3945,
      "##web": 3946,
      "nova": 3947,
      "additives": 3948,
      "freshchilled": 3949,
      "carrefour": 3950,
      "manufacture": 3951,
      "room": 3952,
      "polar": 3953,
      "guide": 3954,
      "representing": 3955,
      "presented": 3956,
      "maple": 3957,
      "colours": 3958,
      "##ottawa": 3959,
      "effects": 3960,
      "##irdf": 3961,
      "indicators": 3962,
      "slaughtering": 3963,
      "permitted": 3964,
      "initiatives": 3965,
      "instant": 3966,
      "diverse": 3967,
      "relationships": 3968,
      "sanitary": 3969,
      "swit": 3970,
      "swine": 3971,
      "italian": 3972,
      "scientists": 3973,
      "dollar": 3974,
      "detailed": 3975,
      "description": 3976,
      "objective": 3977,
      "letter": 3978,
      "social": 3979,
      "electronic": 3980,
      "franchise": 3981,
      "negotiations": 3982,
      "##brew": 3983,
      "heavily": 3984,
      "cultiv": 3985,
      "steadily": 3986,
      "mandatory": 3987,
      "temperature": 3988,
      "essential": 3989,
      "nestle": 3990,
      "prescribed": 3991,
      "advertis": 3992,
      "notification": 3993,
      "scotia": 3994,
      "phenomen": 3995,
      "egypti": 3996,
      "wavelength": 3997,
      "themselves": 3998,
      "bud": 3999,
      "cash": 4000,
      "dig": 4001,
      "gam": 4002,
      "gir": 4003,
      "mis": 4004,
      "mak": 4005,
      "pra": 4006,
      "pine": 4007,
      "toronto": 4008,
      "vol": 4009,
      "##oz": 4010,
      "##dist": 4011,
      "##down": 4012,
      "##uous": 4013,
      "##pled": 4014,
      "##iam": 4015,
      "##iest": 4016,
      "##yl": 4017,
      "##wing": 4018,
      "##inery": 4019,
      "##alog": 4020,
      "answ": 4021,
      "tob": 4022,
      "took": 4023,
      "##itation": 4024,
      "##asusdagov": 4025,
      "prop": 4026,
      "##omatic": 4027,
      "##isible": 4028,
      "##thing": 4029,
      "##ulse": 4030,
      "orbit": 4031,
      "##ower": 4032,
      "##apes": 4033,
      "ago": 4034,
      "##ayas": 4035,
      "##izes": 4036,
      "adop": 4037,
      "##ationsouth": 4038,
      "hebrew": 4039,
      "alloc": 4040,
      "intell": 4041,
      "arctic": 4042,
      "supplement": 4043,
      "##oked": 4044,
      "informationsouth": 4045,
      "undert": 4046,
      "flav": 4047,
      "upd": 4048,
      "lowest": 4049,
      "royal": 4050,
      "investors": 4051,
      "malaysian": 4052,
      "customer": 4053,
      "accession": 4054,
      "operate": 4055,
      "extensive": 4056,
      "indonesian": 4057,
      "factory": 4058,
      "departments": 4059,
      "personal": 4060,
      "fastest": 4061,
      "representative": 4062,
      "select": 4063,
      "offering": 4064,
      "##agnetic": 4065,
      "strategies": 4066,
      "instead": 4067,
      "restricted": 4068,
      "challenge": 4069,
      "implementation": 4070,
      "enterprise": 4071,
      "electrom": 4072,
      "gaining": 4073,
      "microorgan": 4074,
      "multi": 4075,
      "places": 4076,
      "emerging": 4077,
      "education": 4078,
      "verify": 4079,
      "nationwide": 4080,
      "premium": 4081,
      "##ijing": 4082,
      "machinery": 4083,
      "carried": 4084,
      "cuisine": 4085,
      "ultra": 4086,
      "reputation": 4087,
      "mentioned": 4088,
      "kansai": 4089,
      "niche": 4090,
      "jalan": 4091,
      "tomato": 4092,
      "somewhat": 4093,
      "habits": 4094,
      "informationsoutheast": 4095,
      "electromagnetic": 4096,
      "ci": 4097,
      "cott": 4098,
      "dav": 4099,
      "gcc": 4100,
      "hud": 4101,
      "jams": 4102,
      "jump": 4103,
      "mg": 4104,
      "mom": 4105,
      "nav": 4106,
      "serve": 4107,
      "wines": 4108,
      "##ron": 4109,
      "##rate": 4110,
      "##uit": 4111,
      "##nic": 4112,
      "##ave": 4113,
      "##aise": 4114,
      "##ane": 4115,
      "##anad": 4116,
      "##alcohol": 4117,
      "##enn": 4118,
      "anti": 4119,
      "##etti": 4120,
      "##aculture": 4121,
      "exception": 4122,
      "station": 4123,
      "ask": 4124,
      "##abor": 4125,
      "##abased": 4126,
      "##aps": 4127,
      "shipment": 4128,
      "##oss": 4129,
      "canadaisrael": 4130,
      "##quality": 4131,
      "##ives": 4132,
      "expect": 4133,
      "adap": 4134,
      "covers": 4135,
      "developments": 4136,
      "invisible": 4137,
      "informationasia": 4138,
      "##utions": 4139,
      "careful": 4140,
      "transpar": 4141,
      "supplies": 4142,
      "signed": 4143,
      "##ancy": 4144,
      "respect": 4145,
      "applications": 4146,
      "create": 4147,
      "operates": 4148,
      "##index": 4149,
      "##tivity": 4150,
      "nonalcohol": 4151,
      "associations": 4152,
      "belg": 4153,
      "furthermore": 4154,
      "datab": 4155,
      "##plus": 4156,
      "buyer": 4157,
      "medic": 4158,
      "improvement": 4159,
      "dominate": 4160,
      "nutritional": 4161,
      "licenses": 4162,
      "licensing": 4163,
      "collabor": 4164,
      "influence": 4165,
      "maintained": 4166,
      "combined": 4167,
      "diseases": 4168,
      "function": 4169,
      "communic": 4170,
      "defin": 4171,
      "virt": 4172,
      "fertilizers": 4173,
      "territories": 4174,
      "society": 4175,
      "cells": 4176,
      "component": 4177,
      "release": 4178,
      "pressure": 4179,
      "filipino": 4180,
      "aquaculture": 4181,
      "sensitive": 4182,
      "delivery": 4183,
      "irrigation": 4184,
      "foodstuffs": 4185,
      "selfsuf": 4186,
      "affluent": 4187,
      "hygiene": 4188,
      "phytosanitary": 4189,
      "nonalcoholic": 4190,
      "aud": 4191,
      "bur": 4192,
      "cakes": 4193,
      "ly": 4194,
      "mb": 4195,
      "mut": 4196,
      "pick": 4197,
      "rose": 4198,
      "search": 4199,
      "soph": 4200,
      "trop": 4201,
      "upper": 4202,
      "went": 4203,
      "wish": 4204,
      "##cl": 4205,
      "##rain": 4206,
      "##fm": 4207,
      "##lin": 4208,
      "##ais": 4209,
      "##ya": 4210,
      "##years": 4211,
      "##ho": 4212,
      "##hed": 4213,
      "##hing": 4214,
      "##vent": 4215,
      "##ke": 4216,
      "thre": 4217,
      "##inate": 4218,
      "##anao": 4219,
      "##tious": 4220,
      "##ilt": 4221,
      "##isation": 4222,
      "##acc": 4223,
      "##ula": 4224,
      "##olet": 4225,
      "stable": 4226,
      "asi": 4227,
      "##umin": 4228,
      "##agricult": 4229,
      "shares": 4230,
      "##aints": 4231,
      "##emic": 4232,
      "##employ": 4233,
      "##ife": 4234,
      "unemploy": 4235,
      "spe": 4236,
      "consume": 4237,
      "##ival": 4238,
      "append": 4239,
      "##ficit": 4240,
      "##ipl": 4241,
      "left": 4242,
      "amate": 4243,
      "salted": 4244,
      "##ilever": 4245,
      "minutes": 4246,
      "mayonn": 4247,
      "capabilities": 4248,
      "httpwwwinfoexportgcc": 4249,
      "retailing": 4250,
      "lightyears": 4251,
      "syn": 4252,
      "carbon": 4253,
      "transit": 4254,
      "direc": 4255,
      "advised": 4256,
      "establishing": 4257,
      "elim": 4258,
      "northw": 4259,
      "drive": 4260,
      "ideal": 4261,
      "stateowned": 4262,
      "facility": 4263,
      "accordingly": 4264,
      "##flowers": 4265,
      "measured": 4266,
      "controlled": 4267,
      "simp": 4268,
      "##going": 4269,
      "cooked": 4270,
      "commonly": 4271,
      "reducing": 4272,
      "iranian": 4273,
      "receive": 4274,
      "exclus": 4275,
      "describ": 4276,
      "fourth": 4277,
      "quantities": 4278,
      "photographic": 4279,
      "tunisian": 4280,
      "initial": 4281,
      "observatory": 4282,
      "practice": 4283,
      "baked": 4284,
      "counter": 4285,
      "diam": 4286,
      "participation": 4287,
      "defined": 4288,
      "procedure": 4289,
      "movement": 4290,
      "institutional": 4291,
      "recommend": 4292,
      "loss": 4293,
      "easy": 4294,
      "characteristics": 4295,
      "latest": 4296,
      "liters": 4297,
      "lebanon": 4298,
      "question": 4299,
      "documentation": 4300,
      "argent": 4301,
      "revealed": 4302,
      "submitted": 4303,
      "planning": 4304,
      "liquid": 4305,
      "announced": 4306,
      "endorse": 4307,
      "coupled": 4308,
      "kuwait": 4309,
      "##qsiq": 4310,
      "phenomenon": 4311,
      "unemployment": 4312,
      "appendix": 4313,
      "mayonnaise": 4314,
      "aqsiq": 4315,
      "bc": 4316,
      "bill": 4317,
      "bird": 4318,
      "caf": 4319,
      "dishes": 4320,
      "dipl": 4321,
      "fu": 4322,
      "fer": 4323,
      "gm": 4324,
      "gar": 4325,
      "huge": 4326,
      "might": 4327,
      "nine": 4328,
      "opp": 4329,
      "rights": 4330,
      "side": 4331,
      "satis": 4332,
      "van": 4333,
      "vat": 4334,
      "yang": 4335,
      "##ran": 4336,
      "##ps": 4337,
      "##sg": 4338,
      "##wich": 4339,
      "##mission": 4340,
      "##jsp": 4341,
      "##oni": 4342,
      "##atch": 4343,
      "##itan": 4344,
      "##etro": 4345,
      "##etary": 4346,
      "##uce": 4347,
      "productivity": 4348,
      "##olec": 4349,
      "beijing": 4350,
      "chec": 4351,
      "##ope": 4352,
      "##chand": 4353,
      "units": 4354,
      "unilever": 4355,
      "deficit": 4356,
      "spain": 4357,
      "adequ": 4358,
      "yearly": 4359,
      "request": 4360,
      "nep": 4361,
      "clinical": 4362,
      "object": 4363,
      "wwwm": 4364,
      "packed": 4365,
      "prince": 4366,
      "party": 4367,
      "crab": 4368,
      "remov": 4369,
      "offices": 4370,
      "advance": 4371,
      "delhi": 4372,
      "accessed": 4373,
      "extract": 4374,
      "privatel": 4375,
      "condition": 4376,
      "supers": 4377,
      "engaged": 4378,
      "black": 4379,
      "mart": 4380,
      "##place": 4381,
      "sugarcan": 4382,
      "controls": 4383,
      "technique": 4384,
      "completed": 4385,
      "path": 4386,
      "exclud": 4387,
      "strategic": 4388,
      "crisis": 4389,
      "physical": 4390,
      "clearly": 4391,
      "figures": 4392,
      "roundconic": 4393,
      "reference": 4394,
      "implemented": 4395,
      "arrang": 4396,
      "channel": 4397,
      "dependent": 4398,
      "oblate": 4399,
      "apec": 4400,
      "eye": 4401,
      "facilitate": 4402,
      "##hyd": 4403,
      "prohibited": 4404,
      "##industry": 4405,
      "favourable": 4406,
      "piec": 4407,
      "cstores": 4408,
      "##products": 4409,
      "status": 4410,
      "citrus": 4411,
      "camer": 4412,
      "sufficient": 4413,
      "httpwwwfasusdagov": 4414,
      "mexico": 4415,
      "appropriate": 4416,
      "advertising": 4417,
      "egyptian": 4418,
      "girl": 4419,
      "flavors": 4420,
      "microorganisms": 4421,
      "belgium": 4422,
      "sophistic": 4423,
      "amateur": 4424,
      "argentina": 4425,
      "privatelabel": 4426,
      "sugarcane": 4427,
      "ave": 4428,
      "bond": 4429,
      "carg": 4430,
      "drop": 4431,
      "element": 4432,
      "fif": 4433,
      "fail": 4434,
      "fob": 4435,
      "fuel": 4436,
      "hun": 4437,
      "harm": 4438,
      "jak": 4439,
      "kit": 4440,
      "lem": 4441,
      "marg": 4442,
      "molec": 4443,
      "ng": 4444,
      "pest": 4445,
      "rc": 4446,
      "rati": 4447,
      "ti": 4448,
      "tag": 4449,
      "tests": 4450,
      "war": 4451,
      "##rs": 4452,
      "##pe": 4453,
      "##pa": 4454,
      "##pack": 4455,
      "##ne": 4456,
      "##ni": 4457,
      "##ler": 4458,
      "##iri": 4459,
      "##bc": 4460,
      "##made": 4461,
      "##zi": 4462,
      "##oring": 4463,
      "##oria": 4464,
      "##ros": 4465,
      "##ecom": 4466,
      "extern": 4467,
      "##urt": 4468,
      "stage": 4469,
      "sttel": 4470,
      "beg": 4471,
      "##amew": 4472,
      "##ows": 4473,
      "##otech": 4474,
      "marking": 4475,
      "suff": 4476,
      "compos": 4477,
      "##osp": 4478,
      "unfort": 4479,
      "##alling": 4480,
      "plain": 4481,
      "manner": 4482,
      "commit": 4483,
      "parent": 4484,
      "##atiz": 4485,
      "populated": 4486,
      "##aie": 4487,
      "httpww": 4488,
      "worldwide": 4489,
      "century": 4490,
      "interactive": 4491,
      "demonstr": 4492,
      "care": 4493,
      "fishery": 4494,
      "assess": 4495,
      "purpos": 4496,
      "oriented": 4497,
      "companys": 4498,
      "formats": 4499,
      "establishment": 4500,
      "mild": 4501,
      "northeast": 4502,
      "conclus": 4503,
      "metres": 4504,
      "##value": 4505,
      "attempt": 4506,
      "estimate": 4507,
      "privatiz": 4508,
      "owner": 4509,
      "visits": 4510,
      "visayas": 4511,
      "##afc": 4512,
      "declined": 4513,
      "expanded": 4514,
      "##income": 4515,
      "taiwanese": 4516,
      "longterm": 4517,
      "improvements": 4518,
      "breed": 4519,
      "introduce": 4520,
      "advantages": 4521,
      "necessarily": 4522,
      "funds": 4523,
      "planets": 4524,
      "referred": 4525,
      "instruc": 4526,
      "mixed": 4527,
      "objects": 4528,
      "double": 4529,
      "##times": 4530,
      "institutions": 4531,
      "principal": 4532,
      "texture": 4533,
      "ill": 4534,
      "discovered": 4535,
      "galaxy": 4536,
      "merchand": 4537,
      "osaka": 4538,
      "mindanao": 4539,
      "james": 4540,
      "renew": 4541,
      "receiving": 4542,
      "baby": 4543,
      "sustain": 4544,
      "video": 4545,
      "pesticides": 4546,
      "budget": 4547,
      "asiapacific": 4548,
      "diplomatic": 4549,
      "nepal": 4550,
      "external": 4551,
      "unfortun": 4552,
      "purposes": 4553,
      "beng": 4554,
      "der": 4555,
      "fill": 4556,
      "favor": 4557,
      "flesh": 4558,
      "hub": 4559,
      "lump": 4560,
      "puri": 4561,
      "rainf": 4562,
      "ta": 4563,
      "ting": 4564,
      "vast": 4565,
      "vary": 4566,
      "##ders": 4567,
      "##pre": 4568,
      "##lies": 4569,
      "##iaceaefamily": 4570,
      "##bucks": 4571,
      "##mart": 4572,
      "##onal": 4573,
      "##inh": 4574,
      "##inct": 4575,
      "##anmar": 4576,
      "##ara": 4577,
      "##aries": 4578,
      "##round": 4579,
      "##att": 4580,
      "##ites": 4581,
      "##isl": 4582,
      "##acco": 4583,
      "##riger": 4584,
      "##igation": 4585,
      "stated": 4586,
      "##ops": 4587,
      "##aint": 4588,
      "track": 4589,
      "##emned": 4590,
      "constit": 4591,
      "usd": 4592,
      "useful": 4593,
      "seem": 4594,
      "spright": 4595,
      "appears": 4596,
      "##izza": 4597,
      "##fication": 4598,
      "coverage": 4599,
      "lev": 4600,
      "valu": 4601,
      "valley": 4602,
      "framew": 4603,
      "##veloped": 4604,
      "internal": 4605,
      "decisions": 4606,
      "processors": 4607,
      "ecoz": 4608,
      "provision": 4609,
      "relative": 4610,
      "distinct": 4611,
      "prec": 4612,
      "gene": 4613,
      "##aceae": 4614,
      "weights": 4615,
      "##ipped": 4616,
      "##ology": 4617,
      "infant": 4618,
      "approach": 4619,
      "certified": 4620,
      "finally": 4621,
      "follows": 4622,
      "disp": 4623,
      "display": 4624,
      "crush": 4625,
      "sometimes": 4626,
      "continuous": 4627,
      "##comm": 4628,
      "competiti": 4629,
      "formal": 4630,
      "establishments": 4631,
      "poly": 4632,
      "register": 4633,
      "surplus": 4634,
      "persons": 4635,
      "equival": 4636,
      "operated": 4637,
      "condiments": 4638,
      "player": 4639,
      "interesting": 4640,
      "edward": 4641,
      "universal": 4642,
      "##shape": 4643,
      "protect": 4644,
      "resulted": 4645,
      "opening": 4646,
      "risks": 4647,
      "indicates": 4648,
      "remained": 4649,
      "##gojp": 4650,
      "discuss": 4651,
      "meeting": 4652,
      "finding": 4653,
      "refriger": 4654,
      "going": 4655,
      "countryside": 4656,
      "photograph": 4657,
      "determined": 4658,
      "segments": 4659,
      "financing": 4660,
      "occup": 4661,
      "prevent": 4662,
      "priority": 4663,
      "cocoa": 4664,
      "promotional": 4665,
      "##health": 4666,
      "pleas": 4667,
      "mountain": 4668,
      "treaty": 4669,
      "experiment": 4670,
      "minimal": 4671,
      "myanmar": 4672,
      "principles": 4673,
      "understanding": 4674,
      "coastal": 4675,
      "aimed": 4676,
      "steady": 4677,
      "exceeding": 4678,
      "probably": 4679,
      "astrol": 4680,
      "dropped": 4681,
      "ranked": 4682,
      "satell": 4683,
      "chamber": 4684,
      "nsdp": 4685,
      "tourist": 4686,
      "nucleus": 4687,
      "emphasis": 4688,
      "narration": 4689,
      "revenues": 4690,
      "comparison": 4691,
      "maximum": 4692,
      "immig": 4693,
      "extension": 4694,
      "neighbouring": 4695,
      "mirror": 4696,
      "straw": 4697,
      "patterns": 4698,
      "tobacco": 4699,
      "update": 4700,
      "hudson": 4701,
      "moment": 4702,
      "instructions": 4703,
      "sprightly": 4704,
      "equivalent": 4705,
      "ace": 4706,
      "bone": 4707,
      "bacter": 4708,
      "dated": 4709,
      "drought": 4710,
      "fisc": 4711,
      "hu": 4712,
      "hear": 4713,
      "hanoi": 4714,
      "ii": 4715,
      "ki": 4716,
      "kh": 4717,
      "kind": 4718,
      "push": 4719,
      "pizza": 4720,
      "ri": 4721,
      "tang": 4722,
      "##cure": 4723,
      "##oh": 4724,
      "##ox": 4725,
      "##rink": 4726,
      "##uter": 4727,
      "##puts": 4728,
      "##ns": 4729,
      "##fact": 4730,
      "##light": 4731,
      "##iation": 4732,
      "##band": 4733,
      "##su": 4734,
      "##house": 4735,
      "##gainf": 4736,
      "##jin": 4737,
      "##égan": 4738,
      "##orth": 4739,
      "##inn": 4740,
      "##enasp": 4741,
      "##arian": 4742,
      "##row": 4743,
      "##road": 4744,
      "##ster": 4745,
      "##ille": 4746,
      "##eland": 4747,
      "fort": 4748,
      "conver": 4749,
      "stations": 4750,
      "bey": 4751,
      "comes": 4752,
      "agro": 4753,
      "aggress": 4754,
      "marked": 4755,
      "shelves": 4756,
      "##aining": 4757,
      "true": 4758,
      "marketplace": 4759,
      "unknown": 4760,
      "deb": 4761,
      "speed": 4762,
      "noted": 4763,
      "##ousing": 4764,
      "accomp": 4765,
      "values": 4766,
      "highquality": 4767,
      "emitted": 4768,
      "##ensus": 4769,
      "acad": 4770,
      "arch": 4771,
      "organized": 4772,
      "amended": 4773,
      "##ertific": 4774,
      "quiz": 4775,
      "invo": 4776,
      "##entially": 4777,
      "substit": 4778,
      "avoid": 4779,
      "infoexport": 4780,
      "afma": 4781,
      "wwwc": 4782,
      "wwwinfoexportgcca": 4783,
      "peak": 4784,
      "carling": 4785,
      "transform": 4786,
      "finished": 4787,
      "grades": 4788,
      "roast": 4789,
      "starbucks": 4790,
      "##ategis": 4791,
      "metric": 4792,
      "extent": 4793,
      "distribute": 4794,
      "condemned": 4795,
      "specialist": 4796,
      "confidence": 4797,
      "facts": 4798,
      "mother": 4799,
      "measuring": 4800,
      "efficiency": 4801,
      "supported": 4802,
      "chickp": 4803,
      "##onnor": 4804,
      "##center": 4805,
      "findings": 4806,
      "##ometer": 4807,
      "legisl": 4808,
      "readyt": 4809,
      "nutritious": 4810,
      "explain": 4811,
      "##scape": 4812,
      "kilogr": 4813,
      "sites": 4814,
      "physi": 4815,
      "diversification": 4816,
      "cheaper": 4817,
      "airport": 4818,
      "menu": 4819,
      "holds": 4820,
      "visitors": 4821,
      "background": 4822,
      "concentrates": 4823,
      "participants": 4824,
      "construction": 4825,
      "constraints": 4826,
      "petro": 4827,
      "closer": 4828,
      "closely": 4829,
      "consignments": 4830,
      "cifta": 4831,
      "draw": 4832,
      "reflecting": 4833,
      "comprised": 4834,
      "charges": 4835,
      "spectro": 4836,
      "texti": 4837,
      "components": 4838,
      "questions": 4839,
      "partnerships": 4840,
      "forestry": 4841,
      "sheet": 4842,
      "school": 4843,
      "innovative": 4844,
      "claims": 4845,
      "turkey": 4846,
      "##zerland": 4847,
      "affordable": 4848,
      "analysts": 4849,
      "proposed": 4850,
      "corresponding": 4851,
      "exposure": 4852,
      "oconnor": 4853,
      "routes": 4854,
      "course": 4855,
      "staple": 4856,
      "switzerland": 4857,
      "cotton": 4858,
      "simply": 4859,
      "adequate": 4860,
      "sophisticated": 4861,
      "cargo": 4862,
      "ratio": 4863,
      "breeding": 4864,
      "unfortunately": 4865,
      "pleasant": 4866,
      "astrolab": 4867,
      "fiscal": 4868,
      "##gainfiles": 4869,
      "##égantic": 4870,
      "bes": 4871,
      "bol": 4872,
      "cause": 4873,
      "cultural": 4874,
      "census": 4875,
      "dates": 4876,
      "father": 4877,
      "fao": 4878,
      "gate": 4879,
      "hall": 4880,
      "lb": 4881,
      "luc": 4882,
      "lunch": 4883,
      "pil": 4884,
      "page": 4885,
      "rub": 4886,
      "ua": 4887,
      "yuk": 4888,
      "##fish": 4889,
      "##ih": 4890,
      "##iment": 4891,
      "##bu": 4892,
      "##tw": 4893,
      "##sb": 4894,
      "##ship": 4895,
      "##hem": 4896,
      "##here": 4897,
      "##hetti": 4898,
      "##mc": 4899,
      "##ze": 4900,
      "##orm": 4901,
      "##ino": 4902,
      "##inant": 4903,
      "inputs": 4904,
      "##alf": 4905,
      "##entic": 4906,
      "##arta": 4907,
      "##aroni": 4908,
      "##reen": 4909,
      "##ician": 4910,
      "##ili": 4911,
      "##ita": 4912,
      "##ecertific": 4913,
      "##etch": 4914,
      "proxim": 4915,
      "##entry": 4916,
      "##rist": 4917,
      "##ership": 4918,
      "##ule": 4919,
      "aside": 4920,
      "ones": 4921,
      "##aghetti": 4922,
      "incub": 4923,
      "##email": 4924,
      "marketed": 4925,
      "##ectual": 4926,
      "##ectors": 4927,
      "unique": 4928,
      "spaghetti": 4929,
      "reserv": 4930,
      "##ficial": 4931,
      "##uala": 4932,
      "cool": 4933,
      "##berries": 4934,
      "alliance": 4935,
      "rely": 4936,
      "thanks": 4937,
      "httpatsagr": 4938,
      "labrad": 4939,
      "demographic": 4940,
      "upgr": 4941,
      "researchers": 4942,
      "dozens": 4943,
      "transl": 4944,
      "continuing": 4945,
      "estimates": 4946,
      "##indian": 4947,
      "lob": 4948,
      "authentic": 4949,
      "tart": 4950,
      "freely": 4951,
      "specifications": 4952,
      "permits": 4953,
      "amerindian": 4954,
      "licenc": 4955,
      "supporting": 4956,
      "differences": 4957,
      "convention": 4958,
      "colom": 4959,
      "posted": 4960,
      "selection": 4961,
      "technician": 4962,
      "slaughtered": 4963,
      "broil": 4964,
      "catalog": 4965,
      "allows": 4966,
      "consistently": 4967,
      "explains": 4968,
      "##brand": 4969,
      "possess": 4970,
      "seedling": 4971,
      "macaroni": 4972,
      "groceries": 4973,
      "applying": 4974,
      "roads": 4975,
      "mountains": 4976,
      "letters": 4977,
      "summer": 4978,
      "##genus": 4979,
      "minimum": 4980,
      "hypermarket": 4981,
      "aware": 4982,
      "charge": 4983,
      "contracting": 4984,
      "characterized": 4985,
      "gums": 4986,
      "winter": 4987,
      "behind": 4988,
      "filipinos": 4989,
      "hortic": 4990,
      "suggest": 4991,
      "doubled": 4992,
      "believed": 4993,
      "shift": 4994,
      "historically": 4995,
      "sandwich": 4996,
      "waste": 4997,
      "features": 4998,
      "cider": 4999,
      "coordination": 5000,
      "declaration": 5001,
      "ccd": 5002,
      "tokyo": 5003,
      "cooperative": 5004,
      "critical": 5005,
      "prawn": 5006,
      "##distribut": 5007,
      "propag": 5008,
      "carefully": 5009,
      "audience": 5010,
      "diameter": 5011,
      "supersol": 5012,
      "##ospit": 5013,
      "httpwwwe": 5014,
      "valuable": 5015,
      "framework": 5016,
      "competitiveness": 5017,
      "##gainfilespdf": 5018,
      "##ecertificate": 5019,
      "labrador": 5020,
      "aven": 5021,
      "cards": 5022,
      "dang": 5023,
      "dfait": 5024,
      "es": 5025,
      "fem": 5026,
      "hen": 5027,
      "hund": 5028,
      "hides": 5029,
      "kuala": 5030,
      "mich": 5031,
      "marm": 5032,
      "pm": 5033,
      "rabb": 5034,
      "senior": 5035,
      "ties": 5036,
      "takes": 5037,
      "va": 5038,
      "vill": 5039,
      "wides": 5040,
      "##eks": 5041,
      "##did": 5042,
      "##pric": 5043,
      "##pread": 5044,
      "##larg": 5045,
      "##aqu": 5046,
      "##aign": 5047,
      "##bul": 5048,
      "##bio": 5049,
      "##sper": 5050,
      "##mend": 5051,
      "##zing": 5052,
      "ther": 5053,
      "thom": 5054,
      "think": 5055,
      "##ored": 5056,
      "##inent": 5057,
      "inuit": 5058,
      "##tives": 5059,
      "antic": 5060,
      "##inger": 5061,
      "##astic": 5062,
      "prosper": 5063,
      "##enter": 5064,
      "##theless": 5065,
      "conform": 5066,
      "exem": 5067,
      "##leum": 5068,
      "##olk": 5069,
      "bean": 5070,
      "onto": 5071,
      "##amins": 5072,
      "org": 5073,
      "alg": 5074,
      "alter": 5075,
      "susp": 5076,
      "suss": 5077,
      "##ift": 5078,
      "##imet": 5079,
      "##aster": 5080,
      "##osph": 5081,
      "##ailing": 5082,
      "##raft": 5083,
      "sequ": 5084,
      "appar": 5085,
      "appre": 5086,
      "##endly": 5087,
      "expiry": 5088,
      "resolution": 5089,
      "plus": 5090,
      "accred": 5091,
      "paris": 5092,
      "highend": 5093,
      "franc": 5094,
      "william": 5095,
      "relies": 5096,
      "recip": 5097,
      "arable": 5098,
      "prepack": 5099,
      "##ideasuper": 5100,
      "boom": 5101,
      "##oke": 5102,
      "nov": 5103,
      "investi": 5104,
      "labelled": 5105,
      "##entives": 5106,
      "outl": 5107,
      "##strategis": 5108,
      "soon": 5109,
      "drain": 5110,
      "regulated": 5111,
      "interfer": 5112,
      "flat": 5113,
      "montm": 5114,
      "monetary": 5115,
      "##ext": 5116,
      "wwwinfoexportgcc": 5117,
      "##urred": 5118,
      "grand": 5119,
      "rooms": 5120,
      "vietnamtel": 5121,
      "##iversity": 5122,
      "start": 5123,
      "mustard": 5124,
      "model": 5125,
      "format": 5126,
      "surpr": 5127,
      "surround": 5128,
      "##ixed": 5129,
      "prepare": 5130,
      "operator": 5131,
      "iron": 5132,
      "extended": 5133,
      "affect": 5134,
      "##ublications": 5135,
      "edc": 5136,
      "representation": 5137,
      "monthly": 5138,
      "difference": 5139,
      "seek": 5140,
      "seeking": 5141,
      "handled": 5142,
      "laos": 5143,
      "showing": 5144,
      "arabic": 5145,
      "actual": 5146,
      "considering": 5147,
      "indicate": 5148,
      "tremend": 5149,
      "hyd": 5150,
      "brown": 5151,
      "refers": 5152,
      "refined": 5153,
      "##teen": 5154,
      "resource": 5155,
      "changed": 5156,
      "match": 5157,
      "offal": 5158,
      "observed": 5159,
      "solar": 5160,
      "##arters": 5161,
      "taxes": 5162,
      "amounted": 5163,
      "##ifying": 5164,
      "vitamins": 5165,
      "##standing": 5166,
      "references": 5167,
      "wholesaler": 5168,
      "namely": 5169,
      "dietary": 5170,
      "milling": 5171,
      "laboratories": 5172,
      "manilabased": 5173,
      "##apple": 5174,
      "networks": 5175,
      "drawn": 5176,
      "moved": 5177,
      "trials": 5178,
      "thought": 5179,
      "##prof": 5180,
      "##process": 5181,
      "placed": 5182,
      "familiar": 5183,
      "culinary": 5184,
      "##biotech": 5185,
      "separate": 5186,
      "behalf": 5187,
      "drottawa": 5188,
      "nevertheless": 5189,
      "robins": 5190,
      "galaxies": 5191,
      "degree": 5192,
      "religious": 5193,
      "catering": 5194,
      "serious": 5195,
      "enhance": 5196,
      "professional": 5197,
      "campaign": 5198,
      "perceived": 5199,
      "wavelengths": 5200,
      "intellectual": 5201,
      "transparent": 5202,
      "threat": 5203,
      "##agriculture": 5204,
      "begun": 5205,
      "merchandise": 5206,
      "derived": 5207,
      "lumpur": 5208,
      "strawberry": 5209,
      "petroleum": 5210,
      "proximity": 5211,
      "licencecertificate": 5212,
      "broiler": 5213,
      "widespread": 5214,
      "thomas": 5215,
      "sussex": 5216,
      "investig": 5217,
      "montmégantic": 5218,
      "tremendous": 5219,
      "ah": 5220,
      "bir": 5221,
      "cas": 5222,
      "cia": 5223,
      "furn": 5224,
      "hus": 5225,
      "hung": 5226,
      "hcm": 5227,
      "hospit": 5228,
      "ia": 5229,
      "kraft": 5230,
      "lamb": 5231,
      "mong": 5232,
      "malls": 5233,
      "option": 5234,
      "pel": 5235,
      "ppp": 5236,
      "pests": 5237,
      "pulse": 5238,
      "sick": 5239,
      "sizes": 5240,
      "tin": 5241,
      "tap": 5242,
      "yes": 5243,
      "##cr": 5244,
      "##cainternet": 5245,
      "##dic": 5246,
      "##pres": 5247,
      "##pass": 5248,
      "##lass": 5249,
      "##ien": 5250,
      "##ba": 5251,
      "##bury": 5252,
      "##hr": 5253,
      "##hou": 5254,
      "##hong": 5255,
      "##viet": 5256,
      "##vals": 5257,
      "##ero": 5258,
      "##insp": 5259,
      "inland": 5260,
      "##alades": 5261,
      "##rocess": 5262,
      "##icals": 5263,
      "##stein": 5264,
      "##itors": 5265,
      "##ett": 5266,
      "##oman": 5267,
      "##omic": 5268,
      "forces": 5269,
      "##the": 5270,
      "##acil": 5271,
      "##ria": 5272,
      "excess": 5273,
      "##lements": 5274,
      "##olitan": 5275,
      "stri": 5276,
      "stop": 5277,
      "stpo": 5278,
      "ongoing": 5279,
      "chips": 5280,
      "##ago": 5281,
      "##ota": 5282,
      "incentives": 5283,
      "##apublications": 5284,
      "compound": 5285,
      "##university": 5286,
      "##iesel": 5287,
      "spices": 5288,
      "experti": 5289,
      "##ipeg": 5290,
      "##permission": 5291,
      "parti": 5292,
      "intens": 5293,
      "succeed": 5294,
      "moreover": 5295,
      "totalling": 5296,
      "processes": 5297,
      "totals": 5298,
      "economist": 5299,
      "##ttpwww": 5300,
      "priced": 5301,
      "outbre": 5302,
      "##earcherc": 5303,
      "avian": 5304,
      "norway": 5305,
      "##ought": 5306,
      "info": 5307,
      "annum": 5308,
      "montre": 5309,
      "certify": 5310,
      "packs": 5311,
      "gram": 5312,
      "grapes": 5313,
      "consumeroriented": 5314,
      "secure": 5315,
      "remin": 5316,
      "respond": 5317,
      "built": 5318,
      "domestically": 5319,
      "delays": 5320,
      "extra": 5321,
      "leads": 5322,
      "##sequ": 5323,
      "driving": 5324,
      "bars": 5325,
      "confir": 5326,
      "block": 5327,
      "##itten": 5328,
      "limit": 5329,
      "faster": 5330,
      "convenient": 5331,
      "urc": 5332,
      "laid": 5333,
      "launch": 5334,
      "consideration": 5335,
      "simple": 5336,
      "trees": 5337,
      "reduction": 5338,
      "strategis": 5339,
      "dominant": 5340,
      "refract": 5341,
      "readyto": 5342,
      "strengths": 5343,
      "strengthening": 5344,
      "##faitmaecigcca": 5345,
      "wholesale": 5346,
      "sciences": 5347,
      "observations": 5348,
      "##world": 5349,
      "situ": 5350,
      "instance": 5351,
      "fully": 5352,
      "diversified": 5353,
      "cheap": 5354,
      "influenced": 5355,
      "occur": 5356,
      "occurs": 5357,
      "african": 5358,
      "chemicals": 5359,
      "realization": 5360,
      "designated": 5361,
      "combination": 5362,
      "##canad": 5363,
      "##opharm": 5364,
      "implementing": 5365,
      "penins": 5366,
      "##ciapublications": 5367,
      "individuals": 5368,
      "cutflowers": 5369,
      "muslims": 5370,
      "preservatives": 5371,
      "schedulevi": 5372,
      "achieved": 5373,
      "previously": 5374,
      "drying": 5375,
      "banana": 5376,
      "heavy": 5377,
      "constell": 5378,
      "executives": 5379,
      "released": 5380,
      "predom": 5381,
      "eyes": 5382,
      "warehousing": 5383,
      "branches": 5384,
      "kept": 5385,
      "trademarks": 5386,
      "ranges": 5387,
      "independently": 5388,
      "bonus": 5389,
      "damage": 5390,
      "miguel": 5391,
      "samples": 5392,
      "##news": 5393,
      "cassava": 5394,
      "diagnostics": 5395,
      "answer": 5396,
      "allocated": 5397,
      "ciirdf": 5398,
      "virtual": 5399,
      "##uminous": 5400,
      "northwest": 5401,
      "birds": 5402,
      "café": 5403,
      "httpwwwfasusdagovgainfilespdf": 5404,
      "jakarta": 5405,
      "composition": 5406,
      "commitment": 5407,
      "heart": 5408,
      "##factbook": 5409,
      "beyond": 5410,
      "accompan": 5411,
      "chickpeas": 5412,
      "yukon": 5413,
      "marmalades": 5414,
      "drainage": 5415,
      "husband": 5416,
      "expertise": 5417,
      "outbreak": 5418,
      "##earchercenter": 5419,
      "##ciapublicationsfactbook": 5420,
      "aafc": 5421,
      "bad": 5422,
      "bib": 5423,
      "citi": 5424,
      "cup": 5425,
      "dy": 5426,
      "dal": 5427,
      "dim": 5428,
      "gour": 5429,
      "giant": 5430,
      "jp": 5431,
      "jv": 5432,
      "lies": 5433,
      "options": 5434,
      "ram": 5435,
      "rock": 5436,
      "sil": 5437,
      "sod": 5438,
      "somet": 5439,
      "saint": 5440,
      "tm": 5441,
      "tit": 5442,
      "tam": 5443,
      "welf": 5444,
      "yo": 5445,
      "yrs": 5446,
      "##cing": 5447,
      "##cons": 5448,
      "##rence": 5449,
      "##nz": 5450,
      "##national": 5451,
      "##ney": 5452,
      "##found": 5453,
      "##ll": 5454,
      "##lec": 5455,
      "##like": 5456,
      "##back": 5457,
      "##bai": 5458,
      "##tary": 5459,
      "##hood": 5460,
      "##ga": 5461,
      "##gm": 5462,
      "##kins": 5463,
      "##men": 5464,
      "##que": 5465,
      "##erts": 5466,
      "##orr": 5467,
      "##orge": 5468,
      "##inted": 5469,
      "##arse": 5470,
      "##ata": 5471,
      "##rees": 5472,
      "##adv": 5473,
      "##oury": 5474,
      "procure": 5475,
      "##odox": 5476,
      "islands": 5477,
      "fortified": 5478,
      "##ths": 5479,
      "##erson": 5480,
      "##ulties": 5481,
      "cancer": 5482,
      "##older": 5483,
      "##ument": 5484,
      "chef": 5485,
      "chile": 5486,
      "##idents": 5487,
      "orders": 5488,
      "##uted": 5489,
      "##utch": 5490,
      "shor": 5491,
      "shell": 5492,
      "byproducts": 5493,
      "##iants": 5494,
      "sure": 5495,
      "importexport": 5496,
      "##emb": 5497,
      "##iforn": 5498,
      "##import": 5499,
      "composed": 5500,
      "##osen": 5501,
      "dept": 5502,
      "enforce": 5503,
      "##ratic": 5504,
      "##ourash": 5505,
      "applies": 5506,
      "plates": 5507,
      "##aties": 5508,
      "emission": 5509,
      "decades": 5510,
      "decided": 5511,
      "##ensed": 5512,
      "##eflesh": 5513,
      "organisation": 5514,
      "salt": 5515,
      "minor": 5516,
      "clause": 5517,
      "qué": 5518,
      "basins": 5519,
      "notice": 5520,
      "invent": 5521,
      "capable": 5522,
      "outlet": 5523,
      "subsequ": 5524,
      "generation": 5525,
      "httpwwwdfaitmaecigcc": 5526,
      "phils": 5527,
      "varied": 5528,
      "smugg": 5529,
      "finance": 5530,
      "reporting": 5531,
      "print": 5532,
      "demands": 5533,
      "vietnams": 5534,
      "purs": 5535,
      "crude": 5536,
      "##comsg": 5537,
      "planted": 5538,
      "workers": 5539,
      "workforce": 5540,
      "##sea": 5541,
      "landscape": 5542,
      "volumes": 5543,
      "knorr": 5544,
      "inspector": 5545,
      "ideas": 5546,
      "##etically": 5547,
      "##after": 5548,
      "periods": 5549,
      "declared": 5550,
      "student": 5551,
      "studies": 5552,
      "prime": 5553,
      "showed": 5554,
      "##iscent": 5555,
      "considerably": 5556,
      "poster": 5557,
      "sweeten": 5558,
      "treaties": 5559,
      "articles": 5560,
      "brok": 5561,
      "response": 5562,
      "described": 5563,
      "doct": 5564,
      "preference": 5565,
      "readymade": 5566,
      "explore": 5567,
      "explained": 5568,
      "sett": 5569,
      "##scale": 5570,
      "initiative": 5571,
      "corner": 5572,
      "californ": 5573,
      "##white": 5574,
      "influx": 5575,
      "##azak": 5576,
      "agreed": 5577,
      "difficulties": 5578,
      "fairly": 5579,
      "substance": 5580,
      "eaten": 5581,
      "##heet": 5582,
      "written": 5583,
      "successfully": 5584,
      "targeted": 5585,
      "employees": 5586,
      "electron": 5587,
      "electrons": 5588,
      "dutyfree": 5589,
      "niñ": 5590,
      "ventures": 5591,
      "older": 5592,
      "weekly": 5593,
      "frequently": 5594,
      "probability": 5595,
      "predic": 5596,
      "recognized": 5597,
      "attracted": 5598,
      "robina": 5599,
      "cuisines": 5600,
      "layer": 5601,
      "believe": 5602,
      "replace": 5603,
      "##iterran": 5604,
      "plateau": 5605,
      "berry": 5606,
      "qcj": 5607,
      "sharp": 5608,
      "##liography": 5609,
      "flavoured": 5610,
      "liberalization": 5611,
      "orchards": 5612,
      "alternative": 5613,
      "alternatives": 5614,
      "compliance": 5615,
      "quotas": 5616,
      "interviews": 5617,
      "penetrate": 5618,
      "connection": 5619,
      "lenses": 5620,
      "averaging": 5621,
      "version": 5622,
      "recovery": 5623,
      "absorb": 5624,
      "trying": 5625,
      "navig": 5626,
      "database": 5627,
      "selfsufficient": 5628,
      "garlic": 5629,
      "arrangements": 5630,
      "spectrosc": 5631,
      "lucrative": 5632,
      "colombo": 5633,
      "organs": 5634,
      "sequence": 5635,
      "montreal": 5636,
      "reminiscent": 5637,
      "readytoeat": 5638,
      "bibliography": 5639,
      "gourmet": 5640,
      "something": 5641,
      "welfare": 5642,
      "##ourashk": 5643,
      "california": 5644,
      "##iterranean": 5645,
      "bit": 5646,
      "bse": 5647,
      "bah": 5648,
      "camb": 5649,
      "dna": 5650,
      "fum": 5651,
      "fell": 5652,
      "fiest": 5653,
      "han": 5654,
      "hur": 5655,
      "hog": 5656,
      "hence": 5657,
      "ire": 5658,
      "jl": 5659,
      "jon": 5660,
      "jew": 5661,
      "ketch": 5662,
      "lad": 5663,
      "mu": 5664,
      "mack": 5665,
      "midd": 5666,
      "nb": 5667,
      "nag": 5668,
      "nond": 5669,
      "oy": 5670,
      "pic": 5671,
      "pud": 5672,
      "ru": 5673,
      "rs": 5674,
      "stic": 5675,
      "says": 5676,
      "sdn": 5677,
      "task": 5678,
      "tips": 5679,
      "viet": 5680,
      "ways": 5681,
      "wild": 5682,
      "wool": 5683,
      "zone": 5684,
      "##come": 5685,
      "##oint": 5686,
      "##uan": 5687,
      "##pts": 5688,
      "##nings": 5689,
      "##fr": 5690,
      "##fi": 5691,
      "##ym": 5692,
      "##hab": 5693,
      "##gu": 5694,
      "##ged": 5695,
      "##vietnam": 5696,
      "##ville": 5697,
      "##mas": 5698,
      "##jap": 5699,
      "##jerusalem": 5700,
      "thor": 5701,
      "thin": 5702,
      "thri": 5703,
      "##ini": 5704,
      "##inations": 5705,
      "##anol": 5706,
      "##edcca": 5707,
      "##entive": 5708,
      "##aro": 5709,
      "town": 5710,
      "##iled": 5711,
      "##ital": 5712,
      "##itgovil": 5713,
      "##eler": 5714,
      "propor": 5715,
      "proceed": 5716,
      "##isplay": 5717,
      "##enty": 5718,
      "conic": 5719,
      "reb": 5720,
      "exact": 5721,
      "stability": 5722,
      "##aman": 5723,
      "##andom": 5724,
      "cheng": 5725,
      "christ": 5726,
      "chosen": 5727,
      "##estrial": 5728,
      "##oto": 5729,
      "whose": 5730,
      "incor": 5731,
      "marks": 5732,
      "sheep": 5733,
      "trust": 5734,
      "##use": 5735,
      "##astats": 5736,
      "computer": 5737,
      "##ereg": 5738,
      "enfor": 5739,
      "##ghurt": 5740,
      "exposed": 5741,
      "managing": 5742,
      "##ipal": 5743,
      "front": 5744,
      "##atim": 5745,
      "emuls": 5746,
      "newfound": 5747,
      "abroad": 5748,
      "relax": 5749,
      "locations": 5750,
      "amend": 5751,
      "save": 5752,
      "##encing": 5753,
      "clock": 5754,
      "##grained": 5755,
      "businessuniversity": 5756,
      "pastries": 5757,
      "biod": 5758,
      "biopharm": 5759,
      "##orders": 5760,
      "infoc": 5761,
      "interpre": 5762,
      "httpwwwm": 5763,
      "httpwwwinfoexportgcca": 5764,
      "flow": 5765,
      "sourced": 5766,
      "syar": 5767,
      "transgen": 5768,
      "finder": 5769,
      "grade": 5770,
      "disadv": 5771,
      "roe": 5772,
      "##look": 5773,
      "signing": 5774,
      "##ermap": 5775,
      "starch": 5776,
      "biotec": 5777,
      "advice": 5778,
      "respective": 5779,
      "buff": 5780,
      "##phone": 5781,
      "##violet": 5782,
      "operation": 5783,
      "extr": 5784,
      "lives": 5785,
      "distributed": 5786,
      "condensed": 5787,
      "driven": 5788,
      "inspected": 5789,
      "guine": 5790,
      "lesser": 5791,
      "##tml": 5792,
      "##letter": 5793,
      "readily": 5794,
      "blood": 5795,
      "nonkosher": 5796,
      "severe": 5797,
      "seeing": 5798,
      "handle": 5799,
      "##anned": 5800,
      "considerations": 5801,
      "postermap": 5802,
      "mediterranean": 5803,
      "experts": 5804,
      "naturally": 5805,
      "payments": 5806,
      "##agrgcc": 5807,
      "inside": 5808,
      "bene": 5809,
      "allowing": 5810,
      "institutes": 5811,
      "meetings": 5812,
      "helped": 5813,
      "gives": 5814,
      "pharmac": 5815,
      "consisting": 5816,
      "consistent": 5817,
      "positioned": 5818,
      "##ortem": 5819,
      "terrestrial": 5820,
      "exists": 5821,
      "##azine": 5822,
      "vital": 5823,
      "diab": 5824,
      "bodies": 5825,
      "functions": 5826,
      "mixture": 5827,
      "array": 5828,
      "membership": 5829,
      "famous": 5830,
      "powerful": 5831,
      "construc": 5832,
      "##ciagov": 5833,
      "algerian": 5834,
      "eventually": 5835,
      "charged": 5836,
      "easily": 5837,
      "friends": 5838,
      "##moitgovil": 5839,
      "aims": 5840,
      "contracts": 5841,
      "litres": 5842,
      "##yalty": 5843,
      "dealers": 5844,
      "newsletter": 5845,
      "##iji": 5846,
      "lebanese": 5847,
      "iceland": 5848,
      "##titude": 5849,
      "integrated": 5850,
      "ethnic": 5851,
      "##…………………………………………": 5852,
      "warehouse": 5853,
      "bringing": 5854,
      "subsidies": 5855,
      "paid": 5856,
      "chambers": 5857,
      "walmart": 5858,
      "historical": 5859,
      "finegrained": 5860,
      "tourists": 5861,
      "carcasses": 5862,
      "danish": 5863,
      "acquired": 5864,
      "arrangement": 5865,
      "busy": 5866,
      "busier": 5867,
      "penetration": 5868,
      "adviser": 5869,
      "bhd": 5870,
      "savoury": 5871,
      "expressed": 5872,
      "cpi": 5873,
      "##unicipal": 5874,
      "pineapple": 5875,
      "ultraviolet": 5876,
      "tomatoes": 5877,
      "speak": 5878,
      "httpwwwinfoexportgccaie": 5879,
      "molecular": 5880,
      "privatization": 5881,
      "tinged": 5882,
      "ecozone": 5883,
      "satellite": 5884,
      "specialistcenter": 5885,
      "gateway": 5886,
      "rubber": 5887,
      "avenue": 5888,
      "##largest": 5889,
      "accreditation": 5890,
      "prepackaged": 5891,
      "surrounding": 5892,
      "husbandry": 5893,
      "##ciapublicationsfactbookge": 5894,
      "yoghurt": 5895,
      "québec": 5896,
      "ireland": 5897,
      "ketchup": 5898,
      "transgenic": 5899,
      "disadvant": 5900,
      "bac": 5901,
      "bought": 5902,
      "cow": 5903,
      "ded": 5904,
      "dong": 5905,
      "ep": 5906,
      "fost": 5907,
      "fries": 5908,
      "ga": 5909,
      "gra": 5910,
      "ginternet": 5911,
      "host": 5912,
      "jus": 5913,
      "jud": 5914,
      "jiang": 5915,
      "kid": 5916,
      "las": 5917,
      "lost": 5918,
      "lading": 5919,
      "ms": 5920,
      "mos": 5921,
      "mcc": 5922,
      "municipal": 5923,
      "oman": 5924,
      "pp": 5925,
      "pas": 5926,
      "pear": 5927,
      "pun": 5928,
      "pav": 5929,
      "pace": 5930,
      "ran": 5931,
      "sen": 5932,
      "sri": 5933,
      "trial": 5934,
      "uap": 5935,
      "ven": 5936,
      "wind": 5937,
      "xin": 5938,
      "##ei": 5939,
      "##eb": 5940,
      "##eon": 5941,
      "##rade": 5942,
      "##dz": 5943,
      "##family": 5944,
      "##lé": 5945,
      "##atics": 5946,
      "##tains": 5947,
      "##yc": 5948,
      "##size": 5949,
      "##mic": 5950,
      "##meal": 5951,
      "##middle": 5952,
      "##zhou": 5953,
      "##jar": 5954,
      "##oning": 5955,
      "##inter": 5956,
      "##inform": 5957,
      "##time": 5958,
      "##ales": 5959,
      "anc": 5960,
      "##rob": 5961,
      "##stel": 5962,
      "##ecd": 5963,
      "##ecomm": 5964,
      "##omb": 5965,
      "##isk": 5966,
      "##odia": 5967,
      "##odrink": 5968,
      "reexport": 5969,
      "exam": 5970,
      "exempt": 5971,
      "##urg": 5972,
      "imag": 5973,
      "##olved": 5974,
      "##igence": 5975,
      "stood": 5976,
      "stuff": 5977,
      "bea": 5978,
      "##amber": 5979,
      "chl": 5980,
      "##agers": 5981,
      "alask": 5982,
      "##ople": 5983,
      "##ists": 5984,
      "shared": 5985,
      "traf": 5986,
      "importdistribut": 5987,
      "consequ": 5988,
      "##rich": 5989,
      "##osing": 5990,
      "atoms": 5991,
      "sevent": 5992,
      "spl": 5993,
      "spiri": 5994,
      "contrib": 5995,
      "happ": 5996,
      "##endisplay": 5997,
      "expat": 5998,
      "##ella": 5999,
      "plains": 6000,
      "notable": 6001,
      "accomm": 6002,
      "coal": 6003,
      "coarse": 6004,
      "parall": 6005,
      "frag": 6006,
      "fractions": 6007,
      "intense": 6008,
      "emplo": 6009,
      "##ibr": 6010,
      "newton": 6011,
      "arising": 6012,
      "##parts": 6013,
      "distant": 6014,
      "distances": 6015,
      "totaling": 6016,
      "amb": 6017,
      "weeks": 6018,
      "mining": 6019,
      "supplements": 6020,
      "httpstrategis": 6021,
      "clou": 6022,
      "optics": 6023,
      "optim": 6024,
      "##oken": 6025,
      "notified": 6026,
      "adding": 6027,
      "prima": 6028,
      "##vention": 6029,
      "outlook": 6030,
      "##ropolitan": 6031,
      "presents": 6032,
      "norms": 6033,
      "generate": 6034,
      "generated": 6035,
      "interests": 6036,
      "httpwwwc": 6037,
      "flu": 6038,
      "mainland": 6039,
      "wwwf": 6040,
      "carbo": 6041,
      "branded": 6042,
      "##enger": 6043,
      "fishing": 6044,
      "partly": 6045,
      "scope": 6046,
      "robert": 6047,
      "roots": 6048,
      "orient": 6049,
      "secre": 6050,
      "##edsize": 6051,
      "originate": 6052,
      "surv": 6053,
      "delay": 6054,
      "accessing": 6055,
      "thailands": 6056,
      "costly": 6057,
      "planting": 6058,
      "prominent": 6059,
      "listing": 6060,
      "loyalty": 6061,
      "specialized": 6062,
      "whereas": 6063,
      "edition": 6064,
      "edge": 6065,
      "strongly": 6066,
      "noneth": 6067,
      "approximate": 6068,
      "##flower": 6069,
      "authorised": 6070,
      "##ressive": 6071,
      "differenti": 6072,
      "sweets": 6073,
      "safdz": 6074,
      "evidence": 6075,
      "effectively": 6076,
      "teach": 6077,
      "feedm": 6078,
      "postentry": 6079,
      "risen": 6080,
      "downt": 6081,
      "brew": 6082,
      "modernization": 6083,
      "urbanization": 6084,
      "##govvn": 6085,
      "classified": 6086,
      "nutrients": 6087,
      "##aceuticals": 6088,
      "goal": 6089,
      "explan": 6090,
      "filters": 6091,
      "george": 6092,
      "kgs": 6093,
      "initially": 6094,
      "collect": 6095,
      "scheduled": 6096,
      "biscuit": 6097,
      "airports": 6098,
      "forecasts": 6099,
      "targets": 6100,
      "realized": 6101,
      "##oya": 6102,
      "peanuts": 6103,
      "writing": 6104,
      "dessertavailability": 6105,
      "resident": 6106,
      "residues": 6107,
      "virus": 6108,
      "shortage": 6109,
      "reflect": 6110,
      "comprises": 6111,
      "comprising": 6112,
      "drinking": 6113,
      "spectral": 6114,
      "monitoring": 6115,
      "languages": 6116,
      "raise": 6117,
      "officials": 6118,
      "##ruit": 6119,
      "##rupt": 6120,
      "latter": 6121,
      "oblong": 6122,
      "educated": 6123,
      "reliable": 6124,
      "lux": 6125,
      "evalu": 6126,
      "frequent": 6127,
      "instrument": 6128,
      "viewed": 6129,
      "ethanol": 6130,
      "recognition": 6131,
      "##asitic": 6132,
      "sugges": 6133,
      "cebu": 6134,
      "getting": 6135,
      "doubt": 6136,
      "electrical": 6137,
      "electricity": 6138,
      "circum": 6139,
      "hamered": 6140,
      "magazine": 6141,
      "dressing": 6142,
      "assumes": 6143,
      "professionals": 6144,
      "boundary": 6145,
      "##countries": 6146,
      "brightness": 6147,
      "##document": 6148,
      "steps": 6149,
      "aspects": 6150,
      "cultivation": 6151,
      "supplementary": 6152,
      "undertaking": 6153,
      "david": 6154,
      "##anada": 6155,
      "asked": 6156,
      "adaptive": 6157,
      "##indexhtml": 6158,
      "counterparts": 6159,
      "yangzi": 6160,
      "##jspdid": 6161,
      "check": 6162,
      "removed": 6163,
      "##hydr": 6164,
      "lemon": 6165,
      "##people": 6166,
      "textureflavor": 6167,
      "rainfall": 6168,
      "##aceaepar": 6169,
      "kinds": 6170,
      "readytodrink": 6171,
      "##aqua": 6172,
      "robinsons": 6173,
      "licencecertificatepermission": 6174,
      "predominant": 6175,
      "title": 6176,
      "procurement": 6177,
      "fumigation": 6178,
      "incorpor": 6179,
      "newfoundland": 6180,
      "biodiesel": 6181,
      "xinjiang": 6182,
      "traffic": 6183,
      "spirits": 6184,
      "##endisplaydocument": 6185,
      "accommod": 6186,
      "employs": 6187,
      "nonetheless": 6188,
      "##endisplaydocumentjspdid": 6189,
      "ak": 6190,
      "apart": 6191,
      "award": 6192,
      "bg": 6193,
      "baking": 6194,
      "cra": 6195,
      "core": 6196,
      "cats": 6197,
      "dur": 6198,
      "dust": 6199,
      "dough": 6200,
      "durum": 6201,
      "file": 6202,
      "gmo": 6203,
      "hit": 6204,
      "hom": 6205,
      "ib": 6206,
      "kp": 6207,
      "kand": 6208,
      "lin": 6209,
      "lear": 6210,
      "lati": 6211,
      "length": 6212,
      "nun": 6213,
      "rr": 6214,
      "sam": 6215,
      "vict": 6216,
      "wave": 6217,
      "zones": 6218,
      "##ehtm": 6219,
      "##car": 6220,
      "##cap": 6221,
      "##care": 6222,
      "##oys": 6223,
      "##rit": 6224,
      "##uance": 6225,
      "##pm": 6226,
      "##nan": 6227,
      "##fit": 6228,
      "##fies": 6229,
      "##iary": 6230,
      "##brid": 6231,
      "##tures": 6232,
      "##tnz": 6233,
      "##yd": 6234,
      "##hl": 6235,
      "##hro": 6236,
      "##haps": 6237,
      "##httpwww": 6238,
      "##gal": 6239,
      "##ki": 6240,
      "##kh": 6241,
      "##kok": 6242,
      "##mal": 6243,
      "##ming": 6244,
      "##mann": 6245,
      "##xi": 6246,
      "##ji": 6247,
      "##jetro": 6248,
      "##erals": 6249,
      "thir": 6250,
      "##anent": 6251,
      "inade": 6252,
      "inner": 6253,
      "##alal": 6254,
      "anth": 6255,
      "##arch": 6256,
      "##roy": 6257,
      "##reh": 6258,
      "##ream": 6259,
      "##sters": 6260,
      "##itely": 6261,
      "##itob": 6262,
      "##ette": 6263,
      "forced": 6264,
      "exerc": 6265,
      "examp": 6266,
      "immedi": 6267,
      "stel": 6268,
      "##illing": 6269,
      "##amatic": 6270,
      "chance": 6271,
      "##irut": 6272,
      "##ote": 6273,
      "alber": 6274,
      "albert": 6275,
      "indeed": 6276,
      "trillion": 6277,
      "trace": 6278,
      "training": 6279,
      "conserv": 6280,
      "##ifa": 6281,
      "##ifax": 6282,
      "##chamber": 6283,
      "users": 6284,
      "unorgan": 6285,
      "deem": 6286,
      "sealed": 6287,
      "perhaps": 6288,
      "consuming": 6289,
      "plays": 6290,
      "manip": 6291,
      "mango": 6292,
      "manitob": 6293,
      "comments": 6294,
      "committed": 6295,
      "lean": 6296,
      "##anges": 6297,
      "phosph": 6298,
      "parties": 6299,
      "exportsource": 6300,
      "bruce": 6301,
      "##ibilities": 6302,
      "action": 6303,
      "acts": 6304,
      "##avn": 6305,
      "##wealth": 6306,
      "##ached": 6307,
      "##reek": 6308,
      "quarters": 6309,
      "##oku": 6310,
      "businesspeople": 6311,
      "paste": 6312,
      "bios": 6313,
      "presently": 6314,
      "dramatic": 6315,
      "regulate": 6316,
      "httpwwwdfaitmaecigcca": 6317,
      "flor": 6318,
      "maintains": 6319,
      "retailer": 6320,
      "lighting": 6321,
      "sourcing": 6322,
      "##cooked": 6323,
      "packages": 6324,
      "becomes": 6325,
      "carries": 6326,
      "transition": 6327,
      "##asean": 6328,
      "grad": 6329,
      "grape": 6330,
      "demanding": 6331,
      "##gccastats": 6332,
      "signature": 6333,
      "cru": 6334,
      "positions": 6335,
      "issuing": 6336,
      "issuance": 6337,
      "traders": 6338,
      "##coming": 6339,
      "invested": 6340,
      "##onesia": 6341,
      "particles": 6342,
      "equal": 6343,
      "irrad": 6344,
      "condiment": 6345,
      "gujar": 6346,
      "milky": 6347,
      "nonfood": 6348,
      "permanent": 6349,
      "##ographical": 6350,
      "##epdf": 6351,
      "freezing": 6352,
      "marine": 6353,
      "corporate": 6354,
      "teva": 6355,
      "median": 6356,
      "simpl": 6357,
      "sweetened": 6358,
      "experiments": 6359,
      "completely": 6360,
      "discre": 6361,
      "observe": 6362,
      "confectionary": 6363,
      "catch": 6364,
      "slowdown": 6365,
      "licensed": 6366,
      "focuses": 6367,
      "choosing": 6368,
      "directorate": 6369,
      "observatories": 6370,
      "involve": 6371,
      "##ahar": 6372,
      "diversify": 6373,
      "collected": 6374,
      "influences": 6375,
      "occurred": 6376,
      "forecasted": 6377,
      "##aresearchercenter": 6378,
      "breads": 6379,
      "maintaining": 6380,
      "holding": 6381,
      "holdings": 6382,
      "combine": 6383,
      "fairground": 6384,
      "cocac": 6385,
      "destr": 6386,
      "substances": 6387,
      "concentrate": 6388,
      "competitor": 6389,
      "passed": 6390,
      "passenger": 6391,
      "officertel": 6392,
      "closed": 6393,
      "copra": 6394,
      "shipped": 6395,
      "objecti": 6396,
      "ships": 6397,
      "shortages": 6398,
      "employed": 6399,
      "exhibitors": 6400,
      "##appear": 6401,
      "##omsg": 6402,
      "competent": 6403,
      "draft": 6404,
      "palay": 6405,
      "wider": 6406,
      "queen": 6407,
      "spectra": 6408,
      "eleven": 6409,
      "fried": 6410,
      "friendly": 6411,
      "politic": 6412,
      "dependence": 6413,
      "##trade": 6414,
      "seasoning": 6415,
      "fields": 6416,
      "indepth": 6417,
      "winn": 6418,
      "exceeded": 6419,
      "seminars": 6420,
      "horm": 6421,
      "copyright": 6422,
      "innovation": 6423,
      "reveal": 6424,
      "soups": 6425,
      "subsidiary": 6426,
      "degrees": 6427,
      "irrigated": 6428,
      "railway": 6429,
      "planned": 6430,
      "religion": 6431,
      "liquor": 6432,
      "cstore": 6433,
      "ranging": 6434,
      "arrival": 6435,
      "independent": 6436,
      "hopes": 6437,
      "quota": 6438,
      "dressings": 6439,
      "##country": 6440,
      "averaged": 6441,
      "multiple": 6442,
      "collaboration": 6443,
      "direction": 6444,
      "describe": 6445,
      "losses": 6446,
      "excluding": 6447,
      "pieces": 6448,
      "aggressive": 6449,
      "debt": 6450,
      "academic": 6451,
      "legislation": 6452,
      "textile": 6453,
      "besides": 6454,
      "uaes": 6455,
      "propagation": 6456,
      "anticip": 6457,
      "appreci": 6458,
      "francis": 6459,
      "mongol": 6460,
      "##inspection": 6461,
      "refracting": 6462,
      "accompanied": 6463,
      "enforcement": 6464,
      "niño": 6465,
      "predicted": 6466,
      "cambodia": 6467,
      "jewish": 6468,
      "nondurum": 6469,
      "proportion": 6470,
      "beneficial": 6471,
      "##ciagovciapublicationsfactbookge": 6472,
      "beauty": 6473,
      "alaska": 6474,
      "importdistribute": 6475,
      "consequently": 6476,
      "inadequ": 6477,
      "examples": 6478,
      "alberta": 6479,
      "manitoba": 6480,
      "ats": 6481,
      "aber": 6482,
      "bat": 6483,
      "bund": 6484,
      "bakes": 6485,
      "bsb": 6486,
      "call": 6487,
      "card": 6488,
      "cdn": 6489,
      "dil": 6490,
      "fit": 6491,
      "fel": 6492,
      "fda": 6493,
      "gh": 6494,
      "gel": 6495,
      "gall": 6496,
      "giants": 6497,
      "hers": 6498,
      "herm": 6499,
      "holid": 6500,
      "holder": 6501,
      "ky": 6502,
      "kir": 6503,
      "kash": 6504,
      "les": 6505,
      "lac": 6506,
      "lak": 6507,
      "mum": 6508,
      "mouth": 6509,
      "matim": 6510,
      "nan": 6511,
      "ox": 6512,
      "pu": 6513,
      "pt": 6514,
      "rue": 6515,
      "rend": 6516,
      "rup": 6517,
      "random": 6518,
      "sq": 6519,
      "sides": 6520,
      "sask": 6521,
      "tu": 6522,
      "tuy": 6523,
      "wat": 6524,
      "wil": 6525,
      "york": 6526,
      "yolk": 6527,
      "zo": 6528,
      "zero": 6529,
      "##eu": 6530,
      "##cy": 6531,
      "##ram": 6532,
      "##rut": 6533,
      "##nd": 6534,
      "##fold": 6535,
      "##lers": 6536,
      "##lier": 6537,
      "##ait": 6538,
      "##but": 6539,
      "##business": 6540,
      "##tas": 6541,
      "##sized": 6542,
      "##hin": 6543,
      "##hic": 6544,
      "##how": 6545,
      "##well": 6546,
      "##water": 6547,
      "##vity": 6548,
      "##éal": 6549,
      "##eric": 6550,
      "##erel": 6551,
      "things": 6552,
      "##onf": 6553,
      "##orie": 6554,
      "##esco": 6555,
      "theory": 6556,
      "inef": 6557,
      "##tible": 6558,
      "##enmarket": 6559,
      "##enza": 6560,
      "anh": 6561,
      "##icgcca": 6562,
      "##stances": 6563,
      "##eca": 6564,
      "prove": 6565,
      "really": 6566,
      "remark": 6567,
      "##ulating": 6568,
      "immediate": 6569,
      "##ols": 6570,
      "##olve": 6571,
      "##iger": 6572,
      "##igon": 6573,
      "style": 6574,
      "stocks": 6575,
      "##veget": 6576,
      "##ceeds": 6577,
      "##ama": 6578,
      "##ami": 6579,
      "##ament": 6580,
      "##amans": 6581,
      "##oted": 6582,
      "incentive": 6583,
      "##ister": 6584,
      "##istent": 6585,
      "##istcom": 6586,
      "##istration": 6587,
      "shaman": 6588,
      "##riched": 6589,
      "##imb": 6590,
      "##asts": 6591,
      "compare": 6592,
      "##chi": 6593,
      "##chs": 6594,
      "##charg": 6595,
      "user": 6596,
      "und": 6597,
      "uni": 6598,
      "spir": 6599,
      "spoken": 6600,
      "contest": 6601,
      "contamin": 6602,
      "##ewise": 6603,
      "haz": 6604,
      "haip": 6605,
      "haifa": 6606,
      "perish": 6607,
      "appoint": 6608,
      "expir": 6609,
      "adults": 6610,
      "adhere": 6611,
      "resist": 6612,
      "##ellar": 6613,
      "height": 6614,
      "accum": 6615,
      "acceler": 6616,
      "phone": 6617,
      "highway": 6618,
      "intends": 6619,
      "largesc": 6620,
      "##irect": 6621,
      "acre": 6622,
      "organism": 6623,
      "##overnment": 6624,
      "serves": 6625,
      "served": 6626,
      "serving": 6627,
      "opium": 6628,
      "##ipping": 6629,
      "notic": 6630,
      "invented": 6631,
      "bioc": 6632,
      "##roph": 6633,
      "impressive": 6634,
      "httpwwwb": 6635,
      "httpwwweconom": 6636,
      "liver": 6637,
      "stored": 6638,
      "symb": 6639,
      "malting": 6640,
      "carro": 6641,
      "telecomm": 6642,
      "doors": 6643,
      "transactions": 6644,
      "transship": 6645,
      "pradesh": 6646,
      "printed": 6647,
      "disappear": 6648,
      "lowlands": 6649,
      "vehic": 6650,
      "##anca": 6651,
      "##ancing": 6652,
      "starting": 6653,
      "##comp": 6654,
      "vegetarian": 6655,
      "particle": 6656,
      "popp": 6657,
      "elite": 6658,
      "##phan": 6659,
      "##pharm": 6660,
      "conclud": 6661,
      "concise": 6662,
      "metal": 6663,
      "deli": 6664,
      "requiring": 6665,
      "worked": 6666,
      "typical": 6667,
      "lots": 6668,
      "guang": 6669,
      "stronger": 6670,
      "##shore": 6671,
      "lawrence": 6672,
      "##anka": 6673,
      "inspections": 6674,
      "handbook": 6675,
      "mars": 6676,
      "color": 6677,
      "skin": 6678,
      "techno": 6679,
      "commonwealth": 6680,
      "westernized": 6681,
      "westernstyle": 6682,
      "introducing": 6683,
      "conducting": 6684,
      "caters": 6685,
      "turning": 6686,
      "urbanized": 6687,
      "giving": 6688,
      "bangkok": 6689,
      "##ometers": 6690,
      "preferential": 6691,
      "preferred": 6692,
      "##govtnz": 6693,
      "consisted": 6694,
      "legend": 6695,
      "explos": 6696,
      "strengthen": 6697,
      "variable": 6698,
      "##faitmaecigccainternet": 6699,
      "viol": 6700,
      "projection": 6701,
      "geographical": 6702,
      "initiated": 6703,
      "solely": 6704,
      "involving": 6705,
      "identity": 6706,
      "surveyed": 6707,
      "obtaining": 6708,
      "flourbased": 6709,
      "mushro": 6710,
      "semen": 6711,
      "challenging": 6712,
      "desserts": 6713,
      "combining": 6714,
      "duly": 6715,
      "destroy": 6716,
      "moroccan": 6717,
      "properties": 6718,
      "communities": 6719,
      "commissionertel": 6720,
      "participating": 6721,
      "mills": 6722,
      "codes": 6723,
      "glass": 6724,
      "viruses": 6725,
      "##aspx": 6726,
      "candy": 6727,
      "carrying": 6728,
      "born": 6729,
      "putting": 6730,
      "competing": 6731,
      "radiation": 6732,
      "trips": 6733,
      "comprise": 6734,
      "franchises": 6735,
      "ukrain": 6736,
      "elev": 6737,
      "multil": 6738,
      "##lexible": 6739,
      "lifestyle": 6740,
      "yellowish": 6741,
      "banks": 6742,
      "normal": 6743,
      "cnd": 6744,
      "thousands": 6745,
      "negatively": 6746,
      "measurement": 6747,
      "magnetic": 6748,
      "enjoys": 6749,
      "frequency": 6750,
      "speciesfamily": 6751,
      "absol": 6752,
      "aster": 6753,
      "##developed": 6754,
      "revolution": 6755,
      "ranking": 6756,
      "discovery": 6757,
      "submit": 6758,
      "enjoyed": 6759,
      "strictly": 6760,
      "utilized": 6761,
      "clubmarket": 6762,
      "cosmos": 6763,
      "revenue": 6764,
      "interviewed": 6765,
      "assume": 6766,
      "multinationals": 6767,
      "autonom": 6768,
      "worksheet": 6769,
      "##ogenic": 6770,
      "declarations": 6771,
      "consolidation": 6772,
      "fluctuated": 6773,
      "undertake": 6774,
      "mbm": 6775,
      "tropic": 6776,
      "carbonated": 6777,
      "exclusively": 6778,
      "crabs": 6779,
      "##industryorgil": 6780,
      "cameras": 6781,
      "harmon": 6782,
      "kitch": 6783,
      "tiu": 6784,
      "mildly": 6785,
      "conclusions": 6786,
      "favorable": 6787,
      "constitute": 6788,
      "seems": 6789,
      "displayed": 6790,
      "crushing": 6791,
      "immigr": 6792,
      "acetic": 6793,
      "pilot": 6794,
      "suggested": 6795,
      "hundred": 6796,
      "rabbinate": 6797,
      "hydro": 6798,
      "ahead": 6799,
      "hcmc": 6800,
      "hospitality": 6801,
      "certifying": 6802,
      "constellations": 6803,
      "##conscious": 6804,
      "##leclass": 6805,
      "spectroscop": 6806,
      "fiesta": 6807,
      "middleclass": 6808,
      "stick": 6809,
      "enforced": 6810,
      "interpret": 6811,
      "constructed": 6812,
      "jiangsu": 6813,
      "parallel": 6814,
      "differentiate": 6815,
      "downturn": 6816,
      "##aceaeparasitic": 6817,
      "kandahar": 6818,
      "victoria": 6819,
      "##capita": 6820,
      "##jetrogojp": 6821,
      "exercise": 6822,
      "immediately": 6823,
      "gujarat": 6824,
      "cocacola": 6825,
      "objectives": 6826,
      "winnipeg": 6827,
      "inadequate": 6828,
      "bakesh": 6829,
      "matimop": 6830,
      "haiphong": 6831,
      "largescale": 6832,
      "httpwwweconomistcom": 6833,
      "telecommunic": 6834,
      "band": 6835,
      "bern": 6836,
      "cro": 6837,
      "ccc": 6838,
      "dine": 6839,
      "et": 6840,
      "fa": 6841,
      "fas": 6842,
      "fta": 6843,
      "festi": 6844,
      "ftas": 6845,
      "gi": 6846,
      "got": 6847,
      "hw": 6848,
      "hour": 6849,
      "hills": 6850,
      "houses": 6851,
      "jer": 6852,
      "jup": 6853,
      "ks": 6854,
      "kas": 6855,
      "lanka": 6856,
      "mes": 6857,
      "master": 6858,
      "mailing": 6859,
      "nit": 6860,
      "nom": 6861,
      "oz": 6862,
      "oecd": 6863,
      "pes": 6864,
      "pin": 6865,
      "pap": 6866,
      "pale": 6867,
      "qing": 6868,
      "rt": 6869,
      "rfm": 6870,
      "ronal": 6871,
      "rule": 6872,
      "rereg": 6873,
      "son": 6874,
      "sent": 6875,
      "sth": 6876,
      "sul": 6877,
      "sap": 6878,
      "send": 6879,
      "sard": 6880,
      "tas": 6881,
      "trib": 6882,
      "tsp": 6883,
      "tier": 6884,
      "upt": 6885,
      "vess": 6886,
      "vend": 6887,
      "verg": 6888,
      "vtc": 6889,
      "won": 6890,
      "wit": 6891,
      "##eveloped": 6892,
      "##ck": 6893,
      "##cle": 6894,
      "##case": 6895,
      "##ook": 6896,
      "##oideasuper": 6897,
      "##ril": 6898,
      "##ui": 6899,
      "##uet": 6900,
      "##pulated": 6901,
      "##fad": 6902,
      "##fresh": 6903,
      "##lb": 6904,
      "##lines": 6905,
      "##iated": 6906,
      "##bial": 6907,
      "##tail": 6908,
      "##ygen": 6909,
      "##swww": 6910,
      "##sector": 6911,
      "##hey": 6912,
      "##green": 6913,
      "##vis": 6914,
      "##ker": 6915,
      "##kist": 6916,
      "##mac": 6917,
      "##jab": 6918,
      "##era": 6919,
      "##erver": 6920,
      "##ercoil": 6921,
      "thing": 6922,
      "##esity": 6923,
      "##inating": 6924,
      "input": 6925,
      "##tium": 6926,
      "##tively": 6927,
      "##alo": 6928,
      "##enic": 6929,
      "##arine": 6930,
      "##atc": 6931,
      "##atures": 6932,
      "##ingu": 6933,
      "##ington": 6934,
      "##report": 6935,
      "##reme": 6936,
      "##ica": 6937,
      "##staff": 6938,
      "touch": 6939,
      "##ilipp": 6940,
      "##itude": 6941,
      "##asm": 6942,
      "##eline": 6943,
      "##etes": 6944,
      "##porg": 6945,
      "isol": 6946,
      "##leys": 6947,
      "canc": 6948,
      "##olly": 6949,
      "stem": 6950,
      "stottawa": 6951,
      "##illa": 6952,
      "chair": 6953,
      "##agu": 6954,
      "##aga": 6955,
      "##agan": 6956,
      "##agen": 6957,
      "##ida": 6958,
      "##pping": 6959,
      "wholly": 6960,
      "##opl": 6961,
      "##aya": 6962,
      "##ayan": 6963,
      "##iances": 6964,
      "sud": 6965,
      "##under": 6966,
      "##ccainternet": 6967,
      "##cccca": 6968,
      "entre": 6969,
      "enriched": 6970,
      "##raasean": 6971,
      "seoul": 6972,
      "##ultures": 6973,
      "spin": 6974,
      "itc": 6975,
      "itchs": 6976,
      "contamination": 6977,
      "meiji": 6978,
      "##ews": 6979,
      "words": 6980,
      "##ishi": 6981,
      "notes": 6982,
      "notably": 6983,
      "manual": 6984,
      "##ardous": 6985,
      "heat": 6986,
      "phase": 6987,
      "parad": 6988,
      "israelcontact": 6989,
      "highways": 6990,
      "highvalue": 6991,
      "intraasean": 6992,
      "cadbury": 6993,
      "bran": 6994,
      "populations": 6995,
      "##ibly": 6996,
      "newly": 6997,
      "##enses": 6998,
      "abund": 6999,
      "##efl": 7000,
      "##efa": 7001,
      "prevention": 7002,
      "neut": 7003,
      "saigon": 7004,
      "minerals": 7005,
      "healthful": 7006,
      "httpswww": 7007,
      "cloth": 7008,
      "optical": 7009,
      "##spect": 7010,
      "basin": 7011,
      "nothing": 7012,
      "##assium": 7013,
      "internationally": 7014,
      "biom": 7015,
      "biological": 7016,
      "singapor": 7017,
      "##awan": 7018,
      "##away": 7019,
      "soviet": 7020,
      "subd": 7021,
      "howard": 7022,
      "centers": 7023,
      "httpwwwedcca": 7024,
      "##etitive": 7025,
      "flowers": 7026,
      "mona": 7027,
      "monte": 7028,
      "montr": 7029,
      "obesity": 7030,
      "wwwdfaitmaecigcca": 7031,
      "pepper": 7032,
      "singaporeans": 7033,
      "supervalue": 7034,
      "varies": 7035,
      "##oseph": 7036,
      "##onds": 7037,
      "##ondon": 7038,
      "grass": 7039,
      "grants": 7040,
      "graph": 7041,
      "grey": 7042,
      "scot": 7043,
      "desire": 7044,
      "##load": 7045,
      "signs": 7046,
      "starry": 7047,
      "directory": 7048,
      "potassium": 7049,
      "##ysize": 7050,
      "advances": 7051,
      "formed": 7052,
      "pole": 7053,
      "registr": 7054,
      "surin": 7055,
      "providers": 7056,
      "equity": 7057,
      "equally": 7058,
      "extends": 7059,
      "affili": 7060,
      "distributing": 7061,
      "load": 7062,
      "##rolog": 7063,
      "##print": 7064,
      "##prene": 7065,
      "conflic": 7066,
      "ownership": 7067,
      "##letin": 7068,
      "universities": 7069,
      "blind": 7070,
      "limits": 7071,
      "##flavour": 7072,
      "belong": 7073,
      "earlier": 7074,
      "hands": 7075,
      "colon": 7076,
      "jobs": 7077,
      "skim": 7078,
      "##elsen": 7079,
      "commissioners": 7080,
      "sunkist": 7081,
      "feedst": 7082,
      "remainder": 7083,
      "hybrid": 7084,
      "##agraph": 7085,
      "##agrca": 7086,
      "observer": 7087,
      "mediumsized": 7088,
      "mrs": 7089,
      "helping": 7090,
      "greatest": 7091,
      "quantit": 7092,
      "goes": 7093,
      "slower": 7094,
      "photon": 7095,
      "photometer": 7096,
      "determining": 7097,
      "violet": 7098,
      "geography": 7099,
      "choices": 7100,
      "schedules": 7101,
      "##work": 7102,
      "promotes": 7103,
      "solution": 7104,
      "identification": 7105,
      "possibility": 7106,
      "icew": 7107,
      "banking": 7108,
      "##where": 7109,
      "##unction": 7110,
      "clearing": 7111,
      "influenza": 7112,
      "stream": 7113,
      "scientist": 7114,
      "encouraging": 7115,
      "logan": 7116,
      "##ainternational": 7117,
      "bodysize": 7118,
      "##dfaitmaecigccainternet": 7119,
      "sections": 7120,
      "construct": 7121,
      "contribute": 7122,
      "contributes": 7123,
      "contributing": 7124,
      "##ciirdf": 7125,
      "begins": 7126,
      "employment": 7127,
      "##tariff": 7128,
      "##growing": 7129,
      "principle": 7130,
      "trip": 7131,
      "##ecutive": 7132,
      "franchising": 7133,
      "nirim": 7134,
      "negotiated": 7135,
      "easier": 7136,
      "falls": 7137,
      "falling": 7138,
      "raised": 7139,
      "text": 7140,
      "prospective": 7141,
      "federal": 7142,
      "himal": 7143,
      "##ruption": 7144,
      "ribbedsize": 7145,
      "ille": 7146,
      "##wave": 7147,
      "substantially": 7148,
      "melba": 7149,
      "headqu": 7150,
      "integral": 7151,
      "sense": 7152,
      "carrier": 7153,
      "transferred": 7154,
      "schem": 7155,
      "essentially": 7156,
      "nestlé": 7157,
      "##industrial": 7158,
      "warehouses": 7159,
      "replaced": 7160,
      "missions": 7161,
      "announce": 7162,
      "##certain": 7163,
      "narrow": 7164,
      "richard": 7165,
      "utilization": 7166,
      "acquis": 7167,
      "calculated": 7168,
      "##economic": 7169,
      "extensively": 7170,
      "harvested": 7171,
      "bags": 7172,
      "boundaries": 7173,
      "foot": 7174,
      "diagnostic": 7175,
      "aspect": 7176,
      "polarimet": 7177,
      "electronics": 7178,
      "cultivated": 7179,
      "orbital": 7180,
      "adopt": 7181,
      "##aneous": 7182,
      "expectancy": 7183,
      "adapt": 7184,
      "communication": 7185,
      "communications": 7186,
      "definitions": 7187,
      "selfsufficiency": 7188,
      "mutual": 7189,
      "mutton": 7190,
      "tropical": 7191,
      "synth": 7192,
      "describes": 7193,
      "recommendations": 7194,
      "fuji": 7195,
      "fermented": 7196,
      "oppos": 7197,
      "piece": 7198,
      "fifth": 7199,
      "fifteen": 7200,
      "margarine": 7201,
      "demonstrated": 7202,
      "conclusion": 7203,
      "illust": 7204,
      "levied": 7205,
      "##healthgovil": 7206,
      "immigration": 7207,
      "##jinom": 7208,
      "##orthodox": 7209,
      "invoice": 7210,
      "substitute": 7211,
      "substitutes": 7212,
      "roasted": 7213,
      "kilogram": 7214,
      "kilograms": 7215,
      "physiography": 7216,
      "pleasantuses": 7217,
      "incubators": 7218,
      "reserves": 7219,
      "upgrade": 7220,
      "catalogue": 7221,
      "##branded": 7222,
      "horticulture": 7223,
      "prawns": 7224,
      "##priced": 7225,
      "exemptions": 7226,
      "alteration": 7227,
      "##rocessing": 7228,
      "chefs": 7229,
      "shorter": 7230,
      "organisationstaff": 7231,
      "smuggling": 7232,
      "doctors": 7233,
      "replacement": 7234,
      "jln": 7235,
      "ladys": 7236,
      "oyster": 7237,
      "picture": 7238,
      "relaxation": 7239,
      "biopharmaceuticals": 7240,
      "guinea": 7241,
      "pavil": 7242,
      "##informatics": 7243,
      "stuffed": 7244,
      "explanation": 7245,
      "luxury": 7246,
      "suggestions": 7247,
      "circumstances": 7248,
      "predominantly": 7249,
      "latit": 7250,
      "unorganized": 7251,
      "involvement": 7252,
      "anticipated": 7253,
      "##inspectiongcca": 7254,
      "bundles": 7255,
      "waters": 7256,
      "ukraine": 7257,
      "autonomous": 7258,
      "festival": 7259,
      "jupiter": 7260,
      "meslin": 7261,
      "reregistration": 7262,
      "entreprene": 7263,
      "montréal": 7264,
      "ajinom": 7265,
      "borders": 7266,
      "banned": 7267,
      "cited": 7268,
      "cake": 7269,
      "cfa": 7270,
      "cabb": 7271,
      "cultures": 7272,
      "dg": 7273,
      "din": 7274,
      "dutch": 7275,
      "ea": 7276,
      "ein": 7277,
      "fi": 7278,
      "fle": 7279,
      "fra": 7280,
      "fpo": 7281,
      "fung": 7282,
      "fha": 7283,
      "finger": 7284,
      "gans": 7285,
      "gins": 7286,
      "ginger": 7287,
      "hi": 7288,
      "hk": 7289,
      "hin": 7290,
      "jean": 7291,
      "jetro": 7292,
      "ko": 7293,
      "kl": 7294,
      "kris": 7295,
      "livers": 7296,
      "lakes": 7297,
      "lights": 7298,
      "london": 7299,
      "mall": 7300,
      "miss": 7301,
      "nh": 7302,
      "ning": 7303,
      "niss": 7304,
      "nik": 7305,
      "ok": 7306,
      "ost": 7307,
      "pul": 7308,
      "pix": 7309,
      "psc": 7310,
      "pdf": 7311,
      "rog": 7312,
      "rasp": 7313,
      "slic": 7314,
      "session": 7315,
      "ton": 7316,
      "tiss": 7317,
      "tables": 7318,
      "tcm": 7319,
      "vtel": 7320,
      "vision": 7321,
      "vene": 7322,
      "wwww": 7323,
      "waf": 7324,
      "wof": 7325,
      "za": 7326,
      "zhe": 7327,
      "##cal": 7328,
      "##cribed": 7329,
      "##oit": 7330,
      "##oly": 7331,
      "##otic": 7332,
      "##rin": 7333,
      "##rest": 7334,
      "##reds": 7335,
      "##rcontact": 7336,
      "##du": 7337,
      "##dat": 7338,
      "##days": 7339,
      "##pd": 7340,
      "##pi": 7341,
      "##py": 7342,
      "##pur": 7343,
      "##person": 7344,
      "##ny": 7345,
      "##nes": 7346,
      "##nut": 7347,
      "##fe": 7348,
      "##fin": 7349,
      "##fri": 7350,
      "##farm": 7351,
      "##lip": 7352,
      "##law": 7353,
      "##ael": 7354,
      "##aib": 7355,
      "##aug": 7356,
      "##ients": 7357,
      "##iya": 7358,
      "##bour": 7359,
      "##tch": 7360,
      "##tuce": 7361,
      "##yu": 7362,
      "##hon": 7363,
      "##ham": 7364,
      "##government": 7365,
      "##vinc": 7366,
      "##voy": 7367,
      "##kat": 7368,
      "##kus": 7369,
      "##my": 7370,
      "##jected": 7371,
      "##erted": 7372,
      "thick": 7373,
      "##anas": 7374,
      "##ena": 7375,
      "ant": 7376,
      "##arc": 7377,
      "##arot": 7378,
      "##ingapore": 7379,
      "##rel": 7380,
      "##rea": 7381,
      "##icon": 7382,
      "##stan": 7383,
      "##stellar": 7384,
      "tow": 7385,
      "##ilization": 7386,
      "##elo": 7387,
      "##elve": 7388,
      "##adan": 7389,
      "##adest": 7390,
      "##omon": 7391,
      "##omics": 7392,
      "##omyc": 7393,
      "##acarot": 7394,
      "congress": 7395,
      "reex": 7396,
      "exotic": 7397,
      "##erscom": 7398,
      "##ulations": 7399,
      "##ione": 7400,
      "imart": 7401,
      "##oli": 7402,
      "stun": 7403,
      "stopp": 7404,
      "onions": 7405,
      "##abad": 7406,
      "##cep": 7407,
      "chili": 7408,
      "##agri": 7409,
      "##aggovil": 7410,
      "##tered": 7411,
      "##mentation": 7412,
      "##esto": 7413,
      "incl": 7414,
      "##ryst": 7415,
      "aging": 7416,
      "shr": 7417,
      "shir": 7418,
      "shap": 7419,
      "##iah": 7420,
      "suit": 7421,
      "##used": 7422,
      "consecutive": 7423,
      "##ifies": 7424,
      "usage": 7425,
      "usual": 7426,
      "uns": 7427,
      "uncooked": 7428,
      "dead": 7429,
      "deals": 7430,
      "death": 7431,
      "enable": 7432,
      "entr": 7433,
      "sean": 7434,
      "##ourc": 7435,
      "span": 7436,
      "spot": 7437,
      "spite": 7438,
      "itcan": 7439,
      "context": 7440,
      "##quota": 7441,
      "##ldeveloped": 7442,
      "##aks": 7443,
      "washing": 7444,
      "perf": 7445,
      "consumes": 7446,
      "##izmann": 7447,
      "expenses": 7448,
      "##acters": 7449,
      "mans": 7450,
      "grows": 7451,
      "coated": 7452,
      "copper": 7453,
      "leaf": 7454,
      "highlight": 7455,
      "fred": 7456,
      "alliances": 7457,
      "largeflesh": 7458,
      "brack": 7459,
      "##ifications": 7460,
      "newsp": 7461,
      "##atesize": 7462,
      "actively": 7463,
      "relating": 7464,
      "locate": 7465,
      "##aviv": 7466,
      "distinc": 7467,
      "preval": 7468,
      "##ference": 7469,
      "thereby": 7470,
      "genus": 7471,
      "boasts": 7472,
      "##achel": 7473,
      "clal": 7474,
      "specify": 7475,
      "struct": 7476,
      "strugg": 7477,
      "informationmiddle": 7478,
      "underst": 7479,
      "outd": 7480,
      "cord": 7481,
      "cort": 7482,
      "imposs": 7483,
      "infob": 7484,
      "reproduc": 7485,
      "interstellar": 7486,
      "httpwwwdf": 7487,
      "httpwwwkosher": 7488,
      "##ufficient": 7489,
      "democ": 7490,
      "approvals": 7491,
      "mont": 7492,
      "betacarot": 7493,
      "lightyear": 7494,
      "freshavailability": 7495,
      "wwwn": 7496,
      "wellknown": 7497,
      "singaporean": 7498,
      "smc": 7499,
      "smith": 7500,
      "smoked": 7501,
      "tele": 7502,
      "transf": 7503,
      "anything": 7504,
      "anywhere": 7505,
      "fishmeal": 7506,
      "scene": 7507,
      "stands": 7508,
      "twenty": 7509,
      "twelve": 7510,
      "qualified": 7511,
      "trades": 7512,
      "vegetation": 7513,
      "advent": 7514,
      "likewise": 7515,
      "poised": 7516,
      "military": 7517,
      "els": 7518,
      "else": 7519,
      "##auses": 7520,
      "waterway": 7521,
      "metals": 7522,
      "deleg": 7523,
      "irans": 7524,
      "detect": 7525,
      "extend": 7526,
      "promising": 7527,
      "leaders": 7528,
      "factories": 7529,
      "factbook": 7530,
      "##indonesia": 7531,
      "drivers": 7532,
      "loan": 7533,
      "loans": 7534,
      "milka": 7535,
      "##roll": 7536,
      "koreans": 7537,
      "wherever": 7538,
      "gdpcapita": 7539,
      "##afe": 7540,
      "##afma": 7541,
      "faced": 7542,
      "nontariff": 7543,
      "moist": 7544,
      "fiveyear": 7545,
      "representatives": 7546,
      "farmer": 7547,
      "marsh": 7548,
      "colle": 7549,
      "colza": 7550,
      "supplying": 7551,
      "depends": 7552,
      "longstanding": 7553,
      "skilled": 7554,
      "actually": 7555,
      "effecti": 7556,
      "amongst": 7557,
      "##apeu": 7558,
      "##idden": 7559,
      "treated": 7560,
      "soya": 7561,
      "publicsector": 7562,
      "atlases": 7563,
      "dairying": 7564,
      "insufficient": 7565,
      "patents": 7566,
      "covering": 7567,
      "excise": 7568,
      "creamy": 7569,
      "ensuring": 7570,
      "helps": 7571,
      "bulletin": 7572,
      "classes": 7573,
      "concerning": 7574,
      "leguminous": 7575,
      "addresses": 7576,
      "nutrient": 7577,
      "fewer": 7578,
      "sars": 7579,
      "looks": 7580,
      "globally": 7581,
      "georg": 7582,
      "offshore": 7583,
      "promoted": 7584,
      "calorie": 7585,
      "solutions": 7586,
      "possibly": 7587,
      "collection": 7588,
      "bakeries": 7589,
      "occas": 7590,
      "sanitation": 7591,
      "schedulev": 7592,
      "##aza": 7593,
      "energetic": 7594,
      "planet": 7595,
      "characters": 7596,
      "priorities": 7597,
      "logistic": 7598,
      "destinations": 7599,
      "haram": 7600,
      "performed": 7601,
      "penal": 7602,
      "participated": 7603,
      "subsector": 7604,
      "subsectors": 7605,
      "miller": 7606,
      "gluc": 7607,
      "microbial": 7608,
      "bottle": 7609,
      "lettuce": 7610,
      "entity": 7611,
      "employing": 7612,
      "##internationalgccaweb": 7613,
      "breakdown": 7614,
      "##timately": 7615,
      "returned": 7616,
      "reflected": 7617,
      "shoppers": 7618,
      "neighboring": 7619,
      "streettel": 7620,
      "raj": 7621,
      "emergence": 7622,
      "emergency": 7623,
      "technological": 7624,
      "##moaggovil": 7625,
      "flavored": 7626,
      "liter": 7627,
      "pollinated": 7628,
      "##ircorgil": 7629,
      "separated": 7630,
      "correc": 7631,
      "machines": 7632,
      "entirely": 7633,
      "horiz": 7634,
      "attracting": 7635,
      "coloured": 7636,
      "##asiacom": 7637,
      "bioinformatics": 7638,
      "moderate": 7639,
      "delivered": 7640,
      "hereinafter": 7641,
      "layers": 7642,
      "extreme": 7643,
      "yields": 7644,
      "shifting": 7645,
      "berries": 7646,
      "##dney": 7647,
      "circle": 7648,
      "reasonable": 7649,
      "danone": 7650,
      "mechanical": 7651,
      "pigs": 7652,
      "calcium": 7653,
      "dogs": 7654,
      "sampling": 7655,
      "connected": 7656,
      "sustained": 7657,
      "neighbourhood": 7658,
      "cida": 7659,
      "massive": 7660,
      "mirrors": 7661,
      "welcom": 7662,
      "welldeveloped": 7663,
      "formerly": 7664,
      "wealthy": 7665,
      "fluctuations": 7666,
      "stier": 7667,
      "stipulated": 7668,
      "digital": 7669,
      "answers": 7670,
      "ultraorthodox": 7671,
      "virtually": 7672,
      "wishing": 7673,
      "speaking": 7674,
      "directions": 7675,
      "removal": 7676,
      "camera": 7677,
      "parentages": 7678,
      "sustainable": 7679,
      "genetics": 7680,
      "interestingly": 7681,
      "discussed": 7682,
      "occupy": 7683,
      "bacteria": 7684,
      "kios": 7685,
      "agroindustrial": 7686,
      "httpwwweu": 7687,
      "female": 7688,
      "henry": 7689,
      "villages": 7690,
      "therapeu": 7691,
      "prosperity": 7692,
      "parisien": 7693,
      "wwwinfoexportgccavn": 7694,
      "surprising": 7695,
      "birth": 7696,
      "situations": 7697,
      "citizens": 7698,
      "subsequent": 7699,
      "sweetener": 7700,
      "hanoit": 7701,
      "thorough": 7702,
      "exactly": 7703,
      "syariah": 7704,
      "diabetes": 7705,
      "dedic": 7706,
      "fostering": 7707,
      "ranks": 7708,
      "ancient": 7709,
      "seventh": 7710,
      "expatri": 7711,
      "conservative": 7712,
      "deemed": 7713,
      "gradually": 7714,
      "irradiated": 7715,
      "discrep": 7716,
      "fairgroundstel": 7717,
      "politically": 7718,
      "##ciagovciapublicationsfactbookgeos": 7719,
      "aberration": 7720,
      "mumbai": 7721,
      "oxygen": 7722,
      "anhui": 7723,
      "acreage": 7724,
      "noticed": 7725,
      "carrots": 7726,
      "explosion": 7727,
      "elevations": 7728,
      "absolute": 7729,
      "ronald": 7730,
      "witness": 7731,
      "spinach": 7732,
      "singapores": 7733,
      "icewine": 7734,
      "announcement": 7735,
      "acquisition": 7736,
      "pavilion": 7737,
      "einstein": 7738,
      "gansu": 7739,
      "ginseng": 7740,
      "wafers": 7741,
      "zhejiang": 7742,
      "##voyage": 7743,
      "betacarotene": 7744,
      "effectiveness": 7745,
      "ait": 7746,
      "bou": 7747,
      "bow": 7748,
      "barg": 7749,
      "bones": 7750,
      "burn": 7751,
      "cm": 7752,
      "cec": 7753,
      "cai": 7754,
      "cub": 7755,
      "ctel": 7756,
      "dome": 7757,
      "dai": 7758,
      "fus": 7759,
      "fies": 7760,
      "fres": 7761,
      "fib": 7762,
      "fame": 7763,
      "filled": 7764,
      "fixed": 7765,
      "flexible": 7766,
      "gard": 7767,
      "gange": 7768,
      "gone": 7769,
      "gaz": 7770,
      "grim": 7771,
      "gmos": 7772,
      "gift": 7773,
      "hp": 7774,
      "hors": 7775,
      "hint": 7776,
      "hind": 7777,
      "heter": 7778,
      "iii": 7779,
      "jel": 7780,
      "jur": 7781,
      "jour": 7782,
      "joll": 7783,
      "kr": 7784,
      "kim": 7785,
      "kits": 7786,
      "ktel": 7787,
      "karo": 7788,
      "kreme": 7789,
      "lc": 7790,
      "ll": 7791,
      "lose": 7792,
      "ltel": 7793,
      "luminous": 7794,
      "moll": 7795,
      "merg": 7796,
      "misc": 7797,
      "nl": 7798,
      "nt": 7799,
      "nons": 7800,
      "none": 7801,
      "nurs": 7802,
      "niger": 7803,
      "om": 7804,
      "ole": 7805,
      "oma": 7806,
      "pc": 7807,
      "py": 7808,
      "ps": 7809,
      "pom": 7810,
      "pand": 7811,
      "pist": 7812,
      "pens": 7813,
      "ptel": 7814,
      "peter": 7815,
      "ppa": 7816,
      "pione": 7817,
      "ry": 7818,
      "rent": 7819,
      "rum": 7820,
      "rid": 7821,
      "rim": 7822,
      "roll": 7823,
      "rocks": 7824,
      "rmb": 7825,
      "roman": 7826,
      "spp": 7827,
      "sich": 7828,
      "tv": 7829,
      "tail": 7830,
      "tight": 7831,
      "tends": 7832,
      "tesco": 7833,
      "ut": 7834,
      "viv": 7835,
      "vibr": 7836,
      "warm": 7837,
      "yu": 7838,
      "yog": 7839,
      "yeast": 7840,
      "……………………………………………": 7841,
      "##eves": 7842,
      "##con": 7843,
      "##cid": 7844,
      "##crop": 7845,
      "##ois": 7846,
      "##oven": 7847,
      "##ooth": 7848,
      "##dec": 7849,
      "##dings": 7850,
      "##donal": 7851,
      "##uong": 7852,
      "##uels": 7853,
      "##pire": 7854,
      "##fc": 7855,
      "##far": 7856,
      "##fat": 7857,
      "##lings": 7858,
      "##auc": 7859,
      "##austral": 7860,
      "##audi": 7861,
      "##iop": 7862,
      "##ius": 7863,
      "##bev": 7864,
      "##borg": 7865,
      "##bsc": 7866,
      "##tech": 7867,
      "##tze": 7868,
      "##sa": 7869,
      "##sm": 7870,
      "##san": 7871,
      "##hid": 7872,
      "##him": 7873,
      "##hanoi": 7874,
      "##gn": 7875,
      "##gk": 7876,
      "##ging": 7877,
      "##gian": 7878,
      "##gests": 7879,
      "##greg": 7880,
      "##kes": 7881,
      "##mer": 7882,
      "##mil": 7883,
      "##mail": 7884,
      "##mont": 7885,
      "##mortem": 7886,
      "##jan": 7887,
      "##ña": 7888,
      "##ñaresearchercenter": 7889,
      "##orig": 7890,
      "##orld": 7891,
      "##anal": 7892,
      "##ania": 7893,
      "##tid": 7894,
      "##tise": 7895,
      "##eda": 7896,
      "##enz": 7897,
      "##enous": 7898,
      "ana": 7899,
      "##arts": 7900,
      "##atgov": 7901,
      "##ataceaefamily": 7902,
      "##ingent": 7903,
      "##real": 7904,
      "##ico": 7905,
      "##icin": 7906,
      "##icgcc": 7907,
      "told": 7908,
      "##iling": 7909,
      "##adu": 7910,
      "##adong": 7911,
      "##ecomsg": 7912,
      "##etext": 7913,
      "##isdic": 7914,
      "##ode": 7915,
      "forum": 7916,
      "##aco": 7917,
      "##access": 7918,
      "##rie": 7919,
      "##rian": 7920,
      "rey": 7921,
      "reeves": 7922,
      "##ulter": 7923,
      "##lean": 7924,
      "cans": 7925,
      "imaging": 7926,
      "##olic": 7927,
      "##oline": 7928,
      "##igan": 7929,
      "##igar": 7930,
      "##igenous": 7931,
      "stab": 7932,
      "stay": 7933,
      "beau": 7934,
      "canadat": 7935,
      "##umbers": 7936,
      "##abo": 7937,
      "##abang": 7938,
      "comet": 7939,
      "##amiddle": 7940,
      "chic": 7941,
      "##agua": 7942,
      "##idiya": 7943,
      "##iring": 7944,
      "whom": 7945,
      "whey": 7946,
      "incre": 7947,
      "incidence": 7948,
      "##apec": 7949,
      "##utan": 7950,
      "##rykus": 7951,
      "##ista": 7952,
      "##istence": 7953,
      "agrop": 7954,
      "marker": 7955,
      "shel": 7956,
      "##aym": 7957,
      "indigenous": 7958,
      "tra": 7959,
      "##emd": 7960,
      "##empts": 7961,
      "##oca": 7962,
      "##usan": 7963,
      "consular": 7964,
      "##iform": 7965,
      "complied": 7966,
      "compreh": 7967,
      "##oses": 7968,
      "##chin": 7969,
      "##chho": 7970,
      "atel": 7971,
      "atom": 7972,
      "atomic": 7973,
      "attitude": 7974,
      "##unis": 7975,
      "##eree": 7976,
      "unable": 7977,
      "unfit": 7978,
      "unbranded": 7979,
      "dehydr": 7980,
      "enact": 7981,
      "##rax": 7982,
      "sets": 7983,
      "meets": 7984,
      "meidiya": 7985,
      "##quit": 7986,
      "##ewan": 7987,
      "appeti": 7988,
      "appeal": 7989,
      "expo": 7990,
      "expects": 7991,
      "reserve": 7992,
      "planc": 7993,
      "notar": 7994,
      "manures": 7995,
      "command": 7996,
      "leon": 7997,
      "php": 7998,
      "param": 7999,
      "parity": 8000,
      "parents": 8001,
      "israelis": 8002,
      "##soft": 8003,
      "highincome": 8004,
      "fran": 8005,
      "##atimo": 8006,
      "##itioned": 8007,
      "##echin": 8008,
      "##ackers": 8009,
      "emit": 8010,
      "industrys": 8011,
      "decide": 8012,
      "decree": 8013,
      "##ensitive": 8014,
      "proven": 8015,
      "relied": 8016,
      "reliance": 8017,
      "reliant": 8018,
      "##aving": 8019,
      "##avut": 8020,
      "recomb": 8021,
      "distor": 8022,
      "distingu": 8023,
      "economical": 8024,
      "amid": 8025,
      "##licate": 8026,
      "genes": 8027,
      "##wegian": 8028,
      "bohr": 8029,
      "##achi": 8030,
      "saus": 8031,
      "governing": 8032,
      "healthcare": 8033,
      "client": 8034,
      "clients": 8035,
      "foreigners": 8036,
      "mahar": 8037,
      "optic": 8038,
      "strain": 8039,
      "strange": 8040,
      "bases": 8041,
      "invited": 8042,
      "butch": 8043,
      "pastry": 8044,
      "cape": 8045,
      "underway": 8046,
      "biof": 8047,
      "corruption": 8048,
      "sof": 8049,
      "impulse": 8050,
      "##ordon": 8051,
      "norwegian": 8052,
      "repe": 8053,
      "interior": 8054,
      "httpwwwatsagr": 8055,
      "afta": 8056,
      "philbev": 8057,
      "flakes": 8058,
      "mainten": 8059,
      "monamans": 8060,
      "##exp": 8061,
      "slop": 8062,
      "##coop": 8063,
      "wwwh": 8064,
      "wwwdfaitmaecigcc": 8065,
      "wellington": 8066,
      "pea": 8067,
      "packer": 8068,
      "sym": 8069,
      "sydney": 8070,
      "male": 8071,
      "carp": 8072,
      "superst": 8073,
      "superior": 8074,
      "smooth": 8075,
      "telev": 8076,
      "manufactures": 8077,
      "finetext": 8078,
      "feature": 8079,
      "timely": 8080,
      "certifications": 8081,
      "consumerready": 8082,
      "displ": 8083,
      "disinf": 8084,
      "desert": 8085,
      "##gccadest": 8086,
      "crunch": 8087,
      "criter": 8088,
      "restr": 8089,
      "economics": 8090,
      "continent": 8091,
      "potentially": 8092,
      "potrykus": 8093,
      "modes": 8094,
      "modest": 8095,
      "modification": 8096,
      "smallest": 8097,
      "smallscale": 8098,
      "ifp": 8099,
      "formula": 8100,
      "origins": 8101,
      "originated": 8102,
      "originally": 8103,
      "##ype": 8104,
      "##partment": 8105,
      "surge": 8106,
      "surpass": 8107,
      "applicants": 8108,
      "equipped": 8109,
      "attempts": 8110,
      "plantings": 8111,
      "affixed": 8112,
      "additionally": 8113,
      "departures": 8114,
      "improves": 8115,
      "played": 8116,
      "specializing": 8117,
      "##press": 8118,
      "##atsagrgcca": 8119,
      "owns": 8120,
      "visited": 8121,
      "##bank": 8122,
      "whereby": 8123,
      "##afamily": 8124,
      "faces": 8125,
      "facing": 8126,
      "reader": 8127,
      "powers": 8128,
      "##itting": 8129,
      "authorization": 8130,
      "effici": 8131,
      "earnings": 8132,
      "##anny": 8133,
      "deputy": 8134,
      "##plant": 8135,
      "##otting": 8136,
      "evident": 8137,
      "evolved": 8138,
      "skins": 8139,
      "commercialization": 8140,
      "sunlight": 8141,
      "sunny": 8142,
      "postmortem": 8143,
      "lastly": 8144,
      "sweetening": 8145,
      "cleared": 8146,
      "profit": 8147,
      "publications": 8148,
      "discl": 8149,
      "reductions": 8150,
      "offerings": 8151,
      "brothers": 8152,
      "receip": 8153,
      "reception": 8154,
      "inscribed": 8155,
      "patron": 8156,
      "##ontrol": 8157,
      "turnkey": 8158,
      "administered": 8159,
      "canning": 8160,
      "focuss": 8161,
      "everyday": 8162,
      "goals": 8163,
      "morning": 8164,
      "##ashed": 8165,
      "strengthened": 8166,
      "positioning": 8167,
      "looked": 8168,
      "forwarding": 8169,
      "filter": 8170,
      "fillets": 8171,
      "matters": 8172,
      "mathem": 8173,
      "takeaway": 8174,
      "calories": 8175,
      "practical": 8176,
      "instore": 8177,
      "bigger": 8178,
      "##ertk": 8179,
      "diversity": 8180,
      "accepting": 8181,
      "acceptable": 8182,
      "mcdonal": 8183,
      "##azing": 8184,
      "swiss": 8185,
      "stretch": 8186,
      "chemist": 8187,
      "##obe": 8188,
      "charles": 8189,
      "thirds": 8190,
      "mixtures": 8191,
      "properly": 8192,
      "passes": 8193,
      "subsistence": 8194,
      "greenland": 8195,
      "gained": 8196,
      "herd": 8197,
      "herds": 8198,
      "millimet": 8199,
      "virgin": 8200,
      "microwave": 8201,
      "gala": 8202,
      "cutting": 8203,
      "column": 8204,
      "movements": 8205,
      "ribs": 8206,
      "ciffa": 8207,
      "regarded": 8208,
      "disposed": 8209,
      "neighbours": 8210,
      "placing": 8211,
      "raising": 8212,
      "emerged": 8213,
      "climb": 8214,
      "bananas": 8215,
      "latin": 8216,
      "acids": 8217,
      "seasonal": 8218,
      "dealing": 8219,
      "premises": 8220,
      "lebanons": 8221,
      "causes": 8222,
      "integration": 8223,
      "integrators": 8224,
      "##romonitorcom": 8225,
      "purefoods": 8226,
      "revised": 8227,
      "suggests": 8228,
      "bordered": 8229,
      "honeyed": 8230,
      "ceased": 8231,
      "ultimately": 8232,
      "##march": 8233,
      "oilseed": 8234,
      "merid": 8235,
      "##metropolitan": 8236,
      "osem": 8237,
      "satur": 8238,
      "shifted": 8239,
      "religions": 8240,
      "replac": 8241,
      "steam": 8242,
      "plateaus": 8243,
      "##uckland": 8244,
      "sharing": 8245,
      "advertise": 8246,
      "arrivals": 8247,
      "notifications": 8248,
      "analyst": 8249,
      "reasonably": 8250,
      "##iryat": 8251,
      "mechanism": 8252,
      "wastes": 8253,
      "cosmic": 8254,
      "orchid": 8255,
      "orchard": 8256,
      "##economy": 8257,
      "weakness": 8258,
      "bhutan": 8259,
      "fox": 8260,
      "##ogenous": 8261,
      "salads": 8262,
      "aids": 8263,
      "rustan": 8264,
      "absorption": 8265,
      "staples": 8266,
      "volun": 8267,
      "adopted": 8268,
      "allocate": 8269,
      "##indexhtm": 8270,
      "##kei": 8271,
      "eliminated": 8272,
      "eliminate": 8273,
      "northwestern": 8274,
      "exclusive": 8275,
      "fuelled": 8276,
      "fermentation": 8277,
      "opposed": 8278,
      "satisfied": 8279,
      "satisfy": 8280,
      "vanak": 8281,
      "yangtze": 8282,
      "##jspcid": 8283,
      "##atchewan": 8284,
      "martin": 8285,
      "harmful": 8286,
      "tagalog": 8287,
      "##rosis": 8288,
      "##rosion": 8289,
      "suffered": 8290,
      "renewable": 8291,
      "bengal": 8292,
      "benguet": 8293,
      "purified": 8294,
      "purification": 8295,
      "rainfed": 8296,
      "tracking": 8297,
      "precise": 8298,
      "crushers": 8299,
      "##commercial": 8300,
      "mountainous": 8301,
      "hubert": 8302,
      "aggressively": 8303,
      "invoices": 8304,
      "textiles": 8305,
      "boltw": 8306,
      "incubator": 8307,
      "httpatsagrc": 8308,
      "horticultural": 8309,
      "females": 8310,
      "michael": 8311,
      "michigan": 8312,
      "thinking": 8313,
      "prosperous": 8314,
      "algae": 8315,
      "apparent": 8316,
      "surprise": 8317,
      "##processed": 8318,
      "furnish": 8319,
      "partially": 8320,
      "confirmed": 8321,
      "situated": 8322,
      "peninsular": 8323,
      "peninsula": 8324,
      "dynam": 8325,
      "dalian": 8326,
      "sodium": 8327,
      "tmm": 8328,
      "tamil": 8329,
      "inventory": 8330,
      "absorbed": 8331,
      "##ourashkar": 8332,
      "##ourashkard": 8333,
      "bahrain": 8334,
      "mackerel": 8335,
      "nagoya": 8336,
      "puddings": 8337,
      "##japan": 8338,
      "thriving": 8339,
      "chengdu": 8340,
      "amendment": 8341,
      "buffalo": 8342,
      "extracts": 8343,
      "finegrainedflavor": 8344,
      "httpwwwinfoexportgccaieendisplaydocumentjspdid": 8345,
      "disadvantages": 8346,
      "epid": 8347,
      "kidney": 8348,
      "pasig": 8349,
      "pearl": 8350,
      "punjab": 8351,
      "##robat": 8352,
      "examine": 8353,
      "chlor": 8354,
      "split": 8355,
      "contributions": 8356,
      "fragmented": 8357,
      "cloud": 8358,
      "secretary": 8359,
      "safdzs": 8360,
      "teacher": 8361,
      "manipulation": 8362,
      "cruise": 8363,
      "destruction": 8364,
      "diligence": 8365,
      "gelat": 8366,
      "kirchho": 8367,
      "rupees": 8368,
      "saskatchewan": 8369,
      "inefficient": 8370,
      "remarkable": 8371,
      "##vegetable": 8372,
      "spirit": 8373,
      "accelerate": 8374,
      "symbol": 8375,
      "vehicles": 8376,
      "##competitive": 8377,
      "##phanie": 8378,
      "concluded": 8379,
      "destroyed": 8380,
      "immigrants": 8381,
      "spectroscopy": 8382,
      "bakeshop": 8383,
      "httpwwweconomistcomcountries": 8384,
      "faith": 8385,
      "tasman": 8386,
      "vendors": 8387,
      "##porgil": 8388,
      "abundant": 8389,
      "scottish": 8390,
      "skimmed": 8391,
      "quantitative": 8392,
      "##ciirdfca": 8393,
      "synthetic": 8394,
      "latitude": 8395,
      "ajinomoto": 8396,
      "hinder": 8397,
      "krispy": 8398,
      "nikkei": 8399,
      "stopped": 8400,
      "##ourceca": 8401,
      "mansourashkar": 8402,
      "cortland": 8403,
      "impossible": 8404,
      "httpwwwdfatgov": 8405,
      "democratic": 8406,
      "telephone": 8407,
      "transferee": 8408,
      "delegation": 8409,
      "moisture": 8410,
      "parentageshape": 8411,
      "dedicated": 8412,
      "discrepancy": 8413,
      "##voyagegccadest": 8414,
      "cairo": 8415,
      "gangetic": 8416,
      "jelly": 8417,
      "jurisdic": 8418,
      "mollus": 8419,
      "agroprocessing": 8420,
      "comprehensive": 8421,
      "dehydrated": 8422,
      "enacted": 8423,
      "planck": 8424,
      "##atimoporgil": 8425,
      "maharash": 8426,
      "biofuels": 8427,
      "httpwwwatsagrgccastats": 8428,
      "maintenance": 8429,
      "monamansourashkard": 8430,
      "television": 8431,
      "finetextured": 8432,
      "criteria": 8433,
      "boltwood": 8434,
      "kirchhoff": 8435,
      "httpwwwdfatgova": 8436,
      "ay": 8437,
      "aust": 8438,
      "auckland": 8439,
      "bt": 8440,
      "bid": 8441,
      "boc": 8442,
      "bos": 8443,
      "bfad": 8444,
      "cuc": 8445,
      "cres": 8446,
      "cels": 8447,
      "ccontact": 8448,
      "cross": 8449,
      "creek": 8450,
      "cryst": 8451,
      "dun": 8452,
      "dual": 8453,
      "dup": 8454,
      "deng": 8455,
      "dating": 8456,
      "die": 8457,
      "dagu": 8458,
      "eld": 8459,
      "esp": 8460,
      "erosion": 8461,
      "fes": 8462,
      "fals": 8463,
      "fpa": 8464,
      "gly": 8465,
      "gap": 8466,
      "gif": 8467,
      "gerv": 8468,
      "gases": 8469,
      "gordon": 8470,
      "hes": 8471,
      "hil": 8472,
      "hak": 8473,
      "hang": 8474,
      "hug": 8475,
      "iq": 8476,
      "ira": 8477,
      "jul": 8478,
      "jord": 8479,
      "java": 8480,
      "kap": 8481,
      "lan": 8482,
      "lou": 8483,
      "loll": 8484,
      "luck": 8485,
      "mf": 8486,
      "mx": 8487,
      "mad": 8488,
      "mist": 8489,
      "merc": 8490,
      "nc": 8491,
      "nong": 8492,
      "ncr": 8493,
      "pock": 8494,
      "pink": 8495,
      "pears": 8496,
      "pni": 8497,
      "pusan": 8498,
      "qat": 8499,
      "rn": 8500,
      "ring": 8501,
      "rom": 8502,
      "rab": 8503,
      "rain": 8504,
      "rating": 8505,
      "rush": 8506,
      "razak": 8507,
      "sac": 8508,
      "sab": 8509,
      "siz": 8510,
      "sach": 8511,
      "sake": 8512,
      "tib": 8513,
      "urea": 8514,
      "vul": 8515,
      "viss": 8516,
      "woman": 8517,
      "xr": 8518,
      "yun": 8519,
      "ytel": 8520,
      "yours": 8521,
      "zesto": 8522,
      "##ebr": 8523,
      "##oon": 8524,
      "##oter": 8525,
      "##off": 8526,
      "##rk": 8527,
      "##dh": 8528,
      "##din": 8529,
      "##dong": 8530,
      "##dex": 8531,
      "##dep": 8532,
      "##uv": 8533,
      "##upp": 8534,
      "##uok": 8535,
      "##uio": 8536,
      "##pin": 8537,
      "##pub": 8538,
      "##no": 8539,
      "##nu": 8540,
      "##nri": 8541,
      "##fre": 8542,
      "##fers": 8543,
      "##fruit": 8544,
      "##lined": 8545,
      "##lower": 8546,
      "##aa": 8547,
      "##aq": 8548,
      "##bl": 8549,
      "##bel": 8550,
      "##bacter": 8551,
      "##tom": 8552,
      "##town": 8553,
      "##tled": 8554,
      "##sen": 8555,
      "##set": 8556,
      "##self": 8557,
      "##hap": 8558,
      "##high": 8559,
      "##hai": 8560,
      "##hov": 8561,
      "##houses": 8562,
      "##halal": 8563,
      "##gate": 8564,
      "##gary": 8565,
      "##glo": 8566,
      "##wb": 8567,
      "##war": 8568,
      "##waves": 8569,
      "##vo": 8570,
      "##vd": 8571,
      "##vy": 8572,
      "##vious": 8573,
      "##volum": 8574,
      "##kg": 8575,
      "##mall": 8576,
      "##zed": 8577,
      "##jing": 8578,
      "##jik": 8579,
      "##junction": 8580,
      "##erre": 8581,
      "##erated": 8582,
      "##ona": 8583,
      "##onk": 8584,
      "##onca": 8585,
      "##oral": 8586,
      "##orous": 8587,
      "##order": 8588,
      "##inates": 8589,
      "##inaga": 8590,
      "##anh": 8591,
      "inorgan": 8592,
      "inequ": 8593,
      "##tify": 8594,
      "##edd": 8595,
      "##edical": 8596,
      "##ederation": 8597,
      "##enes": 8598,
      "##enad": 8599,
      "##atnam": 8600,
      "##rew": 8601,
      "##icial": 8602,
      "##star": 8603,
      "##stac": 8604,
      "##state": 8605,
      "##stage": 8606,
      "##stable": 8607,
      "##stered": 8608,
      "##stream": 8609,
      "toll": 8610,
      "##asenior": 8611,
      "##econtact": 8612,
      "##etel": 8613,
      "prol": 8614,
      "##isphere": 8615,
      "##enth": 8616,
      "##ody": 8617,
      "##odate": 8618,
      "##odak": 8619,
      "##aca": 8620,
      "concess": 8621,
      "conference": 8622,
      "conjunction": 8623,
      "rein": 8624,
      "rehab": 8625,
      "examin": 8626,
      "##ional": 8627,
      "story": 8628,
      "bee": 8629,
      "ash": 8630,
      "canadainternational": 8631,
      "##umber": 8632,
      "comment": 8633,
      "foodprocess": 8634,
      "chip": 8635,
      "chup": 8636,
      "chris": 8637,
      "##ider": 8638,
      "##idaspx": 8639,
      "##estj": 8640,
      "##ested": 8641,
      "##estel": 8642,
      "inclus": 8643,
      "incoter": 8644,
      "##uters": 8645,
      "##utory": 8646,
      "aged": 8647,
      "aggreg": 8648,
      "shield": 8649,
      "shek": 8650,
      "shapes": 8651,
      "##ians": 8652,
      "indi": 8653,
      "##uster": 8654,
      "##ema": 8655,
      "##emortem": 8656,
      "##ocs": 8657,
      "complic": 8658,
      "complement": 8659,
      "compart": 8660,
      "complim": 8661,
      "computers": 8662,
      "##osis": 8663,
      "##osity": 8664,
      "##osoph": 8665,
      "##chel": 8666,
      "##chang": 8667,
      "##child": 8668,
      "attain": 8669,
      "##ountry": 8670,
      "millioncom": 8671,
      "ung": 8672,
      "deform": 8673,
      "degr": 8674,
      "enz": 8675,
      "##raaf": 8676,
      "sex": 8677,
      "seal": 8678,
      "seat": 8679,
      "sext": 8680,
      "seasons": 8681,
      "##ources": 8682,
      "spi": 8683,
      "spro": 8684,
      "spons": 8685,
      "spicy": 8686,
      "contem": 8687,
      "mead": 8688,
      "meant": 8689,
      "regards": 8690,
      "##eseed": 8691,
      "##udong": 8692,
      "expon": 8693,
      "expense": 8694,
      "adm": 8695,
      "adulter": 8696,
      "exportable": 8697,
      "plag": 8698,
      "plaza": 8699,
      "##itively": 8700,
      "##itime": 8701,
      "heated": 8702,
      "headed": 8703,
      "coars": 8704,
      "coke": 8705,
      "lee": 8706,
      "leaving": 8707,
      "##foodcom": 8708,
      "valleys": 8709,
      "frame": 8710,
      "overl": 8711,
      "intend": 8712,
      "intensive": 8713,
      "brine": 8714,
      "brisk": 8715,
      "##ibbut": 8716,
      "locating": 8717,
      "##avos": 8718,
      "recre": 8719,
      "reconstr": 8720,
      "arm": 8721,
      "##efore": 8722,
      "preca": 8723,
      "organised": 8724,
      "ample": 8725,
      "##licit": 8726,
      "##mson": 8727,
      "nebul": 8728,
      "salty": 8729,
      "booth": 8730,
      "saff": 8731,
      "mini": 8732,
      "governed": 8733,
      "healths": 8734,
      "maur": 8735,
      "maff": 8736,
      "opin": 8737,
      "bask": 8738,
      "invention": 8739,
      "##ube": 8740,
      "retina": 8741,
      "capability": 8742,
      "underdeveloped": 8743,
      "biop": 8744,
      "outline": 8745,
      "presidents": 8746,
      "drastic": 8747,
      "generating": 8748,
      "centavos": 8749,
      "interim": 8750,
      "httpwwwg": 8751,
      "httpwwwst": 8752,
      "httpwwwmoitgovil": 8753,
      "httpwwwinspectiongcca": 8754,
      "philosoph": 8755,
      "flax": 8756,
      "flows": 8757,
      "lie": 8758,
      "monde": 8759,
      "##exit": 8760,
      "freshness": 8761,
      "slotting": 8762,
      "obstac": 8763,
      "wwwjetrogojp": 8764,
      "wells": 8765,
      "wellbe": 8766,
      "upcoming": 8767,
      "peat": 8768,
      "peace": 8769,
      "peps": 8770,
      "syria": 8771,
      "##ediment": 8772,
      "followup": 8773,
      "gran": 8774,
      "grenad": 8775,
      "distil": 8776,
      "scar": 8777,
      "scented": 8778,
      "root": 8779,
      "twice": 8780,
      "##issible": 8781,
      "crust": 8782,
      "economically": 8783,
      "positively": 8784,
      "halifax": 8785,
      "organics": 8786,
      "##common": 8787,
      "##comvn": 8788,
      "remember": 8789,
      "advise": 8790,
      "malaysias": 8791,
      "buk": 8792,
      "decreases": 8793,
      "elm": 8794,
      "waterways": 8795,
      "accessible": 8796,
      "creation": 8797,
      "attend": 8798,
      "deter": 8799,
      "detected": 8800,
      "extending": 8801,
      "lived": 8802,
      "significance": 8803,
      "lists": 8804,
      "privatis": 8805,
      "lands": 8806,
      "landed": 8807,
      "inspect": 8808,
      "secondlargest": 8809,
      "barilla": 8810,
      "england": 8811,
      "owners": 8812,
      "visa": 8813,
      "##afety": 8814,
      "##aehtm": 8815,
      "blend": 8816,
      "blister": 8817,
      "nonex": 8818,
      "permissible": 8819,
      "associate": 8820,
      "##shangh": 8821,
      "zealandphone": 8822,
      "prote": 8823,
      "presentation": 8824,
      "maritime": 8825,
      "coloring": 8826,
      "categor": 8827,
      "job": 8828,
      "joined": 8829,
      "corporations": 8830,
      "rapeseed": 8831,
      "sugars": 8832,
      "transporting": 8833,
      "evid": 8834,
      "arabian": 8835,
      "teen": 8836,
      "sunflower": 8837,
      "sunglo": 8838,
      "feeding": 8839,
      "feedstuff": 8840,
      "##aught": 8841,
      "indicating": 8842,
      "##iox": 8843,
      "expert": 8844,
      "publication": 8845,
      "tested": 8846,
      "##ussels": 8847,
      "brother": 8848,
      "brewing": 8849,
      "inflows": 8850,
      "responsibilities": 8851,
      "catechin": 8852,
      "descending": 8853,
      "helpful": 8854,
      "##booh": 8855,
      "##ometre": 8856,
      "##govph": 8857,
      "classifications": 8858,
      "addressed": 8859,
      "addressing": 8860,
      "##igcca": 8861,
      "goat": 8862,
      "goats": 8863,
      "slowed": 8864,
      "morinaga": 8865,
      "photo": 8866,
      "photography": 8867,
      "photometers": 8868,
      "variations": 8869,
      "entryexit": 8870,
      "film": 8871,
      "setting": 8872,
      "settle": 8873,
      "viable": 8874,
      "directortel": 8875,
      "observing": 8876,
      "involves": 8877,
      "kilo": 8878,
      "kilos": 8879,
      "snacking": 8880,
      "certainly": 8881,
      "physics": 8882,
      "records": 8883,
      "amounting": 8884,
      "existence": 8885,
      "schedulex": 8886,
      "semip": 8887,
      "engineers": 8888,
      "couns": 8889,
      "chemically": 8890,
      "afghans": 8891,
      "bangladeshi": 8892,
      "middleaged": 8893,
      "##easp": 8894,
      "fertile": 8895,
      "fairpric": 8896,
      "humans": 8897,
      "roundish": 8898,
      "##internationalgcc": 8899,
      "duong": 8900,
      "portland": 8901,
      "promotions": 8902,
      "named": 8903,
      "concentrating": 8904,
      "passing": 8905,
      "write": 8906,
      "greenish": 8907,
      "difficulty": 8908,
      "targeting": 8909,
      "millers": 8910,
      "closest": 8911,
      "reportedly": 8912,
      "bottom": 8913,
      "celest": 8914,
      "celebr": 8915,
      "galile": 8916,
      "entitled": 8917,
      "similarly": 8918,
[...]
