{
  "version": "1.0",
  "truncation": null,
  "padding": null,
  "added_tokens": [
    {
      "id": 0,
      "content": "[UNK]",
      "single_word": false,
      "lstrip": false,
      "rstrip": false,
      "normalized": false,
      "special": true
    },
    {
      "id": 1,
      "content": "[CLS]",
      "single_word": false,
      "lstrip": false,
      "rstrip": false,
      "normalized": false,
      "special": true
    },
    {
      "id": 2,
      "content": "[SEP]",
      "single_word": false,
      "lstrip": false,
      "rstrip": false,
      "normalized": false,
      "special": true
    },
    {
      "id": 3,
      "content": "[PAD]",
      "single_word": false,
      "lstrip": false,
      "rstrip": false,
      "normalized": false,
      "special": true
    },
    {
      "id": 4,
      "content": "[MASK]",
      "single_word": false,
      "lstrip": false,
      "rstrip": false,
      "normalized": false,
      "special": true
    }
  ],
  "normalizer": null,
  "pre_tokenizer": {
    "type": "Whitespace"
  },
  "post_processor": {
    "type": "TemplateProcessing",
    "single": [
      {
        "SpecialToken": {
          "id": "[CLS]",
          "type_id": 0
        }
      },
      {
        "Sequence": {
          "id": "A",
          "type_id": 0
        }
      },
      {
        "SpecialToken": {
          "id": "[SEP]",
          "type_id": 0
        }
      }
    ],
    "pair": [
      {
        "SpecialToken": {
          "id": "[CLS]",
          "type_id": 0
        }
      },
      {
        "Sequence": {
          "id": "A",
          "type_id": 0
        }
      },
      {
        "SpecialToken": {
          "id": "[SEP]",
          "type_id": 0
        }
      },
      {
        "Sequence": {
          "id": "B",
          "type_id": 1
        }
      },
      {
        "SpecialToken": {
          "id": "[SEP]",
          "type_id": 1
        }
      }
    ],
    "special_tokens": {
      "[CLS]": {
        "id": "[CLS]",
        "ids": [
          1
        ],
        "tokens": [
          "[CLS]"
        ]
      },
      "[SEP]": {
        "id": "[SEP]",
        "ids": [
          2
        ],
        "tokens": [
          "[SEP]"
        ]
      }
    }
  },
  "decoder": null,
  "model": {
    "type": "WordPiece",
    "unk_token": "[UNK]",
    "continuing_subword_prefix": "##",
    "max_input_chars_per_word": 100,
    "vocab": {
      "[UNK]": 0,
      "[CLS]": 1,
      "[SEP]": 2,
      "[PAD]": 3,
      "[MASK]": 4,
      "a": 5,
      "b": 6,
      "c": 7,
      "d": 8,
      "e": 9,
      "f": 10,
      "g": 11,
      "h": 12,
      "i": 13,
      "j": 14,
      "k": 15,
      "l": 16,
      "m": 17,
      "n": 18,
      "o": 19,
      "p": 20,
      "q": 21,
      "r": 22,
      "s": 23,
      "t": 24,
      "u": 25,
      "v": 26,
      "w": 27,
      "x": 28,
      "y": 29,
      "z": 30,
      "": 31,
      "": 32,
      "": 33,
      "¥": 34,
      "©": 35,
      "«": 36,
      "­": 37,
      "®": 38,
      "°": 39,
      "²": 40,
      "µ": 41,
      "·": 42,
      "º": 43,
      "»": 44,
      "¼": 45,
      "½": 46,
      "×": 47,
      "à": 48,
      "á": 49,
      "â": 50,
      "ã": 51,
      "ä": 52,
      "ç": 53,
      "è": 54,
      "é": 55,
      "ê": 56,
      "ë": 57,
      "í": 58,
      "î": 59,
      "ï": 60,
      "ñ": 61,
      "ò": 62,
      "ó": 63,
      "ô": 64,
      "ø": 65,
      "ù": 66,
      "û": 67,
      "ü": 68,
      "œ": 69,
      "γ": 70,
      "–": 71,
      "—": 72,
      "―": 73,
      "‘": 74,
      "’": 75,
      "•": 76,
      "‣": 77,
      "…": 78,
      "€": 79,
      "⇒": 80,
      "◦": 81,
      "##o": 82,
      "##c": 83,
      "##t": 84,
      "##r": 85,
      "##a": 86,
      "##s": 87,
      "##e": 88,
      "##d": 89,
      "##w": 90,
      "##l": 91,
      "##n": 92,
      "##i": 93,
      "##f": 94,
      "##v": 95,
      "##x": 96,
      "##p": 97,
      "##h": 98,
      "##y": 99,
      "##g": 100,
      "##m": 101,
      "##é": 102,
      "##u": 103,
      "##à": 104,
      "##î": 105,
      "##b": 106,
      "##q": 107,
      "##z": 108,
      "##û": 109,
      "##k": 110,
      "##ç": 111,
      "##è": 112,
      "##j": 113,
      "##ê": 114,
      "##ô": 115,
      "##ë": 116,
      "##ï": 117,
      "##â": 118,
      "##ñ": 119,
      "##…": 120,
      "##œ": 121,
      "##ã": 122,
      "##«": 123,
      "##ä": 124,
      "##ü": 125,
      "##ø": 126,
      "##í": 127,
      "##ù": 128,
      "##ò": 129,
      "##º": 130,
      "##ó": 131,
      "##es": 132,
      "##nt": 133,
      "##on": 134,
      "de": 135,
      "##ti": 136,
      "##ent": 137,
      "##ur": 138,
      "##an": 139,
      "##er": 140,
      "##is": 141,
      "##it": 142,
      "la": 143,
      "##re": 144,
      "##ar": 145,
      "##or": 146,
      "##tion": 147,
      "##in": 148,
      "##ro": 149,
      "les": 150,
      "et": 151,
      "##al": 152,
      "##ment": 153,
      "des": 154,
      "le": 155,
      "##en": 156,
      "##ation": 157,
      "##om": 158,
      "en": 159,
      "##te": 160,
      "##ue": 161,
      "##ll": 162,
      "##us": 163,
      "##ri": 164,
      "pro": 165,
      "##ant": 166,
      "##ne": 167,
      "##ch": 168,
      "##ai": 169,
      "##our": 170,
      "##és": 171,
      "##ort": 172,
      "au": 173,
      "du": 174,
      "##port": 175,
      "##li": 176,
      "##ou": 177,
      "##du": 178,
      "##ra": 179,
      "##ons": 180,
      "##res": 181,
      "##ce": 182,
      "##le": 183,
      "produ": 184,
      "##ci": 185,
      "##ont": 186,
      "##au": 187,
      "par": 188,
      "##ie": 189,
      "##its": 190,
      "##ad": 191,
      "##ans": 192,
      "##omm": 193,
      "##st": 194,
      "##de": 195,
      "qu": 196,
      "##as": 197,
      "dé": 198,
      "##que": 199,
      "in": 200,
      "pl": 201,
      "##qu": 202,
      "##ve": 203,
      "pour": 204,
      "##ill": 205,
      "ex": 206,
      "##at": 207,
      "se": 208,
      "produits": 209,
      "can": 210,
      "##urs": 211,
      "##mport": 212,
      "un": 213,
      "##ag": 214,
      "ch": 215,
      "ce": 216,
      "mar": 217,
      "##ale": 218,
      "ét": 219,
      "##me": 220,
      "re": 221,
      "##ab": 222,
      "canad": 223,
      "pr": 224,
      "est": 225,
      "##se": 226,
      "que": 227,
      "dans": 228,
      "##ap": 229,
      "##ée": 230,
      "##ations": 231,
      "plus": 232,
      "##ol": 233,
      "import": 234,
      "##oi": 235,
      "une": 236,
      "sur": 237,
      "##ien": 238,
      "cons": 239,
      "##si": 240,
      "##ul": 241,
      "##ments": 242,
      "##ées": 243,
      "comm": 244,
      "##ff": 245,
      "an": 246,
      "qui": 247,
      "ré": 248,
      "##ais": 249,
      "##lle": 250,
      "##ic": 251,
      "##am": 252,
      "sont": 253,
      "##tre": 254,
      "con": 255,
      "su": 256,
      "march": 257,
      "##aux": 258,
      "##illi": 259,
      "ou": 260,
      "ali": 261,
      "##ure": 262,
      "milli": 263,
      "##pp": 264,
      "##ct": 265,
      "##ers": 266,
      "##ère": 267,
      "##ité": 268,
      "##aires": 269,
      "##pr": 270,
      "di": 271,
      "##ran": 272,
      "##ques": 273,
      "##ine": 274,
      "##cc": 275,
      "##di": 276,
      "##ist": 277,
      "mo": 278,
      "ag": 279,
      "po": 280,
      "##ate": 281,
      "##ins": 282,
      "##ér": 283,
      "ent": 284,
      "##aire": 285,
      "##ric": 286,
      "pa": 287,
      "##iss": 288,
      "##ati": 289,
      "##ir": 290,
      "do": 291,
      "aux": 292,
      "com": 293,
      "canada": 294,
      "##ig": 295,
      "##rie": 296,
      "##ction": 297,
      "##eu": 298,
      "export": 299,
      "##il": 300,
      "##orm": 301,
      "int": 302,
      "##ét": 303,
      "##él": 304,
      "##ion": 305,
      "il": 306,
      "##ance": 307,
      "##ces": 308,
      "marché": 309,
      "##cte": 310,
      "##nes": 311,
      "##ts": 312,
      "ont": 313,
      "##age": 314,
      "##ys": 315,
      "##ég": 316,
      "commer": 317,
      "##ru": 318,
      "##ait": 319,
      "entre": 320,
      "##tt": 321,
      "##est": 322,
      "##tte": 323,
      "##pe": 324,
      "##os": 325,
      "tr": 326,
      "##ants": 327,
      "##ande": 328,
      "millions": 329,
      "pays": 330,
      "##ang": 331,
      "##ww": 332,
      "##og": 333,
      "##ines": 334,
      "so": 335,
      "##ust": 336,
      "##mp": 337,
      "comp": 338,
      "##mi": 339,
      "pas": 340,
      "##ver": 341,
      "##mb": 342,
      "##vent": 343,
      "##ux": 344,
      "##les": 345,
      "canadien": 346,
      "consomm": 347,
      "cont": 348,
      "##ès": 349,
      "##ot": 350,
      "##un": 351,
      "##ds": 352,
      "##ales": 353,
      "##ique": 354,
      "##end": 355,
      "aliment": 356,
      "ann": 357,
      "##lo": 358,
      "##erv": 359,
      "##én": 360,
      "li": 361,
      "##ateurs": 362,
      "##che": 363,
      "##ises": 364,
      "##and": 365,
      "ph": 366,
      "aliments": 367,
      "##form": 368,
      "##ali": 369,
      "##ss": 370,
      "co": 371,
      "te": 372,
      "##tres": 373,
      "ne": 374,
      "##cip": 375,
      "##ac": 376,
      "tou": 377,
      "##mes": 378,
      "##ise": 379,
      "ave": 380,
      "pré": 381,
      "trans": 382,
      "avec": 383,
      "importations": 384,
      "##ésent": 385,
      "rég": 386,
      "ces": 387,
      "##iv": 388,
      "##ult": 389,
      "st": 390,
      "##onom": 391,
      "##tique": 392,
      "av": 393,
      "sa": 394,
      "##erm": 395,
      "peu": 396,
      "parti": 397,
      "is": 398,
      "##cteur": 399,
      "prin": 400,
      "##ré": 401,
      "##ille": 402,
      "##oc": 403,
      "##ars": 404,
      "##ite": 405,
      "##ères": 406,
      "##ing": 407,
      "princip": 408,
      "doll": 409,
      "gran": 410,
      "cro": 411,
      "##tes": 412,
      "##bu": 413,
      "vale": 414,
      "exportations": 415,
      "dollars": 416,
      "pri": 417,
      "##ls": 418,
      "agric": 419,
      "##ge": 420,
      "valeur": 421,
      "##olog": 422,
      "##ois": 423,
      "##dust": 424,
      "##ili": 425,
      "inter": 426,
      "cer": 427,
      "##aient": 428,
      "##lles": 429,
      "rap": 430,
      "##iques": 431,
      "##ong": 432,
      "##ven": 433,
      "tél": 434,
      "##lis": 435,
      "##cu": 436,
      "bi": 437,
      "##ous": 438,
      "##id": 439,
      "on": 440,
      "fa": 441,
      "isra": 442,
      "acc": 443,
      "##tif": 444,
      "commerci": 445,
      "##gment": 446,
      "cette": 447,
      "tra": 448,
      "##par": 449,
      "être": 450,
      "alimentaires": 451,
      "##ats": 452,
      "comme": 453,
      "##et": 454,
      "##onn": 455,
      "éc": 456,
      "##bre": 457,
      "jap": 458,
      "été": 459,
      "vi": 460,
      "##alement": 461,
      "nom": 462,
      "##ies": 463,
      "##nement": 464,
      "lin": 465,
      "app": 466,
      "##ves": 467,
      "##yen": 468,
      "dét": 469,
      "##co": 470,
      "##nation": 471,
      "##pé": 472,
      "##able": 473,
      "lu": 474,
      "cour": 475,
      "##ari": 476,
      "japon": 477,
      "##ren": 478,
      "##rou": 479,
      "##lé": 480,
      "entrepr": 481,
      "##ribu": 482,
      "moyen": 483,
      "bo": 484,
      "##ord": 485,
      "car": 486,
      "si": 487,
      "ob": 488,
      "cad": 489,
      "serv": 490,
      "##alis": 491,
      "croiss": 492,
      "conc": 493,
      "augment": 494,
      "production": 495,
      "nou": 496,
      "or": 497,
      "##ph": 498,
      "##ens": 499,
      "##ouver": 500,
      "dist": 501,
      "commerce": 502,
      "leur": 503,
      "autres": 504,
      "##mé": 505,
      "gén": 506,
      "secteur": 507,
      "##ond": 508,
      "##dustrie": 509,
      "dép": 510,
      "min": 511,
      "tot": 512,
      "##fi": 513,
      "##ités": 514,
      "##chn": 515,
      "res": 516,
      "##aliment": 517,
      "th": 518,
      "##ut": 519,
      "vent": 520,
      "produit": 521,
      "##éc": 522,
      "exp": 523,
      "##min": 524,
      "ter": 525,
      "##ement": 526,
      "##pul": 527,
      "##aï": 528,
      "##ents": 529,
      "##uis": 530,
      "nouve": 531,
      "##ence": 532,
      "##ilipp": 533,
      "croissance": 534,
      "##ace": 535,
      "##im": 536,
      "##ourn": 537,
      "entreprises": 538,
      "for": 539,
      "##des": 540,
      "philipp": 541,
      "fra": 542,
      "##gan": 543,
      "milliar": 544,
      "mon": 545,
      "dem": 546,
      "prix": 547,
      "me": 548,
      "##uelle": 549,
      "consommation": 550,
      "repr": 551,
      "agro": 552,
      "sou": 553,
      "##ème": 554,
      "dev": 555,
      "##ante": 556,
      "##tit": 557,
      "##oir": 558,
      "cor": 559,
      "##ib": 560,
      "popul": 561,
      "##all": 562,
      "##rang": 563,
      "##ulture": 564,
      "##ures": 565,
      "##érie": 566,
      "##lev": 567,
      "économ": 568,
      "##éri": 569,
      "lég": 570,
      "agroaliment": 571,
      "fru": 572,
      "##oo": 573,
      "##ui": 574,
      "chine": 575,
      "représent": 576,
      "mal": 577,
      "nombre": 578,
      "dis": 579,
      "##ub": 580,
      "off": 581,
      "##éd": 582,
      "##tiques": 583,
      "##tilis": 584,
      "##velo": 585,
      "consommateurs": 586,
      "distribu": 587,
      "canadiens": 588,
      "ég": 589,
      "##ttp": 590,
      "fourn": 591,
      "##chés": 592,
      "leurs": 593,
      "##ta": 594,
      "deux": 595,
      "al": 596,
      "pre": 597,
      "son": 598,
      "##ide": 599,
      "##ail": 600,
      "vie": 601,
      "mais": 602,
      "##cti": 603,
      "région": 604,
      "ad": 605,
      "transform": 606,
      "rapport": 607,
      "bien": 608,
      "http": 609,
      "##tions": 610,
      "##ten": 611,
      "ses": 612,
      "##act": 613,
      "##cher": 614,
      "ma": 615,
      "##onnes": 616,
      "demande": 617,
      "##ni": 618,
      "##abit": 619,
      "mati": 620,
      "##velopp": 621,
      "étrang": 622,
      "cent": 623,
      "##ël": 624,
      "internation": 625,
      "da": 626,
      "inc": 627,
      "premi": 628,
      "eff": 629,
      "##chnolog": 630,
      "ar": 631,
      "déc": 632,
      "importés": 633,
      "##tin": 634,
      "##alité": 635,
      "fait": 636,
      "##vir": 637,
      "##www": 638,
      "##ganis": 639,
      "ass": 640,
      "##ussi": 641,
      "fab": 642,
      "##oivent": 643,
      "##sse": 644,
      "viande": 645,
      "##viron": 646,
      "pou": 647,
      "milliards": 648,
      "doivent": 649,
      "rest": 650,
      "##lon": 651,
      "##cteurs": 652,
      "fruits": 653,
      "développ": 654,
      "gouver": 655,
      "##lement": 656,
      "bas": 657,
      "habit": 658,
      "présent": 659,
      "##vis": 660,
      "sup": 661,
      "##gcc": 662,
      "cha": 663,
      "us": 664,
      "be": 665,
      "##rab": 666,
      "##ateur": 667,
      "##era": 668,
      "##rig": 669,
      "##olu": 670,
      "ren": 671,
      "##ions": 672,
      "##sion": 673,
      "dire": 674,
      "##anté": 675,
      "années": 676,
      "##ême": 677,
      "utilis": 678,
      "##issons": 679,
      "pe": 680,
      "ind": 681,
      "marchés": 682,
      "loc": 683,
      "nation": 684,
      "santé": 685,
      "##isse": 686,
      "##nam": 687,
      "canadiennes": 688,
      "##ors": 689,
      "per": 690,
      "certif": 691,
      "population": 692,
      "##unis": 693,
      "génér": 694,
      "ain": 695,
      "dun": 696,
      "selon": 697,
      "httpwww": 698,
      "ainsi": 699,
      "non": 700,
      "##out": 701,
      "rés": 702,
      "##dre": 703,
      "gouvernement": 704,
      "##antes": 705,
      "##ices": 706,
      "amé": 707,
      "www": 708,
      "af": 709,
      "aussi": 710,
      "##um": 711,
      "rel": 712,
      "pass": 713,
      "peut": 714,
      "philippines": 715,
      "##ingap": 716,
      "dont": 717,
      "étab": 718,
      "certa": 719,
      "poi": 720,
      "man": 721,
      "##rent": 722,
      "même": 723,
      "singap": 724,
      "##net": 725,
      "##rait": 726,
      "##tnam": 727,
      "lex": 728,
      "inf": 729,
      "également": 730,
      "vers": 731,
      "lindustrie": 732,
      "certific": 733,
      "##el": 734,
      "##atis": 735,
      "##ote": 736,
      "##ences": 737,
      "and": 738,
      "élev": 739,
      "frais": 740,
      "##ubli": 741,
      "dune": 742,
      "sour": 743,
      "cl": 744,
      "suiv": 745,
      "ventes": 746,
      "chi": 747,
      "singapour": 748,
      "dou": 749,
      "foo": 750,
      "lent": 751,
      "ca": 752,
      "##aine": 753,
      "vietnam": 754,
      "fin": 755,
      "gra": 756,
      "très": 757,
      "gro": 758,
      "environ": 759,
      "jus": 760,
      "diff": 761,
      "##ass": 762,
      "sud": 763,
      "grande": 764,
      "services": 765,
      "##oles": 766,
      "fabric": 767,
      "aff": 768,
      "ils": 769,
      "##ae": 770,
      "sh": 771,
      "##nent": 772,
      "der": 773,
      "toute": 774,
      "israël": 775,
      "es": 776,
      "##op": 777,
      "doit": 778,
      "##aison": 779,
      "##riel": 780,
      "##ustr": 781,
      "##ermar": 782,
      "donn": 783,
      "mes": 784,
      "principaux": 785,
      "of": 786,
      "moins": 787,
      "den": 788,
      "mag": 789,
      "##reg": 790,
      "qualité": 791,
      "##près": 792,
      "partie": 793,
      "minist": 794,
      "tonnes": 795,
      "##aur": 796,
      "moyenne": 797,
      "développement": 798,
      "vis": 799,
      "téléc": 800,
      "augmenté": 801,
      "##ches": 802,
      "inde": 803,
      "états": 804,
      "##titu": 805,
      "##ages": 806,
      "année": 807,
      "dro": 808,
      "act": 809,
      "lé": 810,
      "rec": 811,
      "dep": 812,
      "conn": 813,
      "##dition": 814,
      "##èg": 815,
      "soit": 816,
      "organis": 817,
      "##rit": 818,
      "##oy": 819,
      "prop": 820,
      "disp": 821,
      "##ice": 822,
      "##péci": 823,
      "derni": 824,
      "depuis": 825,
      "dau": 826,
      "sé": 827,
      "##aint": 828,
      "ju": 829,
      "sy": 830,
      "##int": 831,
      "##fs": 832,
      "##oci": 833,
      "##onne": 834,
      "##use": 835,
      "##ours": 836,
      "pers": 837,
      "##lu": 838,
      "proven": 839,
      "aut": 840,
      "boissons": 841,
      "##yp": 842,
      "##orc": 843,
      "##ommes": 844,
      "pâ": 845,
      "##ole": 846,
      "##oup": 847,
      "agricoles": 848,
      "##mportation": 849,
      "##endant": 850,
      "tous": 851,
      "##iste": 852,
      "##iens": 853,
      "courriel": 854,
      "matière": 855,
      "restaur": 856,
      "##tic": 857,
      "##mball": 858,
      "règ": 859,
      "spéci": 860,
      "##vement": 861,
      "chin": 862,
      "##éli": 863,
      "##sib": 864,
      "##vesti": 865,
      "##ient": 866,
      "##fic": 867,
      "##èrement": 868,
      "elle": 869,
      "recher": 870,
      "##igne": 871,
      "agroalimentaires": 872,
      "##iti": 873,
      "exportateurs": 874,
      "ni": 875,
      "peuvent": 876,
      "##gcca": 877,
      "ab": 878,
      "tro": 879,
      "soci": 880,
      "tout": 881,
      "né": 882,
      "publi": 883,
      "avant": 884,
      "ha": 885,
      "prépar": 886,
      "##je": 887,
      "##aut": 888,
      "exig": 889,
      "##cess": 890,
      "taux": 891,
      "##anc": 892,
      "##ard": 893,
      "perm": 894,
      "sit": 895,
      "##mière": 896,
      "particu": 897,
      "##minu": 898,
      "étatsunis": 899,
      "rép": 900,
      "détail": 901,
      "ri": 902,
      "conf": 903,
      "biote": 904,
      "##ustral": 905,
      "##ign": 906,
      "##été": 907,
      "at": 908,
      "##uses": 909,
      "##ress": 910,
      "part": 911,
      "particuli": 912,
      "##ay": 913,
      "##mbre": 914,
      "food": 915,
      "faire": 916,
      "trou": 917,
      "anim": 918,
      "##amille": 919,
      "base": 920,
      "prog": 921,
      "mat": 922,
      "##up": 923,
      "##ables": 924,
      "##ermarchés": 925,
      "point": 926,
      "ministère": 927,
      "vari": 928,
      "rapide": 929,
      "biolog": 930,
      "magas": 931,
      "mer": 932,
      "japonais": 933,
      "concur": 934,
      "##ctiv": 935,
      "bru": 936,
      "dom": 937,
      "##ert": 938,
      "cours": 939,
      "##chnologie": 940,
      "atte": 941,
      "imp": 942,
      "mont": 943,
      "ins": 944,
      "diminu": 945,
      "sous": 946,
      "##orte": 947,
      "marchand": 948,
      "##formation": 949,
      "chaî": 950,
      "cap": 951,
      "##tél": 952,
      "##illes": 953,
      "##lè": 954,
      "##oire": 955,
      "israéli": 956,
      "monde": 957,
      "arab": 958,
      "##éré": 959,
      "dépens": 960,
      "thaï": 961,
      "##xport": 962,
      "##ues": 963,
      "##teurs": 964,
      "no": 965,
      "##umes": 966,
      "##onc": 967,
      "##ange": 968,
      "cat": 969,
      "volu": 970,
      "autre": 971,
      "marque": 972,
      "cas": 973,
      "##ttes": 974,
      "##vestisse": 975,
      "thaïl": 976,
      "norm": 977,
      "év": 978,
      "##ronom": 979,
      "##erie": 980,
      "prof": 981,
      "##uellement": 982,
      "nord": 983,
      "port": 984,
      "att": 985,
      "##aille": 986,
      "##rée": 987,
      "##stronom": 988,
      "situ": 989,
      "raison": 990,
      "##rer": 991,
      "##ente": 992,
      "##ode": 993,
      "##ner": 994,
      "##cep": 995,
      "légumes": 996,
      "distribution": 997,
      "pâtes": 998,
      "reven": 999,
      "volume": 1000,
      "form": 1001,
      "im": 1002,
      "fran": 1003,
      "##mo": 1004,
      "pommes": 1005,
      "##usse": 1006,
      "corp": 1007,
      "##com": 1008,
      "lumière": 1009,
      "##aines": 1010,
      "lag": 1011,
      "permis": 1012,
      "not": 1013,
      "prov": 1014,
      "industrie": 1015,
      "vente": 1016,
      "international": 1017,
      "dautres": 1018,
      "lan": 1019,
      "##ov": 1020,
      "##ca": 1021,
      "##ention": 1022,
      "##repr": 1023,
      "##oration": 1024,
      "pos": 1025,
      "##rence": 1026,
      "nous": 1027,
      "porc": 1028,
      "##ier": 1029,
      "inst": 1030,
      "dali": 1031,
      "grou": 1032,
      "péri": 1033,
      "##jet": 1034,
      "cel": 1035,
      "agroalimentaire": 1036,
      "marchandises": 1037,
      "fai": 1038,
      "afin": 1039,
      "bure": 1040,
      "##sie": 1041,
      "statis": 1042,
      "télé": 1043,
      "habitant": 1044,
      "recherche": 1045,
      "##ry": 1046,
      "##voir": 1047,
      "quant": 1048,
      "syst": 1049,
      "##gré": 1050,
      "##ivers": 1051,
      "##vers": 1052,
      "ans": 1053,
      "service": 1054,
      "##ob": 1055,
      "##raient": 1056,
      "##ître": 1057,
      "##isson": 1058,
      "agricole": 1059,
      "nouvelle": 1060,
      "transformation": 1061,
      "contr": 1062,
      "##part": 1063,
      "chiff": 1064,
      "##ire": 1065,
      "poli": 1066,
      "##étés": 1067,
      "##lisse": 1068,
      "activ": 1069,
      "##ter": 1070,
      "##fé": 1071,
      "était": 1072,
      "coû": 1073,
      "daliments": 1074,
      "##emp": 1075,
      "##fois": 1076,
      "##famille": 1077,
      "déb": 1078,
      "source": 1079,
      "trois": 1080,
      "magasins": 1081,
      "austral": 1082,
      "oc": 1083,
      "sal": 1084,
      "##app": 1085,
      "ac": 1086,
      "hong": 1087,
      "table": 1088,
      "##çon": 1089,
      "##égor": 1090,
      "##ogra": 1091,
      "##vision": 1092,
      "douan": 1093,
      "thaïlande": 1094,
      "devrait": 1095,
      "##att": 1096,
      "consid": 1097,
      "malais": 1098,
      "catégor": 1099,
      "cr": 1100,
      "cin": 1101,
      "tend": 1102,
      "##ici": 1103,
      "peti": 1104,
      "dépenses": 1105,
      "cli": 1106,
      "suc": 1107,
      "rense": 1108,
      "cré": 1109,
      "##one": 1110,
      "##ances": 1111,
      "##eront": 1112,
      "améric": 1113,
      "où": 1114,
      "##td": 1115,
      "économique": 1116,
      "fournisse": 1117,
      "##der": 1118,
      "##vant": 1119,
      "lim": 1120,
      "##core": 1121,
      "après": 1122,
      "##wan": 1123,
      "##osi": 1124,
      "##céd": 1125,
      "##ains": 1126,
      "##iel": 1127,
      "marques": 1128,
      "supermarchés": 1129,
      "##dent": 1130,
      "encore": 1131,
      "##amment": 1132,
      "mondi": 1133,
      "ess": 1134,
      "fon": 1135,
      "##ect": 1136,
      "près": 1137,
      "sau": 1138,
      "sec": 1139,
      "ap": 1140,
      "##aill": 1141,
      "associ": 1142,
      "##ignements": 1143,
      "israélien": 1144,
      "fer": 1145,
      "ltd": 1146,
      "##ht": 1147,
      "exemp": 1148,
      "grand": 1149,
      "##érieur": 1150,
      "bureau": 1151,
      "conten": 1152,
      "agriculture": 1153,
      "relati": 1154,
      "hausse": 1155,
      "normes": 1156,
      "période": 1157,
      "##resse": 1158,
      "##qui": 1159,
      "##alisation": 1160,
      "renseignements": 1161,
      "blé": 1162,
      "sans": 1163,
      "##té": 1164,
      "##ser": 1165,
      "##df": 1166,
      "enreg": 1167,
      "sub": 1168,
      "appro": 1169,
      "biologiques": 1170,
      "astronom": 1171,
      "occ": 1172,
      "vend": 1173,
      "##fique": 1174,
      "##vre": 1175,
      "##ilité": 1176,
      "perme": 1177,
      "investisse": 1178,
      "important": 1179,
      "alors": 1180,
      "cinq": 1181,
      "contin": 1182,
      "total": 1183,
      "animaux": 1184,
      "faib": 1185,
      "dor": 1186,
      "kong": 1187,
      "len": 1188,
      "droits": 1189,
      "##itaire": 1190,
      "##pection": 1191,
      "internet": 1192,
      "national": 1193,
      "din": 1194,
      "##uel": 1195,
      "##ieurs": 1196,
      "indi": 1197,
      "compte": 1198,
      "temp": 1199,
      "##ture": 1200,
      "##arant": 1201,
      "quel": 1202,
      "possib": 1203,
      "débou": 1204,
      "##ograph": 1205,
      "malaisie": 1206,
      "##ième": 1207,
      "##mar": 1208,
      "##ôle": 1209,
      "##quer": 1210,
      "alimentaire": 1211,
      "transport": 1212,
      "obten": 1213,
      "esti": 1214,
      "chinois": 1215,
      "exigences": 1216,
      "orig": 1217,
      "##ain": 1218,
      "##agn": 1219,
      "forte": 1220,
      "eur": 1221,
      "elles": 1222,
      "vég": 1223,
      "##onés": 1224,
      "nécess": 1225,
      "pib": 1226,
      "##istre": 1227,
      "##rom": 1228,
      "##ruct": 1229,
      "toutefois": 1230,
      "emball": 1231,
      "##ature": 1232,
      "principales": 1233,
      "économie": 1234,
      "provenance": 1235,
      "am": 1236,
      "##tent": 1237,
      "plu": 1238,
      "plusieurs": 1239,
      "million": 1240,
      "régions": 1241,
      "certains": 1242,
      "végét": 1243,
      "ach": 1244,
      "bon": 1245,
      "docu": 1246,
      "trav": 1247,
      "terres": 1248,
      "beau": 1249,
      "##coup": 1250,
      "##entes": 1251,
      "conge": 1252,
      "##riculture": 1253,
      "canadienne": 1254,
      "toutes": 1255,
      "commerciaux": 1256,
      "hal": 1257,
      "lors": 1258,
      "destin": 1259,
      "débouchés": 1260,
      "long": 1261,
      "pes": 1262,
      "étique": 1263,
      "rep": 1264,
      "exportation": 1265,
      "##mble": 1266,
      "lad": 1267,
      "che": 1268,
      "données": 1269,
      "dernières": 1270,
      "bou": 1271,
      "he": 1272,
      "##arm": 1273,
      "plan": 1274,
      "rédu": 1275,
      "transformés": 1276,
      "aj": 1277,
      "##be": 1278,
      "##……": 1279,
      "##urer": 1280,
      "##ites": 1281,
      "indust": 1282,
      "##reprise": 1283,
      "##istan": 1284,
      "##minist": 1285,
      "établi": 1286,
      "certificat": 1287,
      "riz": 1288,
      "beaucoup": 1289,
      "fi": 1290,
      "##rés": 1291,
      "##ia": 1292,
      "##let": 1293,
      "##ansion": 1294,
      "représente": 1295,
      "cou": 1296,
      "lét": 1297,
      "##teur": 1298,
      "##ram": 1299,
      "étant": 1300,
      "premier": 1301,
      "affaires": 1302,
      "système": 1303,
      "hu": 1304,
      "##ration": 1305,
      "étrangers": 1306,
      "public": 1307,
      "mis": 1308,
      "deme": 1309,
      "seu": 1310,
      "général": 1311,
      "##ade": 1312,
      "tableau": 1313,
      "pres": 1314,
      "##he": 1315,
      "univers": 1316,
      "poisson": 1317,
      "##alisé": 1318,
      "terre": 1319,
      "centre": 1320,
      "biotechnologie": 1321,
      "bl": 1322,
      "maint": 1323,
      "##xe": 1324,
      "dent": 1325,
      "lait": 1326,
      "##aefamille": 1327,
      "revenu": 1328,
      "##ak": 1329,
      "##éra": 1330,
      "##urité": 1331,
      "##oris": 1332,
      "##ades": 1333,
      "dimportation": 1334,
      "##ditionne": 1335,
      "halal": 1336,
      "dés": 1337,
      "méd": 1338,
      "information": 1339,
      "ceux": 1340,
      "modi": 1341,
      "commercial": 1342,
      "##uile": 1343,
      "##quipe": 1344,
      "plupart": 1345,
      "fam": 1346,
      "étoi": 1347,
      "règle": 1348,
      "provin": 1349,
      "activités": 1350,
      "rou": 1351,
      "##alu": 1352,
      "prob": 1353,
      "réf": 1354,
      "compren": 1355,
      "étrangères": 1356,
      "ache": 1357,
      "fond": 1358,
      "lun": 1359,
      "##ière": 1360,
      "##tifs": 1361,
      "totale": 1362,
      "nature": 1363,
      "we": 1364,
      "étaient": 1365,
      "##ération": 1366,
      "##loit": 1367,
      "phy": 1368,
      "program": 1369,
      "enregist": 1370,
      "mét": 1371,
      "nu": 1372,
      "##ore": 1373,
      "##pendant": 1374,
      "réc": 1375,
      "annuelle": 1376,
      "##étique": 1377,
      "##ront": 1378,
      "##rats": 1379,
      "étu": 1380,
      "const": 1381,
      "tels": 1382,
      "établisse": 1383,
      "gr": 1384,
      "##ose": 1385,
      "##av": 1386,
      "##estion": 1387,
      "##arg": 1388,
      "##enir": 1389,
      "##rique": 1390,
      "##angh": 1391,
      "##eries": 1392,
      "prê": 1393,
      "##ulti": 1394,
      "concer": 1395,
      "certification": 1396,
      "actuellement": 1397,
      "restaurants": 1398,
      "éch": 1399,
      "##if": 1400,
      "##lect": 1401,
      "cependant": 1402,
      "prés": 1403,
      "importé": 1404,
      "##ica": 1405,
      "condi": 1406,
      "##pect": 1407,
      "indonés": 1408,
      "lab": 1409,
      "ext": 1410,
      "conse": 1411,
      "contact": 1412,
      "grands": 1413,
      "améli": 1414,
      "lagriculture": 1415,
      "australie": 1416,
      "taï": 1417,
      "##ôte": 1418,
      "mesure": 1419,
      "fournisseurs": 1420,
      "taïwan": 1421,
      "bes": 1422,
      "col": 1423,
      "loi": 1424,
      "ép": 1425,
      "##th": 1426,
      "##asse": 1427,
      "##atique": 1428,
      "matières": 1429,
      "céré": 1430,
      "gam": 1431,
      "##rées": 1432,
      "##mis": 1433,
      "principalement": 1434,
      "fois": 1435,
      "ur": 1436,
      "##oû": 1437,
      "##serv": 1438,
      "techn": 1439,
      "forme": 1440,
      "chaque": 1441,
      "rapidement": 1442,
      "diminué": 1443,
      "pra": 1444,
      "vol": 1445,
      "##orité": 1446,
      "##rob": 1447,
      "quil": 1448,
      "compos": 1449,
      "##fication": 1450,
      "exemple": 1451,
      "##aci": 1452,
      "##sour": 1453,
      "##lée": 1454,
      "##zél": 1455,
      "dex": 1456,
      "##tien": 1457,
      "##rat": 1458,
      "##aiss": 1459,
      "priv": 1460,
      "nationale": 1461,
      "shangh": 1462,
      "chaînes": 1463,
      "notamment": 1464,
      "emp": 1465,
      "site": 1466,
      "##pons": 1467,
      "divers": 1468,
      "##istes": 1469,
      "locaux": 1470,
      "fonction": 1471,
      "pren": 1472,
      "sci": 1473,
      "émi": 1474,
      "##oin": 1475,
      "##équ": 1476,
      "grandes": 1477,
      "commerciales": 1478,
      "décl": 1479,
      "celui": 1480,
      "##htm": 1481,
      "##oe": 1482,
      "##yant": 1483,
      "##ément": 1484,
      "##çu": 1485,
      "place": 1486,
      "conform": 1487,
      "##uni": 1488,
      "prév": 1489,
      "the": 1490,
      "liste": 1491,
      "##cent": 1492,
      "##az": 1493,
      "##han": 1494,
      "lar": 1495,
      "##lic": 1496,
      "##agne": 1497,
      "importation": 1498,
      "limportation": 1499,
      "##ermin": 1500,
      "caract": 1501,
      "fabricants": 1502,
      "arabes": 1503,
      "euro": 1504,
      "bu": 1505,
      "##lés": 1506,
      "##ernet": 1507,
      "mois": 1508,
      "sources": 1509,
      "##istrement": 1510,
      "dur": 1511,
      "nest": 1512,
      "##ype": 1513,
      "##semble": 1514,
      "élevé": 1515,
      "all": 1516,
      "asie": 1517,
      "dh": 1518,
      "##ène": 1519,
      "déli": 1520,
      "importateurs": 1521,
      "##ienne": 1522,
      "respons": 1523,
      "nouveaux": 1524,
      "mesures": 1525,
      "posi": 1526,
      "corporation": 1527,
      "temps": 1528,
      "lie": 1529,
      "mise": 1530,
      "##itre": 1531,
      "producteurs": 1532,
      "coll": 1533,
      "##acité": 1534,
      "avoir": 1535,
      "souvent": 1536,
      "jusqu": 1537,
      "nive": 1538,
      "émirats": 1539,
      "cuis": 1540,
      "unis": 1541,
      "israel": 1542,
      "commerciale": 1543,
      "différ": 1544,
      "nég": 1545,
      "lapp": 1546,
      "##org": 1547,
      "fav": 1548,
      "concurrence": 1549,
      "industri": 1550,
      "règlements": 1551,
      "##ja": 1552,
      "##onib": 1553,
      "promo": 1554,
      "##cool": 1555,
      "augmentation": 1556,
      "pesos": 1557,
      "dapp": 1558,
      "pendant": 1559,
      "type": 1560,
      "##éress": 1561,
      "##iter": 1562,
      "##air": 1563,
      "parten": 1564,
      "##aisse": 1565,
      "relations": 1566,
      "atteint": 1567,
      "asi": 1568,
      "font": 1569,
      "##are": 1570,
      "##las": 1571,
      "##enant": 1572,
      "déj": 1573,
      "constitu": 1574,
      "poulet": 1575,
      "disponib": 1576,
      "amélior": 1577,
      "lor": 1578,
      "tour": 1579,
      "##uer": 1580,
      "##ôt": 1581,
      "##rodu": 1582,
      "dél": 1583,
      "façon": 1584,
      "##cop": 1585,
      "fabrication": 1586,
      "seulement": 1587,
      "céréales": 1588,
      "ver": 1589,
      "parmi": 1590,
      "ingré": 1591,
      "cher": 1592,
      "ret": 1593,
      "##amp": 1594,
      "compar": 1595,
      "ajout": 1596,
      "établissements": 1597,
      "ingrédi": 1598,
      "ayant": 1599,
      "dar": 1600,
      "iran": 1601,
      "##tout": 1602,
      "##mment": 1603,
      "##édi": 1604,
      "##lig": 1605,
      "importante": 1606,
      "surtout": 1607,
      "save": 1608,
      "devraient": 1609,
      "organismes": 1610,
      "##zélande": 1611,
      "promotion": 1612,
      "aci": 1613,
      "gl": 1614,
      "kil": 1615,
      "met": 1616,
      "sera": 1617,
      "##ok": 1618,
      "##tage": 1619,
      "##jours": 1620,
      "prote": 1621,
      "auprès": 1622,
      "##oix": 1623,
      "réglement": 1624,
      "observ": 1625,
      "lentreprise": 1626,
      "sociétés": 1627,
      "nouvellezélande": 1628,
      "américains": 1629,
      "web": 1630,
      "shanghai": 1631,
      "cest": 1632,
      "it": 1633,
      "vous": 1634,
      "laiti": 1635,
      "##usines": 1636,
      "secteurs": 1637,
      "toujours": 1638,
      "linde": 1639,
      "##fici": 1640,
      "nombreux": 1641,
      "deuxième": 1642,
      "effect": 1643,
      "directe": 1644,
      "certaines": 1645,
      "origine": 1646,
      "##ructure": 1647,
      "donc": 1648,
      "puis": 1649,
      "##fa": 1650,
      "##uss": 1651,
      "##llement": 1652,
      "accro": 1653,
      "passant": 1654,
      "##cri": 1655,
      "##aw": 1656,
      "##ann": 1657,
      "##rast": 1658,
      "sem": 1659,
      "celle": 1660,
      "celles": 1661,
      "limport": 1662,
      "commercialisation": 1663,
      "##issement": 1664,
      "grosse": 1665,
      "##osition": 1666,
      "faible": 1667,
      "##usiness": 1668,
      "fig": 1669,
      "jour": 1670,
      "##ity": 1671,
      "##aie": 1672,
      "##andes": 1673,
      "gros": 1674,
      "personne": 1675,
      "équipe": 1676,
      "##orme": 1677,
      "##liment": 1678,
      "déf": 1679,
      "##abilité": 1680,
      "##iles": 1681,
      "##ario": 1682,
      "totalisé": 1683,
      "expansion": 1684,
      "##jets": 1685,
      "catégorie": 1686,
      "protection": 1687,
      "ser": 1688,
      "##rir": 1689,
      "##cident": 1690,
      "faci": 1691,
      "accord": 1692,
      "traditionne": 1693,
      "confis": 1694,
      "chaîne": 1695,
      "ban": 1696,
      "far": 1697,
      "vin": 1698,
      "##être": 1699,
      "lacc": 1700,
      "laliment": 1701,
      "##oud": 1702,
      "##omme": 1703,
      "choc": 1704,
      "importants": 1705,
      "moder": 1706,
      "soja": 1707,
      "principal": 1708,
      "offre": 1709,
      "maj": 1710,
      "première": 1711,
      "##registrement": 1712,
      "société": 1713,
      "groupe": 1714,
      "modifi": 1715,
      "bang": 1716,
      "faut": 1717,
      "ici": 1718,
      "##nés": 1719,
      "##indre": 1720,
      "quarant": 1721,
      "##igine": 1722,
      "##pecti": 1723,
      "lib": 1724,
      "représentent": 1725,
      "brune": 1726,
      "conditions": 1727,
      "gamme": 1728,
      "op": 1729,
      "tari": 1730,
      "élect": 1731,
      "##raël": 1732,
      "détaill": 1733,
      "légèrement": 1734,
      "contrôle": 1735,
      "mondiale": 1736,
      "eau": 1737,
      "jours": 1738,
      "mén": 1739,
      "vo": 1740,
      "##né": 1741,
      "quat": 1742,
      "##ase": 1743,
      "##euf": 1744,
      "##eux": 1745,
      "##ilités": 1746,
      "pharm": 1747,
      "préc": 1748,
      "milliard": 1749,
      "lexp": 1750,
      "café": 1751,
      "personnes": 1752,
      "##oût": 1753,
      "na": 1754,
      "##ow": 1755,
      "##ttre": 1756,
      "##da": 1757,
      "##êt": 1758,
      "importées": 1759,
      "##iennent": 1760,
      "paci": 1761,
      "ontario": 1762,
      "accès": 1763,
      "détermin": 1764,
      "distributeurs": 1765,
      "poudre": 1766,
      "directeur": 1767,
      "image": 1768,
      "politique": 1769,
      "essent": 1770,
      "indonésie": 1771,
      "##née": 1772,
      "##uf": 1773,
      "##onde": 1774,
      "succ": 1775,
      "intéress": 1776,
      "annuel": 1777,
      "coop": 1778,
      "nouveau": 1779,
      "meille": 1780,
      "généralement": 1781,
      "group": 1782,
      "ingrédients": 1783,
      "brunei": 1784,
      "lh": 1785,
      "##sp": 1786,
      "##gra": 1787,
      "##ma": 1788,
      "##ke": 1789,
      "##ètres": 1790,
      "##til": 1791,
      "létique": 1792,
      "##ception": 1793,
      "aper": 1794,
      "volaille": 1795,
      "chocol": 1796,
      "ra": 1797,
      "##su": 1798,
      "##oient": 1799,
      "conserv": 1800,
      "##loy": 1801,
      "lint": 1802,
      "##chelle": 1803,
      "entreprise": 1804,
      "alcool": 1805,
      "situation": 1806,
      "médica": 1807,
      "réfrig": 1808,
      "mention": 1809,
      "ten": 1810,
      "tand": 1811,
      "##ck": 1812,
      "##dit": 1813,
      "##rop": 1814,
      "##issent": 1815,
      "##ils": 1816,
      "artic": 1817,
      "particulièrement": 1818,
      "matérie": 1819,
      "tandis": 1820,
      "bonne": 1821,
      "cu": 1822,
      "culture": 1823,
      "jan": 1824,
      "##ît": 1825,
      "##itaires": 1826,
      "##atoire": 1827,
      "##agr": 1828,
      "reg": 1829,
      "supé": 1830,
      "saoud": 1831,
      "carte": 1832,
      "étranger": 1833,
      "lexport": 1834,
      "esp": 1835,
      "évalu": 1836,
      "aperçu": 1837,
      "nut": 1838,
      "tar": 1839,
      "##od": 1840,
      "##omb": 1841,
      "##ché": 1842,
      "plantes": 1843,
      "technolog": 1844,
      "reste": 1845,
      "quantité": 1846,
      "sucre": 1847,
      "##vantage": 1848,
      "supérie": 1849,
      "##pond": 1850,
      "##gov": 1851,
      "##urent": 1852,
      "##erve": 1853,
      "##inspection": 1854,
      "##venir": 1855,
      "appar": 1856,
      "élevés": 1857,
      "restauration": 1858,
      "occident": 1859,
      "estim": 1860,
      "tunis": 1861,
      "##vier": 1862,
      "##man": 1863,
      "##mae": 1864,
      "##inf": 1865,
      "sep": 1866,
      "##cuits": 1867,
      "concent": 1868,
      "corée": 1869,
      "daff": 1870,
      "super": 1871,
      "conna": 1872,
      "répond": 1873,
      "install": 1874,
      "occup": 1875,
      "##maeci": 1876,
      "haut": 1877,
      "jeu": 1878,
      "sen": 1879,
      "##ête": 1880,
      "procéd": 1881,
      "inr": 1882,
      "état": 1883,
      "conséqu": 1884,
      "ang": 1885,
      "poss": 1886,
      "résult": 1887,
      "provenant": 1888,
      "repas": 1889,
      "urb": 1890,
      "##robation": 1891,
      "##oexport": 1892,
      "##crip": 1893,
      "ven": 1894,
      "viv": 1895,
      "##kistan": 1896,
      "##anne": 1897,
      "##ind": 1898,
      "##amb": 1899,
      "outre": 1900,
      "strat": 1901,
      "lui": 1902,
      "exploit": 1903,
      "##aceu": 1904,
      "capit": 1905,
      "capacité": 1906,
      "documents": 1907,
      "maintenant": 1908,
      "prêts": 1909,
      "sp": 1910,
      "én": 1911,
      "##eur": 1912,
      "##pos": 1913,
      "##esti": 1914,
      "##anci": 1915,
      "##change": 1916,
      "##lique": 1917,
      "##leurs": 1918,
      "##oires": 1919,
      "anal": 1920,
      "##aitmaeci": 1921,
      "##anges": 1922,
      "alimentation": 1923,
      "libre": 1924,
      "##lément": 1925,
      "petit": 1926,
      "déclar": 1927,
      "déliv": 1928,
      "lieu": 1929,
      "janvier": 1930,
      "nutri": 1931,
      "stratég": 1932,
      "roy": 1933,
      "sign": 1934,
      "tir": 1935,
      "##èrent": 1936,
      "lac": 1937,
      "##orts": 1938,
      "expé": 1939,
      "##cts": 1940,
      "##eufs": 1941,
      "nouvelles": 1942,
      "rése": 1943,
      "graines": 1944,
      "coûts": 1945,
      "crème": 1946,
      "association": 1947,
      "achats": 1948,
      "étoiles": 1949,
      "directement": 1950,
      "quarantaine": 1951,
      "médicaments": 1952,
      "nd": 1953,
      "san": 1954,
      "vit": 1955,
      "##lang": 1956,
      "##nca": 1957,
      "##respond": 1958,
      "##cell": 1959,
      "##ules": 1960,
      "poissons": 1961,
      "compr": 1962,
      "##égu": 1963,
      "##mbres": 1964,
      "phot": 1965,
      "correspond": 1966,
      "trouver": 1967,
      "points": 1968,
      "dorigine": 1969,
      "matériel": 1970,
      "bis": 1971,
      "fe": 1972,
      "pén": 1973,
      "##lus": 1974,
      "##lades": 1975,
      "##enne": 1976,
      "prom": 1977,
      "##ourd": 1978,
      "requ": 1979,
      "##ctions": 1980,
      "membres": 1981,
      "financi": 1982,
      "obtenir": 1983,
      "présence": 1984,
      "niveau": 1985,
      "saveur": 1986,
      "limportateur": 1987,
      "sol": 1988,
      "tant": 1989,
      "##ah": 1990,
      "##ones": 1991,
      "process": 1992,
      "contre": 1993,
      "technologie": 1994,
      "##aliser": 1995,
      "##phone": 1996,
      "petits": 1997,
      "possibilités": 1998,
      "mus": 1999,
      "rang": 2000,
      "##mmes": 2001,
      "##âce": 2002,
      "dexport": 2003,
      "##tive": 2004,
      "importateur": 2005,
      "##ffis": 2006,
      "pakistan": 2007,
      "ressour": 2008,
      "premières": 2009,
      "utilisation": 2010,
      "passé": 2011,
      "##mballage": 2012,
      "quelques": 2013,
      "emballés": 2014,
      "grâce": 2015,
      "europé": 2016,
      "daffaires": 2017,
      "baisse": 2018,
      "gé": 2019,
      "pi": 2020,
      "sti": 2021,
      "agri": 2022,
      "##osh": 2023,
      "##mbass": 2024,
      "partir": 2025,
      "six": 2026,
      "distributeur": 2027,
      "égyp": 2028,
      "davantage": 2029,
      "programme": 2030,
      "##copie": 2031,
      "##awa": 2032,
      "quatre": 2033,
      "bét": 2034,
      "date": 2035,
      "men": 2036,
      "mang": 2037,
      "sest": 2038,
      "taille": 2039,
      "vue": 2040,
      "##cour": 2041,
      "##ron": 2042,
      "##reve": 2043,
      "##aig": 2044,
      "territ": 2045,
      "sudest": 2046,
      "connu": 2047,
      "règles": 2048,
      "##visionnement": 2049,
      "##ministration": 2050,
      "##rastructure": 2051,
      "lalimentation": 2052,
      "ménages": 2053,
      "bétail": 2054,
      "tm": 2055,
      "del": 2056,
      "##tis": 2057,
      "##isées": 2058,
      "##ueur": 2059,
      "##qué": 2060,
      "##quent": 2061,
      "supp": 2062,
      "particip": 2063,
      "cadre": 2064,
      "génétique": 2065,
      "##fier": 2066,
      "gross": 2067,
      "recomm": 2068,
      "propri": 2069,
      "domin": 2070,
      "catégories": 2071,
      "essentie": 2072,
      "chocolat": 2073,
      "gaz": 2074,
      "multi": 2075,
      "va": 2076,
      "vert": 2077,
      "él": 2078,
      "##cont": 2079,
      "##ao": 2080,
      "##vi": 2081,
      "etc": 2082,
      "importance": 2083,
      "##ttawa": 2084,
      "##ides": 2085,
      "traite": 2086,
      "##national": 2087,
      "lune": 2088,
      "dépanne": 2089,
      "##olution": 2090,
      "afg": 2091,
      "majorité": 2092,
      "cal": 2093,
      "har": 2094,
      "rais": 2095,
      "##oit": 2096,
      "##lant": 2097,
      "##cembre": 2098,
      "##cemment": 2099,
      "cet": 2100,
      "récemment": 2101,
      "dimport": 2102,
      "tex": 2103,
      "box": 2104,
      "philippins": 2105,
      "habitants": 2106,
      "douane": 2107,
      "tendance": 2108,
      "investissements": 2109,
      "pharmaceu": 2110,
      "ressources": 2111,
      "aur": 2112,
      "seront": 2113,
      "##ler": 2114,
      "##po": 2115,
      "débu": 2116,
      "##iennes": 2117,
      "##ulaire": 2118,
      "comité": 2119,
      "fax": 2120,
      "fraî": 2121,
      "actuelle": 2122,
      "congelés": 2123,
      "industries": 2124,
      "installations": 2125,
      "dan": 2126,
      "séc": 2127,
      "ta": 2128,
      "élè": 2129,
      "##érab": 2130,
      "##ala": 2131,
      "dess": 2132,
      "##enc": 2133,
      "##eng": 2134,
      "unique": 2135,
      "interv": 2136,
      "##pec": 2137,
      "new": 2138,
      "téles": 2139,
      "augmenter": 2140,
      "##aceaefamille": 2141,
      "biotechnolog": 2142,
      "astronomes": 2143,
      "famili": 2144,
      "réglementation": 2145,
      "laitiers": 2146,
      "ant": 2147,
      "arom": 2148,
      "gri": 2149,
      "log": 2150,
      "##rès": 2151,
      "##bles": 2152,
      "##ieux": 2153,
      "##ativement": 2154,
      "##ultures": 2155,
      "économiques": 2156,
      "##titude": 2157,
      "trouve": 2158,
      "télécopie": 2159,
      "politiques": 2160,
      "continu": 2161,
      "compris": 2162,
      "télécopieur": 2163,
      "jo": 2164,
      "##xim": 2165,
      "##jourd": 2166,
      "##ural": 2167,
      "##ernational": 2168,
      "enf": 2169,
      "conserve": 2170,
      "commun": 2171,
      "mod": 2172,
      "##ock": 2173,
      "trade": 2174,
      "fournir": 2175,
      "suivants": 2176,
      "préparés": 2177,
      "importe": 2178,
      "inspection": 2179,
      "##nerg": 2180,
      "instru": 2181,
      "##attage": 2182,
      "ferme": 2183,
      "étiquettes": 2184,
      "processus": 2185,
      "dab": 2186,
      "gestion": 2187,
      "lic": 2188,
      "ris": 2189,
      "rue": 2190,
      "typ": 2191,
      "ville": 2192,
      "##conom": 2193,
      "##ee": 2194,
      "##nant": 2195,
      "##iers": 2196,
      "##ule": 2197,
      "décembre": 2198,
      "pourrait": 2199,
      "remp": 2200,
      "consult": 2201,
      "ouver": 2202,
      "compt": 2203,
      "contribu": 2204,
      "##illet": 2205,
      "facteurs": 2206,
      "accor": 2207,
      "terme": 2208,
      "malgré": 2209,
      "renf": 2210,
      "donné": 2211,
      "atlas": 2212,
      "variétés": 2213,
      "domaine": 2214,
      "atteindre": 2215,
      "lannée": 2216,
      "cela": 2217,
      "statistiques": 2218,
      "considérab": 2219,
      "secs": 2220,
      "boulang": 2221,
      "presque": 2222,
      "##lication": 2223,
      "déjà": 2224,
      "##mbassade": 2225,
      "er": 2226,
      "hyp": 2227,
      "huile": 2228,
      "soient": 2229,
      "##paci": 2230,
      "##isation": 2231,
      "##amen": 2232,
      "agent": 2233,
      "adresse": 2234,
      "direct": 2235,
      "poids": 2236,
      "chino": 2237,
      "permett": 2238,
      "contacts": 2239,
      "dépanneurs": 2240,
      "sécurité": 2241,
      "couver": 2242,
      "##ards": 2243,
      "##omp": 2244,
      "##teuse": 2245,
      "dém": 2246,
      "section": 2247,
      "importer": 2248,
      "moment": 2249,
      "boeuf": 2250,
      "disraël": 2251,
      "centr": 2252,
      "efforts": 2253,
      "autoris": 2254,
      "nécessaire": 2255,
      "conformément": 2256,
      "accroître": 2257,
      "saoudite": 2258,
      "tunisie": 2259,
      "##infoexport": 2260,
      "biscuits": 2261,
      "dexportation": 2262,
      "cultures": 2263,
      "oct": 2264,
      "ro": 2265,
      "##ach": 2266,
      "##fe": 2267,
      "##èmes": 2268,
      "##ession": 2269,
      "leau": 2270,
      "aujourd": 2271,
      "char": 2272,
      "change": 2273,
      "quils": 2274,
      "rév": 2275,
      "diver": 2276,
      "##ineuses": 2277,
      "##endre": 2278,
      "##onnance": 2279,
      "organ": 2280,
      "totales": 2281,
      "centres": 2282,
      "effet": 2283,
      "particulier": 2284,
      "chiffre": 2285,
      "végétaux": 2286,
      "document": 2287,
      "phyt": 2288,
      "délégu": 2289,
      "détaillants": 2290,
      "musul": 2291,
      "##pacifique": 2292,
      "hau": 2293,
      "##xes": 2294,
      "##éan": 2295,
      "##istique": 2296,
      "lau": 2297,
      "##raî": 2298,
      "initi": 2299,
      "##érés": 2300,
      "malad": 2301,
      "fabricant": 2302,
      "##dfaitmaeci": 2303,
      "destinés": 2304,
      "##…………": 2305,
      "études": 2306,
      "coopération": 2307,
      "possè": 2308,
      "fl": 2309,
      "fré": 2310,
      "pê": 2311,
      "vra": 2312,
      "vig": 2313,
      "##rant": 2314,
      "##ed": 2315,
      "##foo": 2316,
      "##anche": 2317,
      "##quante": 2318,
      "##vembre": 2319,
      "comesti": 2320,
      "intérieur": 2321,
      "##léments": 2322,
      "ord": 2323,
      "##érieure": 2324,
      "alg": 2325,
      "internationaux": 2326,
      "internationales": 2327,
      "foods": 2328,
      "clients": 2329,
      "physi": 2330,
      "répondre": 2331,
      "##posage": 2332,
      "##ladesh": 2333,
      "business": 2334,
      "fr": 2335,
      "fé": 2336,
      "ray": 2337,
      "ve": 2338,
      "##vri": 2339,
      "desser": 2340,
      "##nels": 2341,
      "plut": 2342,
      "##qués": 2343,
      "seul": 2344,
      "##érer": 2345,
      "##érêt": 2346,
      "##cune": 2347,
      "arri": 2348,
      "beur": 2349,
      "local": 2350,
      "téléphone": 2351,
      "bangladesh": 2352,
      "technologies": 2353,
      "bar": 2354,
      "gen": 2355,
      "jam": 2356,
      "lois": 2357,
      "pét": 2358,
      "villes": 2359,
      "##lais": 2360,
      "##enti": 2361,
      "##osan": 2362,
      "net": 2363,
      "offer": 2364,
      "internationale": 2365,
      "fabri": 2366,
      "locale": 2367,
      "diffici": 2368,
      "dens": 2369,
      "##ainternet": 2370,
      "franch": 2371,
      "##éraux": 2372,
      "méth": 2373,
      "numé": 2374,
      "prendre": 2375,
      "responsable": 2376,
      "lexportation": 2377,
      "afghan": 2378,
      "types": 2379,
      "beurre": 2380,
      "bil": 2381,
      "côte": 2382,
      "kg": 2383,
      "##hi": 2384,
      "##tient": 2385,
      "##ative": 2386,
      "tel": 2387,
      "##rouv": 2388,
      "##aïs": 2389,
      "offrent": 2390,
      "fourni": 2391,
      "suivantes": 2392,
      "denregistrement": 2393,
      "novembre": 2394,
      "##cept": 2395,
      "investissement": 2396,
      "techniques": 2397,
      "ital": 2398,
      "alcoolisées": 2399,
      "tartin": 2400,
      "plutôt": 2401,
      "ciel": 2402,
      "fort": 2403,
      "fins": 2404,
      "ir": 2405,
      "lit": 2406,
      "mi": 2407,
      "mél": 2408,
      "nour": 2409,
      "##oins": 2410,
      "##land": 2411,
      "##mc": 2412,
      "##tement": 2413,
      "projets": 2414,
      "qué": 2415,
      "##sions": 2416,
      "##issant": 2417,
      "préf": 2418,
      "##tenir": 2419,
      "premiers": 2420,
      "classe": 2421,
      "##ritann": 2422,
      "institu": 2423,
      "profit": 2424,
      "france": 2425,
      "statistique": 2426,
      "coût": 2427,
      "tendances": 2428,
      "petites": 2429,
      "besoins": 2430,
      "cuisine": 2431,
      "améliorer": 2432,
      "boulangerie": 2433,
      "diversi": 2434,
      "phytosan": 2435,
      "as": 2436,
      "maïs": 2437,
      "noix": 2438,
      "##yse": 2439,
      "desti": 2440,
      "ensemble": 2441,
      "##nements": 2442,
      "pourraient": 2443,
      "existe": 2444,
      "chair": 2445,
      "suite": 2446,
      "ouest": 2447,
      "introdu": 2448,
      "biens": 2449,
      "pouvoir": 2450,
      "chimi": 2451,
      "juteuse": 2452,
      "##tics": 2453,
      "attribu": 2454,
      "revenus": 2455,
      "océan": 2456,
      "##ositions": 2457,
      "ladresse": 2458,
      "##bec": 2459,
      "enregistré": 2460,
      "caractér": 2461,
      "##grais": 2462,
      "recommand": 2463,
      "pétro": 2464,
      "bén": 2465,
      "coup": 2466,
      "ligne": 2467,
      "mic": 2468,
      "voir": 2469,
      "##ket": 2470,
      "##orités": 2471,
      "##chat": 2472,
      "##aume": 2473,
      "parce": 2474,
      "##assi": 2475,
      "rev": 2476,
      "##ola": 2477,
      "##ariat": 2478,
      "simp": 2479,
      "locales": 2480,
      "générale": 2481,
      "maturité": 2482,
      "##icie": 2483,
      "lorsque": 2484,
      "chez": 2485,
      "large": 2486,
      "ajoutée": 2487,
      "résultats": 2488,
      "vitam": 2489,
      "desserts": 2490,
      "hôte": 2491,
      "jou": 2492,
      "mm": 2493,
      "voy": 2494,
      "##occ": 2495,
      "##dé": 2496,
      "##dou": 2497,
      "##hn": 2498,
      "##arch": 2499,
      "##enants": 2500,
      "eng": 2501,
      "##stac": 2502,
      "##aste": 2503,
      "inform": 2504,
      "##iller": 2505,
      "importantes": 2506,
      "consac": 2507,
      "##llem": 2508,
      "complè": 2509,
      "croquante": 2510,
      "viandes": 2511,
      "thé": 2512,
      "##levage": 2513,
      "##tilisation": 2514,
      "##visions": 2515,
      "visant": 2516,
      "juin": 2517,
      "juillet": 2518,
      "relativement": 2519,
      "huiles": 2520,
      "demeure": 2521,
      "##argé": 2522,
      "mettre": 2523,
      "##ficie": 2524,
      "article": 2525,
      "royaume": 2526,
      "québec": 2527,
      "destination": 2528,
      "gu": 2529,
      "garant": 2530,
      "je": 2531,
      "mai": 2532,
      "##ots": 2533,
      "##odes": 2534,
      "##èle": 2535,
      "##ji": 2536,
      "##teaux": 2537,
      "##rim": 2538,
      "chang": 2539,
      "chois": 2540,
      "maroc": 2541,
      "quelle": 2542,
      "##dire": 2543,
      "##atiques": 2544,
      "##cope": 2545,
      "##ablement": 2546,
      "restric": 2547,
      "affi": 2548,
      "##jec": 2549,
      "arabie": 2550,
      "douanes": 2551,
      "vendus": 2552,
      "faibles": 2553,
      "échanges": 2554,
      "besoin": 2555,
      "pratiques": 2556,
      "##html": 2557,
      "position": 2558,
      "favor": 2559,
      "libreé": 2560,
      "bilat": 2561,
      "aid": 2562,
      "hum": 2563,
      "lob": 2564,
      "moi": 2565,
      "mieux": 2566,
      "satis": 2567,
      "##ld": 2568,
      "##pl": 2569,
      "##gues": 2570,
      "proch": 2571,
      "aucune": 2572,
      "inclu": 2573,
      "assu": 2574,
      "class": 2575,
      "biologique": 2576,
      "diminution": 2577,
      "province": 2578,
      "jusquà": 2579,
      "négoci": 2580,
      "farine": 2581,
      "déterminer": 2582,
      "##loyés": 2583,
      "couverture": 2584,
      "béné": 2585,
      "libreéchange": 2586,
      "daliment": 2587,
      "rée": 2588,
      "échelle": 2589,
      "œu": 2590,
      "##ton": 2591,
      "##orient": 2592,
      "descrip": 2593,
      "##nexe": 2594,
      "##chant": 2595,
      "respecti": 2596,
      "dentre": 2597,
      "grosseur": 2598,
      "équipements": 2599,
      "anglais": 2600,
      "uniquement": 2601,
      "##ernationalgcca": 2602,
      "##ritannique": 2603,
      "aide": 2604,
      "eu": 2605,
      "emb": 2606,
      "eux": 2607,
      "jau": 2608,
      "pu": 2609,
      "ple": 2610,
      "véri": 2611,
      "##rents": 2612,
      "##dro": 2613,
      "##mul": 2614,
      "##mine": 2615,
      "##éti": 2616,
      "##èces": 2617,
      "##itor": 2618,
      "##alités": 2619,
      "prot": 2620,
      "parts": 2621,
      "chap": 2622,
      "agents": 2623,
      "##atives": 2624,
      "exportateur": 2625,
      "##osph": 2626,
      "principale": 2627,
      "##rences": 2628,
      "obstac": 2629,
      "droit": 2630,
      "##heure": 2631,
      "provinces": 2632,
      "rouge": 2633,
      "dapprobation": 2634,
      "asia": 2635,
      "confiserie": 2636,
      "précis": 2637,
      "ndnca": 2638,
      "traitement": 2639,
      "fraîches": 2640,
      "accords": 2641,
      "vigueur": 2642,
      "numéro": 2643,
      "août": 2644,
      "ci": 2645,
      "cir": 2646,
      "culti": 2647,
      "dat": 2648,
      "gol": 2649,
      "hy": 2650,
      "liens": 2651,
      "##pri": 2652,
      "##tié": 2653,
      "##cien": 2654,
      "excell": 2655,
      "##ick": 2656,
      "condition": 2657,
      "sole": 2658,
      "régi": 2659,
      "avenir": 2660,
      "concurrents": 2661,
      "statistics": 2662,
      "létat": 2663,
      "colomb": 2664,
      "favoris": 2665,
      "létiquette": 2666,
      "sensib": 2667,
      "territoire": 2668,
      "vertu": 2669,
      "intervenants": 2670,
      "vrac": 2671,
      "afghanistan": 2672,
      "gb": 2673,
      "gâ": 2674,
      "gens": 2675,
      "pai": 2676,
      "rôle": 2677,
      "sus": 2678,
      "sig": 2679,
      "##va": 2680,
      "##une": 2681,
      "##ètre": 2682,
      "##ense": 2683,
      "##ulteurs": 2684,
      "pain": 2685,
      "##ancement": 2686,
      "approuv": 2687,
      "distance": 2688,
      "adop": 2689,
      "décis": 2690,
      "connaiss": 2691,
      "sélev": 2692,
      "variété": 2693,
      "second": 2694,
      "comprennent": 2695,
      "épic": 2696,
      "constituent": 2697,
      "lorganis": 2698,
      "glac": 2699,
      "groupes": 2700,
      "grossistes": 2701,
      "densité": 2702,
      "pau": 2703,
      "##comm": 2704,
      "##af": 2705,
      "##earch": 2706,
      "##lées": 2707,
      "##lam": 2708,
      "##gi": 2709,
      "products": 2710,
      "dix": 2711,
      "dacc": 2712,
      "effic": 2713,
      "manière": 2714,
      "##ustralie": 2715,
      "matéri": 2716,
      "chiffres": 2717,
      "limit": 2718,
      "quelque": 2719,
      "##ographie": 2720,
      "programmes": 2721,
      "prévoit": 2722,
      "différents": 2723,
      "disponible": 2724,
      "succès": 2725,
      "européenne": 2726,
      "pharmaceutiques": 2727,
      "difficile": 2728,
      "caractéris": 2729,
      "royaumeuni": 2730,
      "moitié": 2731,
      "satisf": 2732,
      "soleil": 2733,
      "ambassade": 2734,
      "cél": 2735,
      "ka": 2736,
      "pol": 2737,
      "rur": 2738,
      "vise": 2739,
      "##cun": 2740,
      "##bons": 2741,
      "deven": 2742,
      "##tiss": 2743,
      "constit": 2744,
      "##érant": 2745,
      "compét": 2746,
      "##vention": 2747,
      "##andais": 2748,
      "transitaire": 2749,
      "##ermédi": 2750,
      "bov": 2751,
      "direction": 2752,
      "drogues": 2753,
      "dispositions": 2754,
      "##lèmes": 2755,
      "vendre": 2756,
      "permet": 2757,
      "problèmes": 2758,
      "concernant": 2759,
      "cherche": 2760,
      "comparativement": 2761,
      "effectu": 2762,
      "tarif": 2763,
      "connaître": 2764,
      "élèves": 2765,
      "comestibles": 2766,
      "févri": 2767,
      "constitue": 2768,
      "econom": 2769,
      "fais": 2770,
      "titre": 2771,
      "éléments": 2772,
      "##cor": 2773,
      "##tés": 2774,
      "##so": 2775,
      "##we": 2776,
      "##mon": 2777,
      "##mer": 2778,
      "##ém": 2779,
      "##uri": 2780,
      "##orld": 2781,
      "##enn": 2782,
      "projet": 2783,
      "quen": 2784,
      "question": 2785,
      "répar": 2786,
      "##amin": 2787,
      "potent": 2788,
      "liv": 2789,
      "##ultural": 2790,
      "stock": 2791,
      "objec": 2792,
      "représentant": 2793,
      "office": 2794,
      "administ": 2795,
      "présente": 2796,
      "supermar": 2797,
      "résid": 2798,
      "abs": 2799,
      "notre": 2800,
      "franç": 2801,
      "bonbons": 2802,
      "lorsqu": 2803,
      "réduire": 2804,
      "récol": 2805,
      "constru": 2806,
      "figure": 2807,
      "défin": 2808,
      "génétiquement": 2809,
      "chapitre": 2810,
      "aille": 2811,
      "léc": 2812,
      "rob": 2813,
      "spec": 2814,
      "vanc": 2815,
      "##dra": 2816,
      "##ges": 2817,
      "##uels": 2818,
      "##uelles": 2819,
      "##ril": 2820,
      "##lir": 2821,
      "##oute": 2822,
      "##iels": 2823,
      "##dement": 2824,
      "dédou": 2825,
      "##quelle": 2826,
      "pourcent": 2827,
      "exc": 2828,
      "##oss": 2829,
      "soli": 2830,
      "compéti": 2831,
      "##lob": 2832,
      "telles": 2833,
      "précéd": 2834,
      "lumine": 2835,
      "dépend": 2836,
      "##ible": 2837,
      "afrique": 2838,
      "##riture": 2839,
      "concurrent": 2840,
      "fournisseur": 2841,
      "relatives": 2842,
      "établir": 2843,
      "facil": 2844,
      "##nergie": 2845,
      "possède": 2846,
      "respectivement": 2847,
      "ailleurs": 2848,
      "spectre": 2849,
      "feu": 2850,
      "lord": 2851,
      "nos": 2852,
      "to": 2853,
      "vaste": 2854,
      "##oti": 2855,
      "##iz": 2856,
      "##bin": 2857,
      "laustralie": 2858,
      "producteur": 2859,
      "##oig": 2860,
      "consul": 2861,
      "exporté": 2862,
      "avis": 2863,
      "avait": 2864,
      "savoir": 2865,
      "agricultural": 2866,
      "fact": 2867,
      "oblig": 2868,
      "research": 2869,
      "explo": 2870,
      "mets": 2871,
      "effe": 2872,
      "influ": 2873,
      "élevée": 2874,
      "organisation": 2875,
      "autorités": 2876,
      "spécialis": 2877,
      "atti": 2878,
      "israéliens": 2879,
      "crédit": 2880,
      "mondial": 2881,
      "subs": 2882,
      "dinformation": 2883,
      "##ographique": 2884,
      "extérieur": 2885,
      "durant": 2886,
      "darach": 2887,
      "kilom": 2888,
      "banque": 2889,
      "conservation": 2890,
      "télescope": 2891,
      "licence": 2892,
      "assujet": 2893,
      "gâteaux": 2894,
      "vancouver": 2895,
      "pourcentage": 2896,
      "cô": 2897,
      "lang": 2898,
      "mac": 2899,
      "##lation": 2900,
      "##ète": 2901,
      "##isme": 2902,
      "##omon": 2903,
      "##ount": 2904,
      "##leur": 2905,
      "##stes": 2906,
      "##quel": 2907,
      "mars": 2908,
      "##rance": 2909,
      "##atifs": 2910,
      "coff": 2911,
      "accomp": 2912,
      "doub": 2913,
      "cause": 2914,
      "dernier": 2915,
      "sucrée": 2916,
      "travaill": 2917,
      "blanc": 2918,
      "blanche": 2919,
      "labor": 2920,
      "##agrgcca": 2921,
      "superficie": 2922,
      "essentiellement": 2923,
      "paiement": 2924,
      "français": 2925,
      "dédouan": 2926,
      "ax": 2927,
      "allem": 2928,
      "bœ": 2929,
      "brés": 2930,
      "cc": 2931,
      "mme": 2932,
      "oeufs": 2933,
      "sc": 2934,
      "test": 2935,
      "##ding": 2936,
      "##gén": 2937,
      "##inaire": 2938,
      "##rovisionnement": 2939,
      "##ome": 2940,
      "entrep": 2941,
      "stand": 2942,
      "bière": 2943,
      "##ranger": 2944,
      "utiliser": 2945,
      "indic": 2946,
      "lentre": 2947,
      "grains": 2948,
      "reconn": 2949,
      "sauce": 2950,
      "contenant": 2951,
      "familles": 2952,
      "différentes": 2953,
      "égypte": 2954,
      "aromatique": 2955,
      "logistique": 2956,
      "hypermarchés": 2957,
      "rayons": 2958,
      "février": 2959,
      "bœuf": 2960,
      "camp": 2961,
      "famille": 2962,
      "id": 2963,
      "pal": 2964,
      "tri": 2965,
      "évent": 2966,
      "##ast": 2967,
      "##hui": 2968,
      "##ya": 2969,
      "##gu": 2970,
      "##éro": 2971,
      "##uli": 2972,
      "##udes": 2973,
      "##bur": 2974,
      "##tives": 2975,
      "aucun": 2976,
      "##cid": 2977,
      "pay": 2978,
      "compagn": 2979,
      "aviv": 2980,
      "diffé": 2981,
      "préparation": 2982,
      "préparations": 2983,
      "progress": 2984,
      "japonaises": 2985,
      "##vestissement": 2986,
      "profil": 2987,
      "continue": 2988,
      "étoile": 2989,
      "##tiennent": 2990,
      "diverses": 2991,
      "pacific": 2992,
      "réfrigéré": 2993,
      "réseau": 2994,
      "breve": 2995,
      "km": 2996,
      "linspection": 2997,
      "mili": 2998,
      "médi": 2999,
      "rd": 3000,
      "##cer": 3001,
      "##cul": 3002,
      "##ris": 3003,
      "laut": 3004,
      "laquelle": 3005,
      "##dul": 3006,
      "segment": 3007,
      "cell": 3008,
      "##abor": 3009,
      "exporter": 3010,
      "comple": 3011,
      "##actitude": 3012,
      "parties": 3013,
      "lutilisation": 3014,
      "soumis": 3015,
      "mach": 3016,
      "infrastructure": 3017,
      "suivant": 3018,
      "##ustrali": 3019,
      "organisme": 3020,
      "propres": 3021,
      "japonaise": 3022,
      "domaines": 3023,
      "##reprises": 3024,
      "occas": 3025,
      "##ographiques": 3026,
      "ladministration": 3027,
      "##ifiques": 3028,
      "pacifique": 3029,
      "début": 3030,
      "rempl": 3031,
      "consulter": 3032,
      "##occup": 3033,
      "restrictions": 3034,
      "glacée": 3035,
      "but": 3036,
      "four": 3037,
      "fut": 3038,
      "fleurs": 3039,
      "lanc": 3040,
      "##euses": 3041,
      "##ition": 3042,
      "##pdf": 3043,
      "##ber": 3044,
      "##estions": 3045,
      "##tier": 3046,
      "lasie": 3047,
      "##ortion": 3048,
      "lesque": 3049,
      "##rict": 3050,
      "##lever": 3051,
      "produis": 3052,
      "questions": 3053,
      "##quoi": 3054,
      "pourquoi": 3055,
      "##oint": 3056,
      "conver": 3057,
      "pois": 3058,
      "##érée": 3059,
      "##étaire": 3060,
      "agriculteurs": 3061,
      "bio": 3062,
      "philippin": 3063,
      "membre": 3064,
      "offrir": 3065,
      "maje": 3066,
      "dispos": 3067,
      "lensemble": 3068,
      "nécessaires": 3069,
      "privé": 3070,
      "##suite": 3071,
      "jeunes": 3072,
      "promou": 3073,
      "texture": 3074,
      "complète": 3075,
      "matériaux": 3076,
      "coffee": 3077,
      "donne": 3078,
      "sapp": 3079,
      "ti": 3080,
      "##oli": 3081,
      "##euse": 3082,
      "##ns": 3083,
      "##vée": 3084,
      "##itures": 3085,
      "laide": 3086,
      "##inaires": 3087,
      "##alog": 3088,
      "champ": 3089,
      "suffis": 3090,
      "##euvre": 3091,
      "##mbl": 3092,
      "prévisions": 3093,
      "préoccup": 3094,
      "avril": 3095,
      "respect": 3096,
      "nombreuses": 3097,
      "maison": 3098,
      "assurer": 3099,
      "habituellement": 3100,
      "utilisés": 3101,
      "indiens": 3102,
      "certain": 3103,
      "magasin": 3104,
      "systèmes": 3105,
      "activité": 3106,
      "israéliennes": 3107,
      "travail": 3108,
      "demeurent": 3109,
      "acheteurs": 3110,
      "dexp": 3111,
      "disponibles": 3112,
      "teneur": 3113,
      "sept": 3114,
      "requérant": 3115,
      "signi": 3116,
      "sélevaient": 3117,
      "efficace": 3118,
      "kilomètres": 3119,
      "brésil": 3120,
      "promouvoir": 3121,
      "bal": 3122,
      "dit": 3123,
      "olé": 3124,
      "rad": 3125,
      "rend": 3126,
      "sag": 3127,
      "##ottawa": 3128,
      "##io": 3129,
      "##ières": 3130,
      "##ville": 3131,
      "##ha": 3132,
      "##gent": 3133,
      "##ger": 3134,
      "##art": 3135,
      "##alth": 3136,
      "détique": 3137,
      "exist": 3138,
      "##ates": 3139,
      "chau": 3140,
      "##ablisse": 3141,
      "pris": 3142,
      "##après": 3143,
      "##icult": 3144,
      "milliers": 3145,
      "poll": 3146,
      "##issante": 3147,
      "intermédi": 3148,
      "coent": 3149,
      "code": 3150,
      "accr": 3151,
      "économies": 3152,
      "légum": 3153,
      "manille": 3154,
      "financement": 3155,
      "difficult": 3156,
      "perspecti": 3157,
      "trop": 3158,
      "avantages": 3159,
      "troisième": 3160,
      "permettre": 3161,
      "possible": 3162,
      "comprend": 3163,
      "conseil": 3164,
      "partenaires": 3165,
      "puisque": 3166,
      "confiseries": 3167,
      "voie": 3168,
      "stimul": 3169,
      "##contact": 3170,
      "dabattage": 3171,
      "offerts": 3172,
      "nourriture": 3173,
      "pétrole": 3174,
      "micro": 3175,
      "ai": 3176,
      "amp": 3177,
      "bois": 3178,
      "dêtre": 3179,
      "fre": 3180,
      "ge": 3181,
      "my": 3182,
      "mor": 3183,
      "île": 3184,
      "##obre": 3185,
      "##rité": 3186,
      "##ude": 3187,
      "##za": 3188,
      "##êmes": 3189,
      "##tiv": 3190,
      "lass": 3191,
      "##tembre": 3192,
      "##nexes": 3193,
      "##rate": 3194,
      "##cint": 3195,
      "##agov": 3196,
      "marqu": 3197,
      "##ical": 3198,
      "##icots": 3199,
      "cong": 3200,
      "##ignation": 3201,
      "intérêt": 3202,
      "contient": 3203,
      "sains": 3204,
      "carc": 3205,
      "cartes": 3206,
      "obser": 3207,
      "nouilles": 3208,
      "officie": 3209,
      "##ting": 3210,
      "##ganismes": 3211,
      "séch": 3212,
      "règlement": 3213,
      "recherches": 3214,
      "téléch": 3215,
      "heure": 3216,
      "university": 3217,
      "##source": 3218,
      "traditionnels": 3219,
      "modifiés": 3220,
      "##aigre": 3221,
      "supplément": 3222,
      "haricots": 3223,
      "raisons": 3224,
      "hôtels": 3225,
      "oléag": 3226,
      "légumineuses": 3227,
      "baie": 3228,
      "el": 3229,
      "fil": 3230,
      "gar": 3231,
      "hui": 3232,
      "tard": 3233,
      "##vn": 3234,
      "##vient": 3235,
      "##mans": 3236,
      "##mosph": 3237,
      "##ép": 3238,
      "##àdire": 3239,
      "demballage": 3240,
      "##any": 3241,
      "##ref": 3242,
      "encour": 3243,
      "##usale": 3244,
      "##usement": 3245,
      "##nelle": 3246,
      "##limin": 3247,
      "##asp": 3248,
      "canola": 3249,
      "ref": 3250,
      "##euner": 3251,
      "cop": 3252,
      "prim": 3253,
      "accru": 3254,
      "trait": 3255,
      "appel": 3256,
      "expos": 3257,
      "center": 3258,
      "##vironnement": 3259,
      "utilisé": 3260,
      "lentilles": 3261,
      "##lumière": 3262,
      "salub": 3263,
      "étiquette": 3264,
      "fondation": 3265,
      "##aviv": 3266,
      "scient": 3267,
      "vinaigre": 3268,
      "analyse": 3269,
      "nutrition": 3270,
      "##infoexportgcca": 3271,
      "régime": 3272,
      "colombie": 3273,
      "bovins": 3274,
      "milieu": 3275,
      "##rateg": 3276,
      "##cintosh": 3277,
      "australi": 3278,
      "hist": 3279,
      "lo": 3280,
      "mil": 3281,
      "tes": 3282,
      "vu": 3283,
      "##lème": 3284,
      "##nées": 3285,
      "##ks": 3286,
      "demp": 3287,
      "##alent": 3288,
      "ensuite": 3289,
      "produire": 3290,
      "##quête": 3291,
      "rece": 3292,
      "communi": 3293,
      "dint": 3294,
      "dob": 3295,
      "intég": 3296,
      "colle": 3297,
      "réguli": 3298,
      "star": 3299,
      "##gmentation": 3300,
      "demand": 3301,
      "assur": 3302,
      "passer": 3303,
      "mani": 3304,
      "lentrée": 3305,
      "denrées": 3306,
      "républi": 3307,
      "corps": 3308,
      "quantités": 3309,
      "contrô": 3310,
      "essais": 3311,
      "appropri": 3312,
      "travaux": 3313,
      "concerne": 3314,
      "caractère": 3315,
      "bulle": 3316,
      "effectuer": 3317,
      "##ufact": 3318,
      "létiquetage": 3319,
      "septembre": 3320,
      "énonc": 3321,
      "stratégie": 3322,
      "pénét": 3323,
      "john": 3324,
      "##dfaitmaecigcca": 3325,
      "italie": 3326,
      "bilatér": 3327,
      "darachide": 3328,
      "perspectives": 3329,
      "dy": 3330,
      "dag": 3331,
      "goût": 3332,
      "gala": 3333,
      "glob": 3334,
      "lins": 3335,
      "mc": 3336,
      "veu": 3337,
      "équ": 3338,
      "##bas": 3339,
      "##ège": 3340,
      "##arie": 3341,
      "lemballage": 3342,
      "##riques": 3343,
      "##rain": 3344,
      "##ression": 3345,
      "dépar": 3346,
      "poursu": 3347,
      "uni": 3348,
      "choix": 3349,
      "##cca": 3350,
      "##onomie": 3351,
      "##ident": 3352,
      "conclus": 3353,
      "explique": 3354,
      "soutien": 3355,
      "adap": 3356,
      "présenter": 3357,
      "manufact": 3358,
      "dernière": 3359,
      "restaurant": 3360,
      "clim": 3361,
      "contenu": 3362,
      "lenvironnement": 3363,
      "congelé": 3364,
      "heures": 3365,
      "problème": 3366,
      "nuit": 3367,
      "israeltél": 3368,
      "modernes": 3369,
      "votre": 3370,
      "renforc": 3371,
      "musulmans": 3372,
      "algérie": 3373,
      "côtelée": 3374,
      "jaune": 3375,
      "rurales": 3376,
      "faisant": 3377,
      "accompagn": 3378,
      "détiquetage": 3379,
      "##mosphère": 3380,
      "##usalem": 3381,
      "acti": 3382,
      "acteurs": 3383,
      "bord": 3384,
      "cam": 3385,
      "from": 3386,
      "front": 3387,
      "lon": 3388,
      "nso": 3389,
      "pomme": 3390,
      "sil": 3391,
      "sét": 3392,
      "spect": 3393,
      "world": 3394,
      "##tra": 3395,
      "##nd": 3396,
      "##fie": 3397,
      "##uffis": 3398,
      "##business": 3399,
      "##ka": 3400,
      "##ares": 3401,
      "##enue": 3402,
      "##ash": 3403,
      "dév": 3404,
      "anase": 3405,
      "transf": 3406,
      "via": 3407,
      "minh": 3408,
      "minim": 3409,
      "exposition": 3410,
      "populaire": 3411,
      "décenn": 3412,
      "propre": 3413,
      "abatt": 3414,
      "trouvent": 3415,
      "ports": 3416,
      "permission": 3417,
      "##férence": 3418,
      "petite": 3419,
      "américain": 3420,
      "relative": 3421,
      "couleurs": 3422,
      "lunion": 3423,
      "électron": 3424,
      "lhuile": 3425,
      "raff": 3426,
      "supérieure": 3427,
      "délivré": 3428,
      "multip": 3429,
      "enfants": 3430,
      "laugmentation": 3431,
      "##foods": 3432,
      "incluant": 3433,
      "obstacles": 3434,
      "lordonnance": 3435,
      "téléchargé": 3436,
      "salubrité": 3437,
      "république": 3438,
      "asse": 3439,
      "dam": 3440,
      "han": 3441,
      "lom": 3442,
      "lheure": 3443,
      "mcintosh": 3444,
      "sè": 3445,
      "util": 3446,
      "##avant": 3447,
      "##ft": 3448,
      "##esse": 3449,
      "##inés": 3450,
      "##rol": 3451,
      "##chent": 3452,
      "quar": 3453,
      "##ager": 3454,
      "chac": 3455,
      "consignation": 3456,
      "commenc": 3457,
      "réalis": 3458,
      "conique": 3459,
      "entraî": 3460,
      "consommateur": 3461,
      "##idaefamille": 3462,
      "représentaient": 3463,
      "régionaux": 3464,
      "dachat": 3465,
      "passées": 3466,
      "##fications": 3467,
      "abord": 3468,
      "avantage": 3469,
      "animale": 3470,
      "impos": 3471,
      "tendre": 3472,
      "sauces": 3473,
      "vendent": 3474,
      "estime": 3475,
      "chef": 3476,
      "mission": 3477,
      "étude": 3478,
      "europe": 3479,
      "tarifs": 3480,
      "expéri": 3481,
      "femmes": 3482,
      "propriété": 3483,
      "haute": 3484,
      "maladies": 3485,
      "mélange": 3486,
      "phytosanitaire": 3487,
      "chimiques": 3488,
      "aider": 3489,
      "dalimentation": 3490,
      "cultiv": 3491,
      "caractéristiques": 3492,
      "léconomie": 3493,
      "best": 3494,
      "dinspection": 3495,
      "fore": 3496,
      "gel": 3497,
      "nont": 3498,
      "sm": 3499,
      "vois": 3500,
      "##ell": 3501,
      "##gar": 3502,
      "##étiques": 3503,
      "##upe": 3504,
      "deau": 3505,
      "laf": 3506,
      "##chi": 3507,
      "##dulée": 3508,
      "##lection": 3509,
      "##cides": 3510,
      "investi": 3511,
      "##atoires": 3512,
      "mode": 3513,
      "company": 3514,
      "coord": 3515,
      "japan": 3516,
      "linf": 3517,
      "##fié": 3518,
      "régional": 3519,
      "bass": 3520,
      "utilisées": 3521,
      "manque": 3522,
      "caf": 3523,
      "cach": 3524,
      "##uper": 3525,
      "##férences": 3526,
      "limite": 3527,
      "fonds": 3528,
      "astronome": 3529,
      "lenregistrement": 3530,
      "industry": 3531,
      "létranger": 3532,
      "acheter": 3533,
      "technique": 3534,
      "pratique": 3535,
      "semences": 3536,
      "connaît": 3537,
      "conséquent": 3538,
      "manger": 3539,
      "familial": 3540,
      "ouvert": 3541,
      "chinoises": 3542,
      "aujourdhui": 3543,
      "jamais": 3544,
      "franchise": 3545,
      "attribuable": 3546,
      "réparti": 3547,
      "dédouanement": 3548,
      "accrue": 3549,
      "colombieb": 3550,
      "bra": 3551,
      "cit": 3552,
      "dû": 3553,
      "fine": 3554,
      "mâ": 3555,
      "mou": 3556,
      "omc": 3557,
      "pan": 3558,
      "riv": 3559,
      "stre": 3560,
      "série": 3561,
      "venir": 3562,
      "zones": 3563,
      "##eurs": 3564,
      "##vie": 3565,
      "##pro": 3566,
      "##hait": 3567,
      "##jp": 3568,
      "##iser": 3569,
      "##alam": 3570,
      "prosp": 3571,
      "##asi": 3572,
      "pla": 3573,
      "##érées": 3574,
      "##issariat": 3575,
      "doeufs": 3576,
      "comment": 3577,
      "consommer": 3578,
      "transgén": 3579,
      "islam": 3580,
      "écl": 3581,
      "linformation": 3582,
      "moyenorient": 3583,
      "totalis": 3584,
      "souhait": 3585,
      "populaires": 3586,
      "##éder": 3587,
      "fournit": 3588,
      "##gccainternet": 3589,
      "proportion": 3590,
      "##ctivité": 3591,
      "profession": 3592,
      "attend": 3593,
      "accept": 3594,
      "client": 3595,
      "fortement": 3596,
      "moderne": 3597,
      "lexpansion": 3598,
      "grill": 3599,
      "risques": 3600,
      "chinoise": 3601,
      "voyage": 3602,
      "prochaines": 3603,
      "œuvre": 3604,
      "épiceries": 3605,
      "machines": 3606,
      "scientifiques": 3607,
      "manufactur": 3608,
      "colombiebritannique": 3609,
      "mâcher": 3610,
      "ii": 3611,
      "loin": 3612,
      "mout": 3613,
      "ori": 3614,
      "ronde": 3615,
      "somm": 3616,
      "voi": 3617,
      "##coi": 3618,
      "##lure": 3619,
      "##nov": 3620,
      "##mise": 3621,
      "##ution": 3622,
      "##ève": 3623,
      "engrais": 3624,
      "dub": 3625,
      "##ouest": 3626,
      "plans": 3627,
      "##illons": 3628,
      "excéd": 3629,
      "##ath": 3630,
      "marke": 3631,
      "##ape": 3632,
      "surve": 3633,
      "surge": 3634,
      "réaliser": 3635,
      "sun": 3636,
      "division": 3637,
      "post": 3638,
      "##acom": 3639,
      "avaient": 3640,
      "croissant": 3641,
      "philippine": 3642,
      "additionne": 3643,
      "rapports": 3644,
      "habitudes": 3645,
      "##assurer": 3646,
      "denviron": 3647,
      "ministry": 3648,
      "recours": 3649,
      "##internationalgcca": 3650,
      "publié": 3651,
      "brut": 3652,
      "formulaire": 3653,
      "apl": 3654,
      "subst": 3655,
      "tempéra": 3656,
      "##mark": 3657,
      "obtenu": 3658,
      "euromon": 3659,
      "végétales": 3660,
      "file": 3661,
      "##orgil": 3662,
      "déjeuner": 3663,
      "acidulée": 3664,
      "libér": 3665,
      "##govil": 3666,
      "urbaines": 3667,
      "délivrance": 3668,
      "expédi": 3669,
      "délégué": 3670,
      "pêche": 3671,
      "tartiner": 3672,
      "préfèrent": 3673,
      "pauvre": 3674,
      "##commissariat": 3675,
      "administra": 3676,
      "consulat": 3677,
      "allemagne": 3678,
      "balance": 3679,
      "assez": 3680,
      "utilise": 3681,
      "cos": 3682,
      "creve": 3683,
      "féd": 3684,
      "ident": 3685,
      "méc": 3686,
      "vins": 3687,
      "vir": 3688,
      "zone": 3689,
      "##pment": 3690,
      "##écu": 3691,
      "develo": 3692,
      "devenir": 3693,
      "##tiles": 3694,
      "##eral": 3695,
      "##arité": 3696,
      "##ina": 3697,
      "##lier": 3698,
      "##liquer": 3699,
      "plant": 3700,
      "plats": 3701,
      "exer": 3702,
      "sein": 3703,
      "canne": 3704,
      "chut": 3705,
      "chamb": 3706,
      "remar": 3707,
      "relig": 3708,
      "##aise": 3709,
      "conj": 3710,
      "dim": 3711,
      "##isses": 3712,
      "intérieure": 3713,
      "##mestre": 3714,
      "sim": 3715,
      "sirop": 3716,
      "orge": 3717,
      "district": 3718,
      "soup": 3719,
      "distin": 3720,
      "fournis": 3721,
      "maind": 3722,
      "présentation": 3723,
      "nationales": 3724,
      "certificats": 3725,
      "classi": 3726,
      "donner": 3727,
      "particulières": 3728,
      "montant": 3729,
      "lannexe": 3730,
      "sauf": 3731,
      "apport": 3732,
      "emballage": 3733,
      "désign": 3734,
      "ceuxci": 3735,
      "emplo": 3736,
      "niveaux": 3737,
      "asiatique": 3738,
      "capitale": 3739,
      "réseaux": 3740,
      "##lantique": 3741,
      "taxe": 3742,
      "central": 3743,
      "octobre": 3744,
      "bénéfici": 3745,
      "##ablissement": 3746,
      "température": 3747,
      "euromonitor": 3748,
      "cides": 3749,
      "dang": 3750,
      "fu": 3751,
      "hor": 3752,
      "jer": 3753,
      "mé": 3754,
      "pfa": 3755,
      "tor": 3756,
      "zas": 3757,
      "élimin": 3758,
      "##cm": 3759,
      "##tée": 3760,
      "##sg": 3761,
      "##elle": 3762,
      "##den": 3763,
      "##fiques": 3764,
      "##har": 3765,
      "##bi": 3766,
      "##ble": 3767,
      "##kat": 3768,
      "##ties": 3769,
      "endro": 3770,
      "##dex": 3771,
      "délevage": 3772,
      "##quis": 3773,
      "report": 3774,
      "##olit": 3775,
      "marche": 3776,
      "pot": 3777,
      "paysbas": 3778,
      "faits": 3779,
      "facteur": 3780,
      "moyennement": 3781,
      "croissante": 3782,
      "souten": 3783,
      "##oirs": 3784,
      "décou": 3785,
      "réserv": 3786,
      "préparé": 3787,
      "variation": 3788,
      "montre": 3789,
      "thaïlandais": 3790,
      "israélienne": 3791,
      "approvisionnement": 3792,
      "destinées": 3793,
      "longue": 3794,
      "établies": 3795,
      "seule": 3796,
      "lunivers": 3797,
      "naturels": 3798,
      "composé": 3799,
      "allant": 3800,
      "dhuile": 3801,
      "lapprobation": 3802,
      "retour": 3803,
      "liban": 3804,
      "articles": 3805,
      "hautcommissariat": 3806,
      "conséquence": 3807,
      "agribusiness": 3808,
      "considérablement": 3809,
      "pleine": 3810,
      "vérifier": 3811,
      "excellente": 3812,
      "laboratoire": 3813,
      "occasions": 3814,
      "pollution": 3815,
      "intermédiaires": 3816,
      "tests": 3817,
      "galax": 3818,
      "foreign": 3819,
      "orient": 3820,
      "mécan": 3821,
      "development": 3822,
      "cidess": 3823,
      "ba": 3824,
      "banc": 3825,
      "dal": 3826,
      "fis": 3827,
      "fro": 3828,
      "fou": 3829,
      "ml": 3830,
      "nav": 3831,
      "pte": 3832,
      "porte": 3833,
      "rc": 3834,
      "rab": 3835,
      "##can": 3836,
      "##rar": 3837,
      "##ian": 3838,
      "##yo": 3839,
      "##mont": 3840,
      "##uve": 3841,
      "##êts": 3842,
      "##aies": 3843,
      "##cieux": 3844,
      "##asie": 3845,
      "inv": 3846,
      "##quant": 3847,
      "##ater": 3848,
      "réform": 3849,
      "##range": 3850,
      "dos": 3851,
      "comptent": 3852,
      "##énom": 3853,
      "augmente": 3854,
      "dépass": 3855,
      "##fiés": 3856,
      "mett": 3857,
      "fruit": 3858,
      "représentation": 3859,
      "usines": 3860,
      "rendement": 3861,
      "suivi": 3862,
      "suivante": 3863,
      "visite": 3864,
      "propos": 3865,
      "spécialité": 3866,
      "##oncé": 3867,
      "congelées": 3868,
      "sciences": 3869,
      "servent": 3870,
      "occidentaux": 3871,
      "capital": 3872,
      "tirer": 3873,
      "instruments": 3874,
      "changements": 3875,
      "maladie": 3876,
      "méthodes": 3877,
      "introduction": 3878,
      "décision": 3879,
      "secondaires": 3880,
      "tarifaires": 3881,
      "economic": 3882,
      "potentiel": 3883,
      "payer": 3884,
      "##tivité": 3885,
      "##rategis": 3886,
      "lomc": 3887,
      "crevettes": 3888,
      "flo": 3889,
      "go": 3890,
      "gre": 3891,
      "là": 3892,
      "nor": 3893,
      "sond": 3894,
      "tent": 3895,
      "tai": 3896,
      "ue": 3897,
      "##oph": 3898,
      "##lace": 3899,
      "##ich": 3900,
      "##fraî": 3901,
      "##vrir": 3902,
      "##gg": 3903,
      "##ze": 3904,
      "##ètent": 3905,
      "##anmo": 3906,
      "##isés": 3907,
      "##ination": 3908,
      "leçon": 3909,
      "##ussie": 3910,
      "##rière": 3911,
      "proté": 3912,
      "##live": 3913,
      "##ressi": 3914,
      "parc": 3915,
      "quoi": 3916,
      "##vez": 3917,
      "##illée": 3918,
      "exception": 3919,
      "semble": 3920,
      "étro": 3921,
      "##mettre": 3922,
      "quelles": 3923,
      "commis": 3924,
      "##ffre": 3925,
      "sujet": 3926,
      "##atif": 3927,
      "##mps": 3928,
      "accue": 3929,
      "tradu": 3930,
      "applic": 3931,
      "##pédition": 3932,
      "##médi": 3933,
      "produites": 3934,
      "développer": 3935,
      "infrar": 3936,
      "clés": 3937,
      "environnement": 3938,
      "israëltél": 3939,
      "auth": 3940,
      "néanmo": 3941,
      "évé": 3942,
      "porcs": 3943,
      "cliquer": 3944,
      "occupe": 3945,
      "destiné": 3946,
      "réduits": 3947,
      "##aluation": 3948,
      "naturelles": 3949,
      "échant": 3950,
      "conseils": 3951,
      "conseiller": 3952,
      "##center": 3953,
      "durée": 3954,
      "asiepacifique": 3955,
      "partenaire": 3956,
      "daruss": 3957,
      "vendu": 3958,
      "exploitants": 3959,
      "##onesia": 3960,
      "participation": 3961,
      "biotechnology": 3962,
      "risque": 3963,
      "musulman": 3964,
      "pêches": 3965,
      "general": 3966,
      "largement": 3967,
      "vitamine": 3968,
      "informations": 3969,
      "négociations": 3970,
      "satisfaire": 3971,
      "standards": 3972,
      "communiquer": 3973,
      "sèches": 3974,
      "marketing": 3975,
      "infrarou": 3976,
      "néanmoins": 3977,
      "darussalam": 3978,
      "ale": 3979,
      "cot": 3980,
      "fo": 3981,
      "flu": 3982,
      "ill": 3983,
      "iss": 3984,
      "mêmes": 3985,
      "os": 3986,
      "oeuvre": 3987,
      "pap": 3988,
      "ry": 3989,
      "saint": 3990,
      "sert": 3991,
      "tu": 3992,
      "varie": 3993,
      "##tor": 3994,
      "##rite": 3995,
      "##emark": 3996,
      "##dan": 3997,
      "##doc": 3998,
      "##lb": 3999,
      "##loi": 4000,
      "##yc": 4001,
      "##gen": 4002,
      "##ban": 4003,
      "##boo": 4004,
      "##erpr": 4005,
      "lact": 4006,
      "##ensi": 4007,
      "env": 4008,
      "##temps": 4009,
      "##rib": 4010,
      "##orth": 4011,
      "paras": 4012,
      "quun": 4013,
      "quand": 4014,
      "sembl": 4015,
      "canadais": 4016,
      "réces": 4017,
      "##rices": 4018,
      "combin": 4019,
      "exportés": 4020,
      "coco": 4021,
      "sav": 4022,
      "interd": 4023,
      "##onner": 4024,
      "servir": 4025,
      "##utention": 4026,
      "popularité": 4027,
      "fruiti": 4028,
      "offrant": 4029,
      "argent": 4030,
      "bel": 4031,
      "##rable": 4032,
      "manutention": 4033,
      "lexactitude": 4034,
      "élevées": 4035,
      "grammes": 4036,
      "séchés": 4037,
      "sélection": 4038,
      "atmosphère": 4039,
      "diminuer": 4040,
      "lagent": 4041,
      "noter": 4042,
      "coûte": 4043,
      "salon": 4044,
      "approvision": 4045,
      "astronomie": 4046,
      "huit": 4047,
      "université": 4048,
      "##loitation": 4049,
      "président": 4050,
      "collation": 4051,
      "intéressant": 4052,
      "meilleurs": 4053,
      "tenu": 4054,
      "supérieur": 4055,
      "occupait": 4056,
      "vivants": 4057,
      "danemark": 4058,
      "enfin": 4059,
      "##infoexportgcc": 4060,
      "révél": 4061,
      "méthode": 4062,
      "recommandations": 4063,
      "golfe": 4064,
      "favoriser": 4065,
      "lorganisation": 4066,
      "##giène": 4067,
      "effets": 4068,
      "lentreposage": 4069,
      "difficultés": 4070,
      "primaires": 4071,
      "demployés": 4072,
      "transgéniques": 4073,
      "aplati": 4074,
      "cnca": 4075,
      "dai": 4076,
      "hom": 4077,
      "lig": 4078,
      "mu": 4079,
      "mig": 4080,
      "rig": 4081,
      "russie": 4082,
      "tur": 4083,
      "vét": 4084,
      "##oque": 4085,
      "##ws": 4086,
      "##naire": 4087,
      "##face": 4088,
      "##vid": 4089,
      "##go": 4090,
      "##éens": 4091,
      "##bit": 4092,
      "##êtes": 4093,
      "##ôts": 4094,
      "##rich": 4095,
      "proc": 4096,
      "##rage": 4097,
      "##ielle": 4098,
      "quon": 4099,
      "détient": 4100,
      "##agnes": 4101,
      "##ablir": 4102,
      "##ctu": 4103,
      "agence": 4104,
      "entrer": 4105,
      "comport": 4106,
      "##ige": 4107,
      "##agement": 4108,
      "##estes": 4109,
      "complet": 4110,
      "##mid": 4111,
      "israe": 4112,
      "travers": 4113,
      "appré": 4114,
      "détat": 4115,
      "carref": 4116,
      "objet": 4117,
      "ordre": 4118,
      "##fiée": 4119,
      "##fiées": 4120,
      "##titut": 4121,
      "##érien": 4122,
      "distribuer": 4123,
      "may": 4124,
      "maxim": 4125,
      "présenté": 4126,
      "superv": 4127,
      "nationaux": 4128,
      "certifi": 4129,
      "club": 4130,
      "léchelle": 4131,
      "lélevage": 4132,
      "derniers": 4133,
      "riches": 4134,
      "autrement": 4135,
      "format": 4136,
      "saumon": 4137,
      "origin": 4138,
      "##onésie": 4139,
      "##ructures": 4140,
      "métrop": 4141,
      "taïwanais": 4142,
      "responsabilité": 4143,
      "industrial": 4144,
      "espèces": 4145,
      "procédures": 4146,
      "delta": 4147,
      "charge": 4148,
      "lautre": 4149,
      "ordonnance": 4150,
      "fabriqués": 4151,
      "changement": 4152,
      "absor": 4153,
      "amples": 4154,
      "bulletin": 4155,
      "poursuiv": 4156,
      "commencé": 4157,
      "linfrastructure": 4158,
      "dubaï": 4159,
      "réformes": 4160,
      "bh": 4161,
      "clé": 4162,
      "cib": 4163,
      "gomme": 4164,
      "ho": 4165,
      "hé": 4166,
      "pé": 4167,
      "sorte": 4168,
      "tan": 4169,
      "tok": 4170,
      "élément": 4171,
      "##rants": 4172,
      "##wick": 4173,
      "##lande": 4174,
      "##ling": 4175,
      "##long": 4176,
      "##pa": 4177,
      "##bon": 4178,
      "##bru": 4179,
      "##jing": 4180,
      "deli": 4181,
      "##itent": 4182,
      "lat": 4183,
      "lequel": 4184,
      "##ries": 4185,
      "##nel": 4186,
      "plac": 4187,
      "prises": 4188,
      "surface": 4189,
      "##ctor": 4190,
      "##istance": 4191,
      "enti": 4192,
      "##ttel": 4193,
      "##ung": 4194,
      "structure": 4195,
      "##réal": 4196,
      "##ologiques": 4197,
      "moyens": 4198,
      "conclu": 4199,
      "minu": 4200,
      "mex": 4201,
      "devises": 4202,
      "administration": 4203,
      "faites": 4204,
      "indép": 4205,
      "sépar": 4206,
      "##internet": 4207,
      "atlantique": 4208,
      "images": 4209,
      "contraire": 4210,
      "##partment": 4211,
      "limité": 4212,
      "investisseurs": 4213,
      "obtenus": 4214,
      "végétale": 4215,
      "achètent": 4216,
      "réduction": 4217,
      "fix": 4218,
      "fiabilité": 4219,
      "dentreprises": 4220,
      "récente": 4221,
      "extra": 4222,
      "acide": 4223,
      "serait": 4224,
      "lexportateur": 4225,
      "analys": 4226,
      "financière": 4227,
      "multination": 4228,
      "continuent": 4229,
      "délégués": 4230,
      "initiatives": 4231,
      "##……………………": 4232,
      "##food": 4233,
      "irrig": 4234,
      "vitamines": 4235,
      "descriptions": 4236,
      "emboute": 4237,
      "ciaprès": 4238,
      "objectif": 4239,
      "lumineuse": 4240,
      "langue": 4241,
      "##éroport": 4242,
      "progressé": 4243,
      "lesquels": 4244,
      "sagit": 4245,
      "australia": 4246,
      "bestfoods": 4247,
      "répartition": 4248,
      "##fraîch": 4249,
      "commission": 4250,
      "récession": 4251,
      "aplatie": 4252,
      "vétér": 4253,
      "carrefour": 4254,
      "indépend": 4255,
      "ait": 4256,
      "cre": 4257,
      "cru": 4258,
      "dac": 4259,
      "ed": 4260,
      "fili": 4261,
      "kans": 4262,
      "mètres": 4263,
      "roup": 4264,
      "ralent": 4265,
      "sais": 4266,
      "tom": 4267,
      "tab": 4268,
      "tête": 4269,
      "tiers": 4270,
      "ul": 4271,
      "vont": 4272,
      "âge": 4273,
      "éu": 4274,
      "##rits": 4275,
      "##ez": 4276,
      "##dis": 4277,
      "##nor": 4278,
      "##xte": 4279,
      "##porte": 4280,
      "##hés": 4281,
      "##yle": 4282,
      "##gés": 4283,
      "##ud": 4284,
      "##uk": 4285,
      "##zi": 4286,
      "##este": 4287,
      "##tie": 4288,
      "lamé": 4289,
      "##ork": 4290,
      "##organismes": 4291,
      "##omment": 4292,
      "##ouve": 4293,
      "unité": 4294,
      "##iendra": 4295,
      "consomment": 4296,
      "##ulent": 4297,
      "réussi": 4298,
      "connexes": 4299,
      "suit": 4300,
      "suisse": 4301,
      "##ineux": 4302,
      "agit": 4303,
      "entrée": 4304,
      "##rumes": 4305,
      "telle": 4306,
      "peup": 4307,
      "##ondie": 4308,
      "termes": 4309,
      "##ériques": 4310,
      "légis": 4311,
      "découver": 4312,
      "présentent": 4313,
      "usda": 4314,
      "utilisée": 4315,
      "résu": 4316,
      "amérique": 4317,
      "inflation": 4318,
      "grandement": 4319,
      "spécifique": 4320,
      "porter": 4321,
      "créer": 4322,
      "achat": 4323,
      "couleur": 4324,
      "publics": 4325,
      "##aka": 4326,
      "médic": 4327,
      "##icaces": 4328,
      "condiments": 4329,
      "fonctionnels": 4330,
      "lapprovisionnement": 4331,
      "##copes": 4332,
      "comparaison": 4333,
      "semaine": 4334,
      "modern": 4335,
      "succurs": 4336,
      "meilleure": 4337,
      "rafraîch": 4338,
      "évaluées": 4339,
      "apparten": 4340,
      "gazeuses": 4341,
      "aurait": 4342,
      "contribué": 4343,
      "permettent": 4344,
      "fréqu": 4345,
      "physicien": 4346,
      "coupées": 4347,
      "description": 4348,
      "limitée": 4349,
      "récolte": 4350,
      "indicateurs": 4351,
      "##cidence": 4352,
      "majeure": 4353,
      "dobtenir": 4354,
      "dynam": 4355,
      "pauvreté": 4356,
      "entièrement": 4357,
      "kansai": 4358,
      "bonnes": 4359,
      "gui": 4360,
      "iv": 4361,
      "jal": 4362,
      "lien": 4363,
      "ny": 4364,
      "nz": 4365,
      "ottawa": 4366,
      "pen": 4367,
      "pet": 4368,
      "rendre": 4369,
      "sad": 4370,
      "sand": 4371,
      "tient": 4372,
      "énergie": 4373,
      "##cra": 4374,
      "##ctique": 4375,
      "##tant": 4376,
      "##dagov": 4377,
      "##ly": 4378,
      "##lit": 4379,
      "##ho": 4380,
      "department": 4381,
      "##urée": 4382,
      "##ern": 4383,
      "##oul": 4384,
      "##ley": 4385,
      "##cious": 4386,
      "parfois": 4387,
      "quoti": 4388,
      "##asuper": 4389,
      "dénergie": 4390,
      "##aboration": 4391,
      "doff": 4392,
      "##oser": 4393,
      "##osse": 4394,
      "liées": 4395,
      "nette": 4396,
      "avenue": 4397,
      "##illez": 4398,
      "##idé": 4399,
      "acces": 4400,
      "traités": 4401,
      "écoss": 4402,
      "lind": 4403,
      "boî": 4404,
      "sint": 4405,
      "frapp": 4406,
      "##érieures": 4407,
      "malt": 4408,
      "étrangère": 4409,
      "pouv": 4410,
      "poules": 4411,
      "utilisant": 4412,
      "indien": 4413,
      "wwwinfoexportgcca": 4414,
      "lentement": 4415,
      "lév": 4416,
      "##tical": 4417,
      "spécifiques": 4418,
      "china": 4419,
      "publique": 4420,
      "confir": 4421,
      "atteign": 4422,
      "évolu": 4423,
      "immédi": 4424,
      "australiens": 4425,
      "##ectares": 4426,
      "approxim": 4427,
      "pesti": 4428,
      "étiquetage": 4429,
      "désir": 4430,
      "provinci": 4431,
      "constante": 4432,
      "établissement": 4433,
      "extr": 4434,
      "privatis": 4435,
      "prend": 4436,
      "bud": 4437,
      "accroissement": 4438,
      "laccès": 4439,
      "déclaré": 4440,
      "##courriel": 4441,
      "élabor": 4442,
      "considérable": 4443,
      "autorisé": 4444,
      "road": 4445,
      "fréquent": 4446,
      "litres": 4447,
      "phytosanitaires": 4448,
      "chimique": 4449,
      "lorganisme": 4450,
      "obligatoire": 4451,
      "spécialisés": 4452,
      "campagne": 4453,
      "compagnies": 4454,
      "cellules": 4455,
      "produisent": 4456,
      "conversion": 4457,
      "##nswick": 4458,
      "signifie": 4459,
      "morce": 4460,
      "supplémentaires": 4461,
      "décennie": 4462,
      "gelées": 4463,
      "parasites": 4464,
      "métropolit": 4465,
      "embouteillée": 4466,
      "quotid": 4467,
      "gagn": 4468,
      "goû": 4469,
      "mill": 4470,
      "miel": 4471,
      "ru": 4472,
      "raies": 4473,
      "sac": 4474,
      "ton": 4475,
      "émis": 4476,
      "##térieur": 4477,
      "##dor": 4478,
      "##ira": 4479,
      "##fr": 4480,
      "##vres": 4481,
      "##ps": 4482,
      "##éh": 4483,
      "##ètes": 4484,
      "##nternet": 4485,
      "##uré": 4486,
      "##isé": 4487,
      "##aron": 4488,
      "lettre": 4489,
      "envis": 4490,
      "##usion": 4491,
      "##rice": 4492,
      "##antan": 4493,
      "##cieuse": 4494,
      "##onto": 4495,
      "déte": 4496,
      "défic": 4497,
      "déquipe": 4498,
      "plate": 4499,
      "examin": 4500,
      "market": 4501,
      "étend": 4502,
      "##ulaires": 4503,
      "référence": 4504,
      "##amé": 4505,
      "conven": 4506,
      "diam": 4507,
      "modes": 4508,
      "phénom": 4509,
      "préférences": 4510,
      "##get": 4511,
      "minéraux": 4512,
      "##utation": 4513,
      "demandes": 4514,
      "efficaces": 4515,
      "localement": 4516,
      "lextérieur": 4517,
      "dengrais": 4518,
      "organisations": 4519,
      "##rites": 4520,
      "disposition": 4521,
      "##ociation": 4522,
      "spécial": 4523,
      "confitures": 4524,
      "bruit": 4525,
      "arabe": 4526,
      "évolution": 4527,
      "##stronomie": 4528,
      "située": 4529,
      "nouvelleéc": 4530,
      "chiffrées": 4531,
      "accep": 4532,
      "douanières": 4533,
      "création": 4534,
      "ferment": 4535,
      "dinvestissement": 4536,
      "emballages": 4537,
      "travaille": 4538,
      "routes": 4539,
      "probablement": 4540,
      "labs": 4541,
      "labattage": 4542,
      "prennent": 4543,
      "scienti": 4544,
      "lieux": 4545,
      "cuisinés": 4546,
      "acia": 4547,
      "cestàdire": 4548,
      "laccord": 4549,
      "intéressés": 4550,
      "mentionnés": 4551,
      "promen": 4552,
      "solaire": 4553,
      "propriétaire": 4554,
      "calcul": 4555,
      "télescopes": 4556,
      "modalités": 4557,
      "genre": 4558,
      "tartinades": 4559,
      "##développ": 4560,
      "chercheurs": 4561,
      "objectifs": 4562,
      "supermarché": 4563,
      "solide": 4564,
      "idée": 4565,
      "radio": 4566,
      "carcasse": 4567,
      "séchées": 4568,
      "recettes": 4569,
      "pénétrer": 4570,
      "veuillez": 4571,
      "raffin": 4572,
      "chacun": 4573,
      "sommet": 4574,
      "identi": 4575,
      "chuté": 4576,
      "##book": 4577,
      "appréci": 4578,
      "minutes": 4579,
      "mexique": 4580,
      "résumé": 4581,
      "##asuperfamille": 4582,
      "aient": 4583,
      "br": 4584,
      "ben": 4585,
      "blo": 4586,
      "cul": 4587,
      "dad": 4588,
      "fum": 4589,
      "grig": 4590,
      "ide": 4591,
      "mises": 4592,
      "pq": 4593,
      "rien": 4594,
      "sû": 4595,
      "vali": 4596,
      "##ope": 4597,
      "##cle": 4598,
      "##count": 4599,
      "##tru": 4600,
      "##wich": 4601,
      "##gm": 4602,
      "##onal": 4603,
      "lav": 4604,
      "##roître": 4605,
      "##tel": 4606,
      "##usdagov": 4607,
      "prome": 4608,
      "##ails": 4609,
      "##liquent": 4610,
      "parall": 4611,
      "parvenir": 4612,
      "invis": 4613,
      "red": 4614,
      "réuss": 4615,
      "##ctuelle": 4616,
      "diagn": 4617,
      "##did": 4618,
      "##irs": 4619,
      "intelle": 4620,
      "liés": 4621,
      "liqu": 4622,
      "##chets": 4623,
      "croître": 4624,
      "augmentent": 4625,
      "génériques": 4626,
      "représentait": 4627,
      "pouvant": 4628,
      "annéeslumière": 4629,
      "marchésasie": 4630,
      "peutêtre": 4631,
      "suivie": 4632,
      "pâtiss": 4633,
      "répand": 4634,
      "##ignons": 4635,
      "partout": 4636,
      "particuliers": 4637,
      "insc": 4638,
      "marchandise": 4639,
      "situés": 4640,
      "bureaux": 4641,
      "salés": 4642,
      "créé": 4643,
      "associations": 4644,
      "kilogra": 4645,
      "farines": 4646,
      "meilleures": 4647,
      "urbains": 4648,
      "vende": 4649,
      "sanitaire": 4650,
      "égyptien": 4651,
      "mangent": 4652,
      "dominent": 4653,
      "aromatis": 4654,
      "centrale": 4655,
      "##jiang": 4656,
      "humaine": 4657,
      "lobjet": 4658,
      "décisions": 4659,
      "précédente": 4660,
      "lumineux": 4661,
      "exploite": 4662,
      "coentreprise": 4663,
      "microorganismes": 4664,
      "lafma": 4665,
      "cachers": 4666,
      "simil": 4667,
      "fluctu": 4668,
      "roupies": 4669,
      "appartenant": 4670,
      "pesticides": 4671,
      "nouvelleécosse": 4672,
      "scientifique": 4673,
      "grign": 4674,
      "aqu": 4675,
      "aig": 4676,
      "britannique": 4677,
      "dru": 4678,
      "eaux": 4679,
      "hommes": 4680,
      "ig": 4681,
      "journ": 4682,
      "muni": 4683,
      "nar": 4684,
      "neuf": 4685,
      "tran": 4686,
      "vos": 4687,
      "##oz": 4688,
      "##cons": 4689,
      "##rera": 4690,
      "##ament": 4691,
      "##sb": 4692,
      "##dité": 4693,
      "##ium": 4694,
      "##for": 4695,
      "##ption": 4696,
      "##èles": 4697,
      "##jsp": 4698,
      "##anie": 4699,
      "##erver": 4700,
      "##iniques": 4701,
      "##roph": 4702,
      "enquête": 4703,
      "enrich": 4704,
      "##neau": 4705,
      "aupar": 4706,
      "##rais": 4707,
      "##del": 4708,
      "quà": 4709,
      "dég": 4710,
      "inu": 4711,
      "incidence": 4712,
      "##quées": 4713,
      "##veur": 4714,
      "pourront": 4715,
      "##agent": 4716,
      "chargé": 4717,
      "reli": 4718,
      "importent": 4719,
      "annexe": 4720,
      "confi": 4721,
      "dici": 4722,
      "##diés": 4723,
      "##ditifs": 4724,
      "##érations": 4725,
      "##osuffis": 4726,
      "conte": 4727,
      "avi": 4728,
      "train": 4729,
      "appe": 4730,
      "détails": 4731,
      "lutte": 4732,
      "##léch": 4733,
      "boisson": 4734,
      "minér": 4735,
      "exporte": 4736,
      "monitor": 4737,
      "devra": 4738,
      "devront": 4739,
      "légère": 4740,
      "représentants": 4741,
      "transformée": 4742,
      "inconn": 4743,
      "httpwwwinfoexportgcc": 4744,
      "passée": 4745,
      "lexception": 4746,
      "sudcor": 4747,
      "##oyer": 4748,
      "autom": 4749,
      "##sible": 4750,
      "préparées": 4751,
      "exigés": 4752,
      "animal": 4753,
      "nordamé": 4754,
      "fair": 4755,
      "contenants": 4756,
      "conteneurs": 4757,
      "établie": 4758,
      "dentrée": 4759,
      "enregistrer": 4760,
      "##thme": 4761,
      "science": 4762,
      "déclin": 4763,
      "alli": 4764,
      "tourisme": 4765,
      "##rastructures": 4766,
      "modifié": 4767,
      "cuisson": 4768,
      "##agrca": 4769,
      "occidental": 4770,
      "pénur": 4771,
      "financier": 4772,
      "aura": 4773,
      "veulent": 4774,
      "telaviv": 4775,
      "miro": 4776,
      "simple": 4777,
      "##plom": 4778,
      "protég": 4779,
      "devenue": 4780,
      "côté": 4781,
      "trimestre": 4782,
      "brevets": 4783,
      "lautorité": 4784,
      "##dulcor": 4785,
      "lancé": 4786,
      "préoccupations": 4787,
      "histor": 4788,
      "fromage": 4789,
      "minhville": 4790,
      "voisins": 4791,
      "rythme": 4792,
      "canadaisraël": 4793,
      "lignes": 4794,
      "mayonn": 4795,
      "delicious": 4796,
      "morceaux": 4797,
      "goûts": 4798,
      "phénomène": 4799,
      "promenade": 4800,
      "promette": 4801,
      "diagnos": 4802,
      "auparavant": 4803,
      "nordaméric": 4804,
      "bro": 4805,
      "bran": 4806,
      "cau": 4807,
      "ham": 4808,
      "juri": 4809,
      "ki": 4810,
      "lus": 4811,
      "mg": 4812,
      "mété": 4813,
      "noy": 4814,
      "norme": 4815,
      "pt": 4816,
      "pie": 4817,
      "satt": 4818,
      "van": 4819,
      "xi": 4820,
      "yang": 4821,
      "yog": 4822,
      "énerg": 4823,
      "##sc": 4824,
      "##ses": 4825,
      "##lin": 4826,
      "##nons": 4827,
      "##fm": 4828,
      "##vé": 4829,
      "##mme": 4830,
      "##bli": 4831,
      "##ôles": 4832,
      "##uration": 4833,
      "##ane": 4834,
      "##ara": 4835,
      "##aland": 4836,
      "##alyse": 4837,
      "##ension": 4838,
      "parle": 4839,
      "##iepacifique": 4840,
      "quune": 4841,
      "déci": 4842,
      "##illon": 4843,
      "examen": 4844,
      "union": 4845,
      "##agé": 4846,
      "chose": 4847,
      "mariti": 4848,
      "surp": 4849,
      "consiste": 4850,
      "##icerie": 4851,
      "convient": 4852,
      "enterpr": 4853,
      "socc": 4854,
      "contrat": 4855,
      "##dson": 4856,
      "nex": 4857,
      "cesse": 4858,
      "linvestissement": 4859,
      "##ariats": 4860,
      "##roup": 4861,
      "dépit": 4862,
      "ministre": 4863,
      "représenté": 4864,
      "incons": 4865,
      "renouve": 4866,
      "utilisent": 4867,
      "indonesia": 4868,
      "marchéslas": 4869,
      "httpwwwe": 4870,
      "gouvernementales": 4871,
      "relève": 4872,
      "##ublic": 4873,
      "vietnamien": 4874,
      "she": 4875,
      "shi": 4876,
      "lép": 4877,
      "##aintes": 4878,
      "##auté": 4879,
      "progrès": 4880,
      "sousse": 4881,
      "portant": 4882,
      "proviennent": 4883,
      "industriels": 4884,
      "considérés": 4885,
      "crise": 4886,
      "possibilité": 4887,
      "longtemps": 4888,
      "létablissement": 4889,
      "comprendre": 4890,
      "color": 4891,
      "dhabit": 4892,
      "lappui": 4893,
      "dapprovisionnement": 4894,
      "partenariats": 4895,
      "retrou": 4896,
      "figurent": 4897,
      "équipement": 4898,
      "facilement": 4899,
      "lintention": 4900,
      "occupent": 4901,
      "procédure": 4902,
      "stratégies": 4903,
      "delhi": 4904,
      "éloig": 4905,
      "instructions": 4906,
      "démographique": 4907,
      "physique": 4908,
      "institute": 4909,
      "garantir": 4910,
      "affiche": 4911,
      "œufs": 4912,
      "dentreposage": 4913,
      "approuvés": 4914,
      "daccroître": 4915,
      "résidus": 4916,
      "exclus": 4917,
      "attirer": 4918,
      "travaillent": 4919,
      "ccg": 4920,
      "éventail": 4921,
      "compagnie": 4922,
      "stimuler": 4923,
      "observer": 4924,
      "oléagineuses": 4925,
      "garçon": 4926,
      "régulièrement": 4927,
      "manipul": 4928,
      "département": 4929,
      "climat": 4930,
      "frontière": 4931,
      "électronique": 4932,
      "clientèle": 4933,
      "toronto": 4934,
      "mettent": 4935,
      "infrarouge": 4936,
      "multinationales": 4937,
      "tabac": 4938,
      "##hésion": 4939,
      "jalan": 4940,
      "lindonésie": 4941,
      "intellectuelle": 4942,
      "juridi": 4943,
      "marchéslasiepacifique": 4944,
      "bons": 4945,
      "baiss": 4946,
      "cà": 4947,
      "cac": 4948,
      "crab": 4949,
      "fau": 4950,
      "nat": 4951,
      "pens": 4952,
      "qc": 4953,
      "rac": 4954,
      "sommes": 4955,
      "tourn": 4956,
      "val": 4957,
      "vall": 4958,
      "vidé": 4959,
      "wh": 4960,
      "ze": 4961,
      "##aît": 4962,
      "##fas": 4963,
      "##vège": 4964,
      "##hy": 4965,
      "##gro": 4966,
      "##gène": 4967,
      "##mage": 4968,
      "##éb": 4969,
      "##bation": 4970,
      "##qsi": 4971,
      "##nternationalgcca": 4972,
      "##anmar": 4973,
      "##erme": 4974,
      "##isée": 4975,
      "last": 4976,
      "##remp": 4977,
      "##ori": 4978,
      "##indust": 4979,
      "etou": 4980,
      "##mention": 4981,
      "ense": 4982,
      "##tell": 4983,
      "##duc": 4984,
      "##rael": 4985,
      "##lets": 4986,
      "##quée": 4987,
      "sector": 4988,
      "##ulation": 4989,
      "commence": 4990,
      "concept": 4991,
      "convention": 4992,
      "##ureau": 4993,
      "mous": 4994,
      "agrumes": 4995,
      "pouss": 4996,
      "##atement": 4997,
      "##atell": 4998,
      "##érêts": 4999,
      "##irdf": 5000,
      "contamin": 5001,
      "teint": 5002,
      "##aculture": 5003,
      "avanc": 5004,
      "##buck": 5005,
      "##ologique": 5006,
      "ondes": 5007,
      "vient": 5008,
      "noms": 5009,
      "moyennes": 5010,
      "objets": 5011,
      "servant": 5012,
      "##pharm": 5013,
      "mindan": 5014,
      "restre": 5015,
      "thon": 5016,
      "##imal": 5017,
      "##érieurs": 5018,
      "égard": 5019,
      "addition": 5020,
      "httpats": 5021,
      "arr": 5022,
      "arb": 5023,
      "artif": 5024,
      "décri": 5025,
      "supers": 5026,
      "établis": 5027,
      "certaine": 5028,
      "manif": 5029,
      "infrastructures": 5030,
      "claire": 5031,
      "graisses": 5032,
      "derrière": 5033,
      "visent": 5034,
      "visib": 5035,
      "dispose": 5036,
      "spéciales": 5037,
      "particulière": 5038,
      "##ayas": 5039,
      "montrent": 5040,
      "montréal": 5041,
      "instantan": 5042,
      "actif": 5043,
      "américaine": 5044,
      "associés": 5045,
      "##romagn": 5046,
      "planètes": 5047,
      "count": 5048,
      "publicité": 5049,
      "maintenir": 5050,
      "modifications": 5051,
      "fondament": 5052,
      "prêt": 5053,
      "employ": 5054,
      "celuici": 5055,
      "nestle": 5056,
      "saveurs": 5057,
      "observatoire": 5058,
      "électromagn": 5059,
      "nouveaubru": 5060,
      "regard": 5061,
      "évaluation": 5062,
      "concentrés": 5063,
      "vivant": 5064,
      "tirant": 5065,
      "élarg": 5066,
      "seuls": 5067,
      "golden": 5068,
      "susmention": 5069,
      "livrais": 5070,
      "myanmar": 5071,
      "officielle": 5072,
      "oléagineux": 5073,
      "milk": 5074,
      "assurance": 5075,
      "renforcer": 5076,
      "cultivées": 5077,
      "professionnels": 5078,
      "libéralisation": 5079,
      "classification": 5080,
      "emploie": 5081,
      "jerusalem": 5082,
      "soutenue": 5083,
      "bancaire": 5084,
      "norvège": 5085,
      "échantillons": 5086,
      "##ribue": 5087,
      "argentine": 5088,
      "ultra": 5089,
      "déficit": 5090,
      "labsence": 5091,
      "contexte": 5092,
      "càd": 5093,
      "##qsiq": 5094,
      "mindanao": 5095,
      "nouveaubrunswick": 5096,
      "ast": 5097,
      "aéroport": 5098,
      "ble": 5099,
      "colu": 5100,
      "fur": 5101,
      "fille": 5102,
      "hi": 5103,
      "hai": 5104,
      "ke": 5105,
      "ku": 5106,
      "king": 5107,
      "mère": 5108,
      "mand": 5109,
      "orange": 5110,
      "pôles": 5111,
      "solution": 5112,
      "sassurer": 5113,
      "sttel": 5114,
      "termin": 5115,
      "ving": 5116,
      "willi": 5117,
      "édulcor": 5118,
      "##cules": 5119,
      "##eci": 5120,
      "##dy": 5121,
      "##lent": 5122,
      "##ygiène": 5123,
      "##gers": 5124,
      "##gique": 5125,
      "##mises": 5126,
      "##mop": 5127,
      "##ua": 5128,
      "##bo": 5129,
      "##kh": 5130,
      "##èse": 5131,
      "##ômage": 5132,
      "##âtre": 5133,
      "lambassade": 5134,
      "##ores": 5135,
      "##ini": 5136,
      "lesp": 5137,
      "##endu": 5138,
      "##ombre": 5139,
      "##oun": 5140,
      "productivité": 5141,
      "##cial": 5142,
      "##cipe": 5143,
      "déri": 5144,
      "charg": 5145,
      "importée": 5146,
      "##ication": 5147,
      "##ctes": 5148,
      "divis": 5149,
      "diplom": 5150,
      "mot": 5151,
      "pav": 5152,
      "auxque": 5153,
      "intérêts": 5154,
      "##vern": 5155,
      "annoncé": 5156,
      "liran": 5157,
      "codes": 5158,
      "stable": 5159,
      "valeurs": 5160,
      "interdit": 5161,
      "onde": 5162,
      "face": 5163,
      "accél": 5164,
      "commercialiser": 5165,
      "traité": 5166,
      "vive": 5167,
      "appu": 5168,
      "appli": 5169,
      "courante": 5170,
      "carnés": 5171,
      "généraux": 5172,
      "##file": 5173,
      "souff": 5174,
      "malheure": 5175,
      "gouvernements": 5176,
      "indienne": 5177,
      "perç": 5178,
      "pertin": 5179,
      "cliniques": 5180,
      "doute": 5181,
      "gras": 5182,
      "##asses": 5183,
      "actuelles": 5184,
      "recue": 5185,
      "##oya": 5186,
      "sécher": 5187,
      "autour": 5188,
      "exige": 5189,
      "sites": 5190,
      "réputation": 5191,
      "pointe": 5192,
      "nordest": 5193,
      "portu": 5194,
      "portent": 5195,
      "attention": 5196,
      "formes": 5197,
      "imm": 5198,
      "poste": 5199,
      "périodes": 5200,
      "enregistrement": 5201,
      "indique": 5202,
      "amér": 5203,
      "concernés": 5204,
      "éché": 5205,
      "dexpédition": 5206,
      "##aissance": 5207,
      "conformes": 5208,
      "caractères": 5209,
      "positive": 5210,
      "collaboration": 5211,
      "facile": 5212,
      "lexploitation": 5213,
      "mentionnons": 5214,
      "estimée": 5215,
      "concentré": 5216,
      "conséquences": 5217,
      "résultat": 5218,
      "déclaration": 5219,
      "fraîche": 5220,
      "dessai": 5221,
      "licences": 5222,
      "aspect": 5223,
      "affiché": 5224,
      "favorise": 5225,
      "bilatéraux": 5226,
      "plein": 5227,
      "circuits": 5228,
      "sensibil": 5229,
      "céleste": 5230,
      "construction": 5231,
      "compétitivité": 5232,
      "faciliter": 5233,
      "assujettis": 5234,
      "ccd": 5235,
      "accrues": 5236,
      "starbuck": 5237,
      "transfert": 5238,
      "coordination": 5239,
      "rivière": 5240,
      "street": 5241,
      "souhaitent": 5242,
      "griller": 5243,
      "voici": 5244,
      "soupes": 5245,
      "##quisition": 5246,
      "cidessous": 5247,
      "sondage": 5248,
      "protéines": 5249,
      "coton": 5250,
      "papier": 5251,
      "tokyo": 5252,
      "guide": 5253,
      "budget": 5254,
      "tonalité": 5255,
      "diamètre": 5256,
      "pâtisseries": 5257,
      "confiance": 5258,
      "mayonnaise": 5259,
      "##fasusdagov": 5260,
      "restreint": 5261,
      "william": 5262,
      "beng": 5263,
      "cp": 5264,
      "cali": 5265,
      "cid": 5266,
      "fri": 5267,
      "fres": 5268,
      "hectares": 5269,
      "pomm": 5270,
      "paie": 5271,
      "ram": 5272,
      "saison": 5273,
      "utiles": 5274,
      "vr": 5275,
      "wal": 5276,
      "##oï": 5277,
      "##odi": 5278,
      "##tées": 5279,
      "##rons": 5280,
      "##dom": 5281,
      "##faitmaeci": 5282,
      "##her": 5283,
      "##ga": 5284,
      "##ument": 5285,
      "##anas": 5286,
      "##ands": 5287,
      "lavenir": 5288,
      "lachat": 5289,
      "##index": 5290,
      "lett": 5291,
      "lecteurs": 5292,
      "proxim": 5293,
      "##ources": 5294,
      "##ray": 5295,
      "##raction": 5296,
      "##rador": 5297,
      "##cil": 5298,
      "quest": 5299,
      "plais": 5300,
      "##quie": 5301,
      "pourra": 5302,
      "seg": 5303,
      "##agon": 5304,
      "chiens": 5305,
      "chômage": 5306,
      "reçu": 5307,
      "commod": 5308,
      "##ffic": 5309,
      "réalisation": 5310,
      "réception": 5311,
      "##ications": 5312,
      "##issage": 5313,
      "##atio": 5314,
      "dolive": 5315,
      "##ight": 5316,
      "soins": 5317,
      "contiennent": 5318,
      "neige": 5319,
      "transitaires": 5320,
      "style": 5321,
      "saine": 5322,
      "##lish": 5323,
      "bibli": 5324,
      "accéder": 5325,
      "écoz": 5326,
      "##péra": 5327,
      "siè": 5328,
      "orbit": 5329,
      "exprim": 5330,
      "terrain": 5331,
      "reprise": 5332,
      "soutenir": 5333,
      "additifs": 5334,
      "##cherche": 5335,
      "rencont": 5336,
      "indiennes": 5337,
      "générales": 5338,
      "infoexport": 5339,
      "inférieure": 5340,
      "singapouriens": 5341,
      "vietnamiens": 5342,
      "final": 5343,
      "visayas": 5344,
      "préparer": 5345,
      "exigent": 5346,
      "conforme": 5347,
      "nov": 5348,
      "situé": 5349,
      "situations": 5350,
      "##comsg": 5351,
      "industriel": 5352,
      "considéré": 5353,
      "indiqué": 5354,
      "nécessité": 5355,
      "boute": 5356,
      "health": 5357,
      "réduit": 5358,
      "ajoute": 5359,
      "##bell": 5360,
      "demeur": 5361,
      "naturel": 5362,
      "enregistrés": 5363,
      "prati": 5364,
      "dhu": 5365,
      "partenariat": 5366,
      "version": 5367,
      "ajouté": 5368,
      "glace": 5369,
      "##aiefr": 5370,
      "grossi": 5371,
      "défis": 5372,
      "lintérieur": 5373,
      "exploitations": 5374,
      "capitaux": 5375,
      "spir": 5376,
      "signé": 5377,
      "européens": 5378,
      "piz": 5379,
      "territoires": 5380,
      "dimporter": 5381,
      "dimportants": 5382,
      "élève": 5383,
      "continuera": 5384,
      "inspections": 5385,
      "dabord": 5386,
      "comptant": 5387,
      "##dfaitmaecigcc": 5388,
      "flor": 5389,
      "james": 5390,
      "offertes": 5391,
      "##play": 5392,
      "incluent": 5393,
      "obstacle": 5394,
      "sensibles": 5395,
      "connaissance": 5396,
      "stocks": 5397,
      "défini": 5398,
      "exclu": 5399,
      "##otines": 5400,
      "assujetties": 5401,
      "entrepôts": 5402,
      "brevet": 5403,
      "complex": 5404,
      "disposent": 5405,
      "##alogue": 5406,
      "coentreprises": 5407,
      "encourage": 5408,
      "copie": 5409,
      "énoncées": 5410,
      "bilatérales": 5411,
      "dévaluation": 5412,
      "quartier": 5413,
      "##coil": 5414,
      "excédent": 5415,
      "danger": 5416,
      "luniversité": 5417,
      "fisc": 5418,
      "##genre": 5419,
      "belgique": 5420,
      "coûteux": 5421,
      "##gojp": 5422,
      "israeli": 5423,
      "ralentissement": 5424,
      "rafraîchissante": 5425,
      "approximativement": 5426,
      "invisible": 5427,
      "grignotines": 5428,
      "aigre": 5429,
      "diagnostic": 5430,
      "caution": 5431,
      "lusine": 5432,
      "yogour": 5433,
      "exclusi": 5434,
      "cacao": 5435,
      "country": 5436,
      "columb": 5437,
      "lettres": 5438,
      "adul": 5439,
      "bri": 5440,
      "don": 5441,
      "durs": 5442,
      "fid": 5443,
      "hô": 5444,
      "iq": 5445,
      "kow": 5446,
      "nations": 5447,
      "pin": 5448,
      "père": 5449,
      "sang": 5450,
      "viennent": 5451,
      "win": 5452,
      "yen": 5453,
      "##opéra": 5454,
      "##cl": 5455,
      "##aqu": 5456,
      "##eï": 5457,
      "##eau": 5458,
      "##dn": 5459,
      "##daefamille": 5460,
      "##ny": 5461,
      "##ijing": 5462,
      "##vés": 5463,
      "##gé": 5464,
      "##még": 5465,
      "##bor": 5466,
      "##zon": 5467,
      "##ki": 5468,
      "##jer": 5469,
      "##nth": 5470,
      "##tilles": 5471,
      "lal": 5472,
      "##orp": 5473,
      "##alue": 5474,
      "##encent": 5475,
      "##ueux": 5476,
      "##antic": 5477,
      "##nelles": 5478,
      "##rasp": 5479,
      "produite": 5480,
      "parf": 5481,
      "déchets": 5482,
      "##quemment": 5483,
      "invent": 5484,
      "innov": 5485,
      "semis": 5486,
      "chili": 5487,
      "reç": 5488,
      "##abil": 5489,
      "prée": 5490,
      "consci": 5491,
      "sui": 5492,
      "##prit": 5493,
      "moindre": 5494,
      "##ilding": 5495,
      "intention": 5496,
      "intensi": 5497,
      "##pecteur": 5498,
      "##oses": 5499,
      "passe": 5500,
      "##ventions": 5501,
      "consommés": 5502,
      "coopéra": 5503,
      "##ologie": 5504,
      "interac": 5505,
      "##ouse": 5506,
      "##onnor": 5507,
      "##breu": 5508,
      "application": 5509,
      "luçon": 5510,
      "lucra": 5511,
      "##aliste": 5512,
      "##aceae": 5513,
      "meat": 5514,
      "devant": 5515,
      "deviennent": 5516,
      "##ood": 5517,
      "alas": 5518,
      "##ctives": 5519,
      "dav": 5520,
      "arctique": 5521,
      "poulets": 5522,
      "présents": 5523,
      "utilisations": 5524,
      "perdu": 5525,
      "gouvernementaux": 5526,
      "wwwc": 5527,
      "##umer": 5528,
      "##otech": 5529,
      "vietnamienne": 5530,
      "mesurer": 5531,
      "visible": 5532,
      "recense": 5533,
      "propose": 5534,
      "autosuffis": 5535,
      "pâte": 5536,
      "##minute": 5537,
      "répons": 5538,
      "atom": 5539,
      "domes": 5540,
      "nordouest": 5541,
      "formation": 5542,
      "industrielle": 5543,
      "contraintes": 5544,
      "oconnor": 5545,
      "continuer": 5546,
      "##mart": 5547,
      "##market": 5548,
      "estimé": 5549,
      "publication": 5550,
      "demeurer": 5551,
      "dentreprise": 5552,
      "désire": 5553,
      "modification": 5554,
      "étudi": 5555,
      "épices": 5556,
      "privil": 5557,
      "shanghaï": 5558,
      "conformer": 5559,
      "building": 5560,
      "délicieuse": 5561,
      "touristes": 5562,
      "##roduction": 5563,
      "kilo": 5564,
      "laitière": 5565,
      "puisqu": 5566,
      "semence": 5567,
      "cellesci": 5568,
      "accordé": 5569,
      "traditionnel": 5570,
      "quatri": 5571,
      "essentiel": 5572,
      "meilleur": 5573,
      "réfrigérés": 5574,
      "espace": 5575,
      "espagne": 5576,
      "occidentale": 5577,
      "estimations": 5578,
      "concentrer": 5579,
      "jeune": 5580,
      "procéder": 5581,
      "urban": 5582,
      "##osher": 5583,
      "joue": 5584,
      "révèle": 5585,
      "organiz": 5586,
      "arrive": 5587,
      "franchises": 5588,
      "mélanges": 5589,
      "institution": 5590,
      "revanche": 5591,
      "consacrées": 5592,
      "approuvé": 5593,
      "célestes": 5594,
      "compétences": 5595,
      "concurrentiel": 5596,
      "feuille": 5597,
      "axée": 5598,
      "différences": 5599,
      "lasiepacifique": 5600,
      "lesquelles": 5601,
      "lassociation": 5602,
      "bilatéral": 5603,
      "équiv": 5604,
      "unilever": 5605,
      "caméra": 5606,
      "##rolab": 5607,
      "éclat": 5608,
      "chambres": 5609,
      "conjoint": 5610,
      "##canad": 5611,
      "##lacement": 5612,
      "applicables": 5613,
      "##document": 5614,
      "révélé": 5615,
      "rigour": 5616,
      "procurer": 5617,
      "supervis": 5618,
      "législation": 5619,
      "extrême": 5620,
      "privatisation": 5621,
      "gagné": 5622,
      "##développement": 5623,
      "##truction": 5624,
      "##jspdid": 5625,
      "aviaire": 5626,
      "inconnue": 5627,
      "météor": 5628,
      "inconsomm": 5629,
      "dhabitants": 5630,
      "zealand": 5631,
      "##industry": 5632,
      "électromagnétique": 5633,
      "malheureusement": 5634,
      "starbucks": 5635,
      "cidre": 5636,
      "##playdocument": 5637,
      "koweï": 5638,
      "préemball": 5639,
      "organization": 5640,
      "##playdocumentjspdid": 5641,
      "ara": 5642,
      "big": 5643,
      "bak": 5644,
      "dès": 5645,
      "dass": 5646,
      "foi": 5647,
      "fir": 5648,
      "ferm": 5649,
      "gommes": 5650,
      "hs": 5651,
      "jak": 5652,
      "lî": 5653,
      "méri": 5654,
      "ng": 5655,
      "pure": 5656,
      "rare": 5657,
      "satell": 5658,
      "tam": 5659,
      "tribu": 5660,
      "tenir": 5661,
      "tva": 5662,
      "vill": 5663,
      "##ozél": 5664,
      "##cé": 5665,
      "##tu": 5666,
      "##rin": 5667,
      "##aître": 5668,
      "##son": 5669,
      "##vén": 5670,
      "##vous": 5671,
      "##pule": 5672,
      "##http": 5673,
      "##yl": 5674,
      "##gées": 5675,
      "##gence": 5676,
      "##ume": 5677,
      "##bc": 5678,
      "##zaines": 5679,
      "##once": 5680,
      "##tile": 5681,
      "##isp": 5682,
      "las": 5683,
      "lavis": 5684,
      "##orer": 5685,
      "##orge": 5686,
      "##omètre": 5687,
      "##teau": 5688,
      "##cha": 5689,
      "##raft": 5690,
      "##strategis": 5691,
      "##dec": 5692,
      "##dements": 5693,
      "quin": 5694,
      "quau": 5695,
      "quali": 5696,
      "dén": 5697,
      "exactitude": 5698,
      "##ataires": 5699,
      "estàdire": 5700,
      "##apes": 5701,
      "##sier": 5702,
      "##sionn": 5703,
      "##ulé": 5704,
      "réun": 5705,
      "##cter": 5706,
      "##pring": 5707,
      "agré": 5708,
      "##igh": 5709,
      "##igation": 5710,
      "entreposage": 5711,
      "##osp": 5712,
      "##ustom": 5713,
      "compter": 5714,
      "##verse": 5715,
      "conting": 5716,
      "touchant": 5717,
      "transpar": 5718,
      "transporte": 5719,
      "cess": 5720,
      "station": 5721,
      "principes": 5722,
      "dollar": 5723,
      "crous": 5724,
      "##etti": 5725,
      "linst": 5726,
      "carling": 5727,
      "génétiques": 5728,
      "souci": 5729,
      "coréens": 5730,
      "dispar": 5731,
      "régionales": 5732,
      "transformé": 5733,
      "transformées": 5734,
      "mak": 5735,
      "maeci": 5736,
      "incit": 5737,
      "usine": 5738,
      "suivre": 5739,
      "visites": 5740,
      "synth": 5741,
      "spéciaux": 5742,
      "abond": 5743,
      "néozél": 5744,
      "perman": 5745,
      "##aysi": 5746,
      "bruné": 5747,
      "montagnes": 5748,
      "montmég": 5749,
      "attest": 5750,
      "provient": 5751,
      "australien": 5752,
      "considèrent": 5753,
      "limites": 5754,
      "seconde": 5755,
      "subventions": 5756,
      "doré": 5757,
      "lenquête": 5758,
      "indiquer": 5759,
      "individ": 5760,
      "##ainf": 5761,
      "amen": 5762,
      "longueur": 5763,
      "##ministère": 5764,
      "prescrip": 5765,
      "récents": 5766,
      "récentes": 5767,
      "amélioration": 5768,
      "technici": 5769,
      "employés": 5770,
      "prévue": 5771,
      "responsables": 5772,
      "cuisines": 5773,
      "lapplication": 5774,
      "##airs": 5775,
      "itc": 5776,
      "seraient": 5777,
      "traditionnelles": 5778,
      "optique": 5779,
      "électrique": 5780,
      "personnesress": 5781,
      "appartient": 5782,
      "analy": 5783,
      "signature": 5784,
      "feder": 5785,
      "requis": 5786,
      "financières": 5787,
      "géographie": 5788,
      "pharmaceutical": 5789,
      "débuts": 5790,
      "dessais": 5791,
      "biotechnologique": 5792,
      "biotechnologies": 5793,
      "familiers": 5794,
      "charbon": 5795,
      "organiques": 5796,
      "possèdent": 5797,
      "favorables": 5798,
      "supermarket": 5799,
      "substitu": 5800,
      "macaron": 5801,
      "médias": 5802,
      "remplac": 5803,
      "suffisamment": 5804,
      "aiment": 5805,
      "fret": 5806,
      "carcasses": 5807,
      "observe": 5808,
      "manioc": 5809,
      "conclusion": 5810,
      "conclusions": 5811,
      "totalisant": 5812,
      "voyageurs": 5813,
      "surgelés": 5814,
      "expéditions": 5815,
      "remarqu": 5816,
      "médec": 5817,
      "endroits": 5818,
      "galaxies": 5819,
      "rabbin": 5820,
      "author": 5821,
      "turquie": 5822,
      "irrigation": 5823,
      "sandwich": 5824,
      "doffrir": 5825,
      "métropolitaine": 5826,
      "liquide": 5827,
      "similaires": 5828,
      "municip": 5829,
      "narration": 5830,
      "httpwwwinfoexportgccaiefr": 5831,
      "noyau": 5832,
      "pied": 5833,
      "arrondie": 5834,
      "supersol": 5835,
      "clairement": 5836,
      "sécheresse": 5837,
      "paiements": 5838,
      "proximité": 5839,
      "commodité": 5840,
      "bibliographie": 5841,
      "siècle": 5842,
      "excluant": 5843,
      "columbia": 5844,
      "alaska": 5845,
      "recensement": 5846,
      "quatrième": 5847,
      "lîle": 5848,
      "néozélandais": 5849,
      "montmégantic": 5850,
      "amb": 5851,
      "atil": 5852,
      "apec": 5853,
      "bag": 5854,
      "bact": 5855,
      "bay": 5856,
      "cri": 5857,
      "cif": 5858,
      "camb": 5859,
      "ding": 5860,
      "daprès": 5861,
      "gau": 5862,
      "gag": 5863,
      "hen": 5864,
      "jon": 5865,
      "kh": 5866,
      "lis": 5867,
      "mol": 5868,
      "meu": 5869,
      "note": 5870,
      "north": 5871,
      "page": 5872,
      "puri": 5873,
      "sor": 5874,
      "sin": 5875,
      "sam": 5876,
      "sys": 5877,
      "susse": 5878,
      "tém": 5879,
      "west": 5880,
      "##actions": 5881,
      "##sor": 5882,
      "##na": 5883,
      "##naires": 5884,
      "##iche": 5885,
      "##xy": 5886,
      "##pt": 5887,
      "##ham": 5888,
      "##gyp": 5889,
      "##zh": 5890,
      "##ña": 5891,
      "##essource": 5892,
      "##itations": 5893,
      "##itob": 5894,
      "laqsiq": 5895,
      "##arde": 5896,
      "##ory": 5897,
      "##orce": 5898,
      "##ories": 5899,
      "##omas": 5900,
      "proje": 5901,
      "##lioration": 5902,
      "##cice": 5903,
      "##sta": 5904,
      "dérable": 5905,
      "##agh": 5906,
      "##agriculture": 5907,
      "chou": 5908,
      "ceci": 5909,
      "mark": 5910,
      "étapes": 5911,
      "##met": 5912,
      "annexes": 5913,
      "conception": 5914,
      "suff": 5915,
      "##illir": 5916,
      "##ppe": 5917,
      "##cture": 5918,
      "dig": 5919,
      "dirig": 5920,
      "diété": 5921,
      "##érit": 5922,
      "entrant": 5923,
      "exportent": 5924,
      "exportsource": 5925,
      "##étaires": 5926,
      "##peg": 5927,
      "##mpur": 5928,
      "comporte": 5929,
      "##mique": 5930,
      "##univers": 5931,
      "php": 5932,
      "phil": 5933,
      "stpo": 5934,
      "fao": 5935,
      "faveur": 5936,
      "trading": 5937,
      "##onnées": 5938,
      "courants": 5939,
      "cadres": 5940,
      "##fice": 5941,
      "thomas": 5942,
      "exper": 5943,
      "med": 5944,
      "mei": 5945,
      "melb": 5946,
      "soumettre": 5947,
      "malaysi": 5948,
      "régionale": 5949,
      "dache": 5950,
      "assaison": 5951,
      "développe": 5952,
      "##issez": 5953,
      "manitob": 5954,
      "info": 5955,
      "suivis": 5956,
      "chiches": 5957,
      "douzaines": 5958,
      "vietnamtél": 5959,
      "affir": 5960,
      "##option": 5961,
      "actuel": 5962,
      "##olet": 5963,
      "abats": 5964,
      "riche": 5965,
      "progression": 5966,
      "dépensent": 5967,
      "catalogue": 5968,
      "profonde": 5969,
      "provo": 5970,
      "lanalyse": 5971,
      "salons": 5972,
      "considérée": 5973,
      "essor": 5974,
      "relatifs": 5975,
      "astronomiques": 5976,
      "dorge": 5977,
      "dorganismes": 5978,
      "indice": 5979,
      "originaires": 5980,
      "plani": 5981,
      "hudson": 5982,
      "blue": 5983,
      "constamment": 5984,
      "colza": 5985,
      "dexamen": 5986,
      "conformité": 5987,
      "allég": 5988,
      "collations": 5989,
      "améliorations": 5990,
      "lorigine": 5991,
      "metro": 5992,
      "##usses": 5993,
      "celleci": 5994,
      "limportance": 5995,
      "personnel": 5996,
      "spagh": 5997,
      "énorm": 5998,
      "signal": 5999,
      "sanitaires": 6000,
      "trouvera": 6001,
      "géographiques": 6002,
      "essentiels": 6003,
      "auront": 6004,
      "taxes": 6005,
      "anti": 6006,
      "modèle": 6007,
      "comptaient": 6008,
      "accorde": 6009,
      "directrices": 6010,
      "permettant": 6011,
      "autorisés": 6012,
      "fréquemment": 6013,
      "rayon": 6014,
      "diversification": 6015,
      "recommandé": 6016,
      "jouissent": 6017,
      "favorable": 6018,
      "connaissent": 6019,
      "poly": 6020,
      "lorsquil": 6021,
      "solides": 6022,
      "côti": 6023,
      "travailler": 6024,
      "palme": 6025,
      "éventuels": 6026,
      "##bury": 6027,
      "différence": 6028,
      "marquée": 6029,
      "histoire": 6030,
      "active": 6031,
      "multiplication": 6032,
      "expérience": 6033,
      "substances": 6034,
      "cosm": 6035,
      "fédération": 6036,
      "apportées": 6037,
      "endroit": 6038,
      "visiteurs": 6039,
      "taiwan": 6040,
      "événements": 6041,
      "vendues": 6042,
      "osaka": 6043,
      "##onneressource": 6044,
      "miguel": 6045,
      "hébreu": 6046,
      "péremp": 6047,
      "tomates": 6048,
      "lamélioration": 6049,
      "immédiatement": 6050,
      "désirent": 6051,
      "déquipements": 6052,
      "kilogrammes": 6053,
      "drug": 6054,
      "appelé": 6055,
      "minérale": 6056,
      "crabe": 6057,
      "lastrolab": 6058,
      "artificie": 6059,
      "livraison": 6060,
      "##vernment": 6061,
      "amérind": 6062,
      "échéant": 6063,
      "califor": 6064,
      "segments": 6065,
      "##fficacité": 6066,
      "suivent": 6067,
      "supervision": 6068,
      "extrêmement": 6069,
      "préemballés": 6070,
      "analystes": 6071,
      "authority": 6072,
      "sussex": 6073,
      "témoig": 6074,
      "ber": 6075,
      "béb": 6076,
      "cia": 6077,
      "city": 6078,
      "dong": 6079,
      "datt": 6080,
      "dassurer": 6081,
      "east": 6082,
      "fera": 6083,
      "gi": 6084,
      "hote": 6085,
      "homme": 6086,
      "ie": 6087,
      "ine": 6088,
      "ied": 6089,
      "jl": 6090,
      "kar": 6091,
      "ket": 6092,
      "kraft": 6093,
      "mens": 6094,
      "massi": 6095,
      "ogm": 6096,
      "ste": 6097,
      "sdn": 6098,
      "spring": 6099,
      "tang": 6100,
      "water": 6101,
      "yuk": 6102,
      "##oce": 6103,
      "##cis": 6104,
      "##rations": 6105,
      "##way": 6106,
      "##line": 6107,
      "##lut": 6108,
      "##fer": 6109,
      "##pâ": 6110,
      "##pal": 6111,
      "##produ": 6112,
      "##pèces": 6113,
      "##gue": 6114,
      "##éphone": 6115,
      "##èce": 6116,
      "##anes": 6117,
      "##itueux": 6118,
      "laff": 6119,
      "laos": 6120,
      "##rene": 6121,
      "##ary": 6122,
      "##arta": 6123,
      "##orie": 6124,
      "##orage": 6125,
      "##inée": 6126,
      "##roissement": 6127,
      "lest": 6128,
      "leban": 6129,
      "##ennes": 6130,
      "##rivée": 6131,
      "proche": 6132,
      "prolong": 6133,
      "##nez": 6134,
      "##chup": 6135,
      "##lière": 6136,
      "##cier": 6137,
      "##ielles": 6138,
      "##ansour": 6139,
      "##ster": 6140,
      "##stats": 6141,
      "##deasuperfamille": 6142,
      "##quaculture": 6143,
      "##illé": 6144,
      "##atri": 6145,
      "##ataire": 6146,
      "cham": 6147,
      "marme": 6148,
      "étage": 6149,
      "##oile": 6150,
      "##oiles": 6151,
      "conserver": 6152,
      "##iction": 6153,
      "##prin": 6154,
      "entrent": 6155,
      "exportées": 6156,
      "intrants": 6157,
      "##ctement": 6158,
      "##peti": 6159,
      "composition": 6160,
      "##verg": 6161,
      "##aliers": 6162,
      "##sses": 6163,
      "nett": 6164,
      "##iseaux": 6165,
      "stations": 6166,
      "avons": 6167,
      "##ington": 6168,
      "priorité": 6169,
      "interro": 6170,
      "bioin": 6171,
      "courant": 6172,
      "##alisée": 6173,
      "conclure": 6174,
      "géné": 6175,
      "resser": 6176,
      "expliquer": 6177,
      "fraise": 6178,
      "##édou": 6179,
      "fournies": 6180,
      "adéqu": 6181,
      "adhésion": 6182,
      "##acts": 6183,
      "main": 6184,
      "##nipeg": 6185,
      "décro": 6186,
      "restent": 6187,
      "développé": 6188,
      "présentement": 6189,
      "usage": 6190,
      "perform": 6191,
      "httpwwwinfoexportgcca": 6192,
      "passable": 6193,
      "affect": 6194,
      "magn": 6195,
      "organisé": 6196,
      "##oyage": 6197,
      "aband": 6198,
      "social": 6199,
      "népal": 6200,
      "permise": 6201,
      "montants": 6202,
      "inspect": 6203,
      "portes": 6204,
      "attendre": 6205,
      "former": 6206,
      "associées": 6207,
      "ferro": 6208,
      "dinf": 6209,
      "indiqués": 6210,
      "végétar": 6211,
      "terrestre": 6212,
      "universal": 6213,
      "universités": 6214,
      "enregistrée": 6215,
      "métriques": 6216,
      "fonctions": 6217,
      "larrivée": 6218,
      "positifs": 6219,
      "collabor": 6220,
      "asiatiques": 6221,
      "touristique": 6222,
      "vergers": 6223,
      "observations": 6224,
      "effectue": 6225,
      "##faits": 6226,
      "figur": 6227,
      "laccession": 6228,
      "laccroissement": 6229,
      "opti": 6230,
      "opérations": 6231,
      "précise": 6232,
      "cooper": 6233,
      "regroup": 6234,
      "évalué": 6235,
      "##odo": 6236,
      "nutritifs": 6237,
      "stratégique": 6238,
      "tiré": 6239,
      "sols": 6240,
      "géographique": 6241,
      "grimp": 6242,
      "continueront": 6243,
      "remplir": 6244,
      "comptait": 6245,
      "renferme": 6246,
      "considérables": 6247,
      "démographiques": 6248,
      "autorisée": 6249,
      "organes": 6250,
      "comestible": 6251,
      "fortes": 6252,
      "diversifiée": 6253,
      "introduit": 6254,
      "engagement": 6255,
      "choisissez": 6256,
      "hydro": 6257,
      "adopté": 6258,
      "connaissances": 6259,
      "vendredi": 6260,
      "concurrentiels": 6261,
      "influence": 6262,
      "double": 6263,
      "respecter": 6264,
      "chaud": 6265,
      "congél": 6266,
      "séchage": 6267,
      "loffre": 6268,
      "linspecteur": 6269,
      "climatiques": 6270,
      "actives": 6271,
      "minimale": 6272,
      "minimum": 6273,
      "hanoï": 6274,
      "plaques": 6275,
      "islamique": 6276,
      "galaxie": 6277,
      "floor": 6278,
      "quoique": 6279,
      "événement": 6280,
      "musulmane": 6281,
      "issus": 6282,
      "fruitière": 6283,
      "originale": 6284,
      "poursuivre": 6285,
      "bhd": 6286,
      "vétérinaires": 6287,
      "##displaydocumentjspdid": 6288,
      "dynamique": 6289,
      "écossés": 6290,
      "boîte": 6291,
      "évolué": 6292,
      "##countries": 6293,
      "réussite": 6294,
      "répandue": 6295,
      "pénurie": 6296,
      "miroir": 6297,
      "protéger": 6298,
      "sattend": 6299,
      "yangzi": 6300,
      "maritime": 6301,
      "baissé": 6302,
      "teintée": 6303,
      "visibilité": 6304,
      "édulcorants": 6305,
      "lespace": 6306,
      "vrai": 6307,
      "spiritueux": 6308,
      "pizza": 6309,
      "yogourt": 6310,
      "koweït": 6311,
      "tribut": 6312,
      "##ustoms": 6313,
      "croustilles": 6314,
      "prescriptions": 6315,
      "federation": 6316,
      "manitoba": 6317,
      "péremption": 6318,
      "ketchup": 6319,
      "##pâtiss": 6320,
      "marmelades": 6321,
      "aérien": 6322,
      "bur": 6323,
      "bond": 6324,
      "bout": 6325,
      "bah": 6326,
      "crit": 6327,
      "emport": 6328,
      "fant": 6329,
      "frites": 6330,
      "her": 6331,
      "herm": 6332,
      "harm": 6333,
      "kore": 6334,
      "knor": 6335,
      "ly": 6336,
      "lb": 6337,
      "lél": 6338,
      "lux": 6339,
      "lot": 6340,
      "loe": 6341,
      "mau": 6342,
      "neu": 6343,
      "ours": 6344,
      "opp": 6345,
      "rr": 6346,
      "ratio": 6347,
      "spe": 6348,
      "solu": 6349,
      "somme": 6350,
      "sils": 6351,
      "tim": 6352,
      "top": 6353,
      "tiennent": 6354,
      "vête": 6355,
      "##ctif": 6356,
      "##cussi": 6357,
      "##tm": 6358,
      "##ame": 6359,
      "##sh": 6360,
      "##frasp": 6361,
      "##val": 6362,
      "##vrent": 6363,
      "##ym": 6364,
      "##gl": 6365,
      "##my": 6366,
      "##mat": 6367,
      "##éresse": 6368,
      "##ual": 6369,
      "##bri": 6370,
      "##zer": 6371,
      "##çant": 6372,
      "##jap": 6373,
      "##âge": 6374,
      "##tiens": 6375,
      "##isant": 6376,
      "##ith": 6377,
      "laiss": 6378,
      "laquaculture": 6379,
      "##rez": 6380,
      "##roaliment": 6381,
      "##rovision": 6382,
      "ethn": 6383,
      "##alise": 6384,
      "envers": 6385,
      "##neuve": 6386,
      "##news": 6387,
      "##liers": 6388,
      "##lex": 6389,
      "parvient": 6390,
      "##stat": 6391,
      "défi": 6392,
      "démar": 6393,
      "incu": 6394,
      "##quence": 6395,
      "##illonn": 6396,
      "exécu": 6397,
      "sex": 6398,
      "seules": 6399,
      "marqué": 6400,
      "##mett": 6401,
      "remb": 6402,
      "rechange": 6403,
      "##abl": 6404,
      "canadian": 6405,
      "##ulations": 6406,
      "ancien": 6407,
      "réalité": 6408,
      "##aisser": 6409,
      "cond": 6410,
      "outil": 6411,
      "##ccainternet": 6412,
      "##dies": 6413,
      "##dici": 6414,
      "mots": 6415,
      "entra": 6416,
      "entier": 6417,
      "##ricité": 6418,
      "pack": 6419,
      "comb": 6420,
      "##ily": 6421,
      "commerces": 6422,
      "##ruption": 6423,
      "entretiennent": 6424,
      "##ester": 6425,
      "##osée": 6426,
      "contrats": 6427,
      "contribue": 6428,
      "##und": 6429,
      "annuellement": 6430,
      "annuelles": 6431,
      "##lock": 6432,
      "##ives": 6433,
      "struct": 6434,
      "strategis": 6435,
      "storage": 6436,
      "particules": 6437,
      "##ings": 6438,
      "##cuit": 6439,
      "faç": 6440,
      "##gmenter": 6441,
      "traiter": 6442,
      "##eter": 6443,
      "viol": 6444,
      "appui": 6445,
      "détablir": 6446,
      "##arition": 6447,
      "order": 6448,
      "mini": 6449,
      "forc": 6450,
      "forment": 6451,
      "forêt": 6452,
      "soucieux": 6453,
      "devient": 6454,
      "##érique": 6455,
      "représenter": 6456,
      "offert": 6457,
      "fournissent": 6458,
      "bienêtre": 6459,
      "faite": 6460,
      "développée": 6461,
      "présentés": 6462,
      "beijing": 6463,
      "httpwwwc": 6464,
      "wwwmo": 6465,
      "relation": 6466,
      "établit": 6467,
      "inférieur": 6468,
      "douce": 6469,
      "ministères": 6470,
      "actuels": 6471,
      "connues": 6472,
      "connaisse": 6473,
      "dauteur": 6474,
      "daugmenter": 6475,
      "autant": 6476,
      "##ticle": 6477,
      "##resser": 6478,
      "varient": 6479,
      "implant": 6480,
      "situées": 6481,
      "formats": 6482,
      "lagence": 6483,
      "recherchedéveloppement": 6484,
      "acqu": 6485,
      "douaniers": 6486,
      "américaines": 6487,
      "mondiales": 6488,
      "enregistre": 6489,
      "approbation": 6490,
      "continent": 6491,
      "nécessitent": 6492,
      "emballées": 6493,
      "bonus": 6494,
      "ladoption": 6495,
      "planète": 6496,
      "terreneuve": 6497,
      "désoss": 6498,
      "achetés": 6499,
      "fondant": 6500,
      "naturelle": 6501,
      "##iforme": 6502,
      "urc": 6503,
      "composée": 6504,
      "dexcell": 6505,
      "privés": 6506,
      "empê": 6507,
      "prévu": 6508,
      "prévues": 6509,
      "dapplication": 6510,
      "verger": 6511,
      "ingrédient": 6512,
      "observé": 6513,
      "observatoires": 6514,
      "accordée": 6515,
      "traditionnellement": 6516,
      "banques": 6517,
      "modifier": 6518,
      "##own": 6519,
      "lintérêt": 6520,
      "saoudiens": 6521,
      "##odge": 6522,
      "estimatifs": 6523,
      "royal": 6524,
      "pièces": 6525,
      "mener": 6526,
      "participé": 6527,
      "grossiste": 6528,
      "##english": 6529,
      "ouverts": 6530,
      "contribuent": 6531,
      "permettra": 6532,
      "hautement": 6533,
      "diversifier": 6534,
      "microb": 6535,
      "consacrent": 6536,
      "garantit": 6537,
      "choisir": 6538,
      "réel": 6539,
      "colombo": 6540,
      "devenus": 6541,
      "questionnaire": 6542,
      "robins": 6543,
      "robina": 6544,
      "précédent": 6545,
      "facilite": 6546,
      "laboratoires": 6547,
      "occasion": 6548,
      "remplace": 6549,
      "sappliquent": 6550,
      "champignons": 6551,
      "rendent": 6552,
      "appropriés": 6553,
      "pénétration": 6554,
      "veut": 6555,
      "##rainage": 6556,
      "spectro": 6557,
      "##ndation": 6558,
      "##ashk": 6559,
      "daméli": 6560,
      "cafés": 6561,
      "surveill": 6562,
      "postale": 6563,
      "réserves": 6564,
      "foundation": 6565,
      "dossier": 6566,
      "semblent": 6567,
      "fruitiers": 6568,
      "homolog": 6569,
      "médicale": 6570,
      "succursales": 6571,
      "quotidien": 6572,
      "plateau": 6573,
      "bruitpeti": 6574,
      "fumigation": 6575,
      "inscrits": 6576,
      "vendeurs": 6577,
      "égyptienne": 6578,
      "inuits": 6579,
      "retrouve": 6580,
      "vallée": 6581,
      "vidéo": 6582,
      "instantanées": 6583,
      "fillette": 6584,
      "kuala": 6585,
      "appuy": 6586,
      "walmart": 6587,
      "grossière": 6588,
      "##aqua": 6589,
      "interactive": 6590,
      "privilég": 6591,
      "météorologiques": 6592,
      "##httpwww": 6593,
      "httpwwwinfoexportgccaiefrdisplaydocumentjspdid": 6594,
      "moléc": 6595,
      "##gypt": 6596,
      "##zhou": 6597,
      "diététiques": 6598,
      "assaisonnements": 6599,
      "##ansourashk": 6600,
      "ferrovi": 6601,
      "tributaire": 6602,
      "knorr": 6603,
      "loeil": 6604,
      "solutions": 6605,
      "##roalimentaire": 6606,
      "bruitpetits": 6607,
      "cout": 6608,
      "dc": 6609,
      "drainage": 6610,
      "em": 6611,
      "fus": 6612,
      "frig": 6613,
      "glu": 6614,
      "haï": 6615,
      "lour": 6616,
      "mè": 6617,
      "ment": 6618,
      "nan": 6619,
      "nag": 6620,
      "noir": 6621,
      "oman": 6622,
      "pur": 6623,
      "pil": 6624,
      "rural": 6625,
      "sk": 6626,
      "sort": 6627,
      "squ": 6628,
      "sat": 6629,
      "sph": 6630,
      "tiss": 6631,
      "tru": 6632,
      "œil": 6633,
      "##oeuvre": 6634,
      "##cy": 6635,
      "##tur": 6636,
      "##ste": 6637,
      "##din": 6638,
      "##die": 6639,
      "##win": 6640,
      "##la": 6641,
      "##ile": 6642,
      "##fc": 6643,
      "##hans": 6644,
      "##gainf": 6645,
      "##morte": 6646,
      "##bureau": 6647,
      "##kong": 6648,
      "##ènes": 6649,
      "##œur": 6650,
      "deff": 6651,
      "degré": 6652,
      "##tine": 6653,
      "##tibles": 6654,
      "##ana": 6655,
      "##ery": 6656,
      "##ered": 6657,
      "lallem": 6658,
      "##rement": 6659,
      "##alie": 6660,
      "lev": 6661,
      "lemp": 6662,
      "##tez": 6663,
      "##ney": 6664,
      "##chée": 6665,
      "##chair": 6666,
      "audel": 6667,
      "##duprin": 6668,
      "##ceédou": 6669,
      "##ciens": 6670,
      "paris": 6671,
      "##asion": 6672,
      "détiennent": 6673,
      "chr": 6674,
      "chan": 6675,
      "cheng": 6676,
      "relev": 6677,
      "##abilités": 6678,
      "##sectes": 6679,
      "##oideasuperfamille": 6680,
      "##iend": 6681,
      "commencent": 6682,
      "##aises": 6683,
      "##icin": 6684,
      "conv": 6685,
      "sugg": 6686,
      "diab": 6687,
      "dimin": 6688,
      "##dinternationalgcca": 6689,
      "##istcom": 6690,
      "##érent": 6691,
      "pasta": 6692,
      "##issait": 6693,
      "##iration": 6694,
      "##aged": 6695,
      "soya": 6696,
      "compose": 6697,
      "consomme": 6698,
      "control": 6699,
      "limp": 6700,
      "libell": 6701,
      "##alifa": 6702,
      "coc": 6703,
      "transit": 6704,
      "transition": 6705,
      "stade": 6706,
      "stabilité": 6707,
      "saf": 6708,
      "##rémé": 6709,
      "bières": 6710,
      "accession": 6711,
      "écou": 6712,
      "écrémé": 6713,
      "vii": 6714,
      "applique": 6715,
      "lumpur": 6716,
      "##rench": 6717,
      "oblong": 6718,
      "servi": 6719,
      "génie": 6720,
      "déployés": 6721,
      "soulig": 6722,
      "devait": 6723,
      "##ibles": 6724,
      "légard": 6725,
      "vieill": 6726,
      "##ctive": 6727,
      "incorp": 6728,
      "peaux": 6729,
      "réserve": 6730,
      "wwwm": 6731,
      "wwwdfaitmaecigcca": 6732,
      "singapore": 6733,
      "finances": 6734,
      "grasses": 6735,
      "affér": 6736,
      "affairs": 6737,
      "mesuré": 6738,
      "visés": 6739,
      "lélect": 6740,
      "léchant": 6741,
      "connue": 6742,
      "organiser": 6743,
      "##pécialiste": 6744,
      "séquence": 6745,
      "situe": 6746,
      "##aya": 6747,
      "variable": 6748,
      "brun": 6749,
      "impul": 6750,
      "##téléphone": 6751,
      "profiter": 6752,
      "##stronome": 6753,
      "formalités": 6754,
      "lagroalimentaire": 6755,
      "lanimal": 6756,
      "subi": 6757,
      "astronomique": 6758,
      "dinst": 6759,
      "amer": 6760,
      "amateurs": 6761,
      "terrestres": 6762,
      "chefs": 6763,
      "missions": 6764,
      "presc": 6765,
      "mainten": 6766,
      "family": 6767,
      "acheté": 6768,
      "fondée": 6769,
      "époque": 6770,
      "##mission": 6771,
      "composés": 6772,
      "privées": 6773,
      "##hanol": 6774,
      "nestlé": 6775,
      "dhygiène": 6776,
      "disponibilité": 6777,
      "lorge": 6778,
      "verts": 6779,
      "cherchent": 6780,
      "retard": 6781,
      "iranienne": 6782,
      "observée": 6783,
      "semaines": 6784,
      "##ilespdf": 6785,
      "traditionnelle": 6786,
      "laccent": 6787,
      "major": 6788,
      "modifiée": 6789,
      "mentionné": 6790,
      "cuits": 6791,
      "évaluer": 6792,
      "supérieures": 6793,
      "exploitation": 6794,
      "énorme": 6795,
      "déclarée": 6796,
      "expédition": 6797,
      "promul": 6798,
      "financiers": 6799,
      "contreb": 6800,
      "stipul": 6801,
      "recommande": 6802,
      "afghans": 6803,
      "calories": 6804,
      "raisonn": 6805,
      "communauté": 6806,
      "contribuer": 6807,
      "ordin": 6808,
      "barres": 6809,
      "classement": 6810,
      "institutions": 6811,
      "revue": 6812,
      "faiblesse": 6813,
      "réexport": 6814,
      "vérification": 6815,
      "protagon": 6816,
      "circul": 6817,
      "adopter": 6818,
      "limitées": 6819,
      "chercheét": 6820,
      "##émie": 6821,
      "récoltes": 6822,
      "facture": 6823,
      "subséqu": 6824,
      "macao": 6825,
      "doublé": 6826,
      "différen": 6827,
      "##berta": 6828,
      "##alogie": 6829,
      "radi": 6830,
      "copra": 6831,
      "australian": 6832,
      "intégrée": 6833,
      "global": 6834,
      "accompagné": 6835,
      "décennies": 6836,
      "chacune": 6837,
      "entraîné": 6838,
      "abordables": 6839,
      "coordonnées": 6840,
      "bassin": 6841,
      "dûment": 6842,
      "prospère": 6843,
      "plaque": 6844,
      "totalisaient": 6845,
      "moutarde": 6846,
      "additionnels": 6847,
      "fédér": 6848,
      "virt": 6849,
      "virus": 6850,
      "##cmv": 6851,
      "reporter": 6852,
      "cidessus": 6853,
      "government": 6854,
      "étroite": 6855,
      "dairy": 6856,
      "vétérinaire": 6857,
      "edc": 6858,
      "spécifiquement": 6859,
      "modernisation": 6860,
      "sintéress": 6861,
      "confirm": 6862,
      "identifier": 6863,
      "ideal": 6864,
      "valide": 6865,
      "hamered": 6866,
      "racines": 6867,
      "white": 6868,
      "##ducation": 6869,
      "dérivés": 6870,
      "diplomatiques": 6871,
      "##fasusdagovgainf": 6872,
      "plaisante": 6873,
      "parfum": 6874,
      "lucratif": 6875,
      "réponse": 6876,
      "contingents": 6877,
      "technicien": 6878,
      "personnesressources": 6879,
      "cambodge": 6880,
      "syste": 6881,
      "##university": 6882,
      "dacheter": 6883,
      "hotel": 6884,
      "yukon": 6885,
      "chambre": 6886,
      "généalogie": 6887,
      "##odoxe": 6888,
      "critères": 6889,
      "harmon": 6890,
      "##cussions": 6891,
      "surveillance": 6892,
      "ferroviaire": 6893,
      "square": 6894,
      "##mortem": 6895,
      "audelà": 6896,
      "##duprinceédou": 6897,
      "diminue": 6898,
      "##alifax": 6899,
      "oblongue": 6900,
      "##fasusdagovgainfilespdf": 6901,
      "##duprinceédouard": 6902,
      "alé": 6903,
      "bir": 6904,
      "bsb": 6905,
      "cy": 6906,
      "ccc": 6907,
      "dî": 6908,
      "dann": 6909,
      "guer": 6910,
      "hors": 6911,
      "house": 6912,
      "jp": 6913,
      "joint": 6914,
      "kir": 6915,
      "louest": 6916,
      "masse": 6917,
      "oil": 6918,
      "olive": 6919,
      "oiseaux": 6920,
      "pom": 6921,
      "pul": 6922,
      "pér": 6923,
      "ration": 6924,
      "rust": 6925,
      "rav": 6926,
      "sw": 6927,
      "sas": 6928,
      "soir": 6929,
      "taill": 6930,
      "vic": 6931,
      "véh": 6932,
      "yeux": 6933,
      "york": 6934,
      "zds": 6935,
      "##oll": 6936,
      "##oine": 6937,
      "##oyen": 6938,
      "##cd": 6939,
      "##cents": 6940,
      "##tc": 6941,
      "##tention": 6942,
      "##the": 6943,
      "##tative": 6944,
      "##aff": 6945,
      "##aces": 6946,
      "##dong": 6947,
      "##lt": 6948,
      "##lor": 6949,
      "##ners": 6950,
      "##fre": 6951,
      "##vo": 6952,
      "##vin": 6953,
      "##pare": 6954,
      "##îtres": 6955,
      "##èvre": 6956,
      "##oni": 6957,
      "##onwe": 6958,
      "##onvén": 6959,
      "##till": 6960,
      "##tils": 6961,
      "##urance": 6962,
      "##anh": 6963,
      "##eraient": 6964,
      "##iture": 6965,
      "latt": 6966,
      "lastronomie": 6967,
      "##ret": 6968,
      "##aris": 6969,
      "etre": 6970,
      "lefficacité": 6971,
      "##rier": 6972,
      "##new": 6973,
      "##chées": 6974,
      "##chard": 6975,
      "##lige": 6976,
      "##rade": 6977,
      "##raine": 6978,
      "##lette": 6979,
      "##quement": 6980,
      "plaine": 6981,
      "sel": 6982,
      "semi": 6983,
      "sections": 6984,
      "##agers": 6985,
      "chu": 6986,
      "chers": 6987,
      "chats": 6988,
      "choses": 6989,
      "prise": 6990,
      "constell": 6991,
      "##ulf": 6992,
      "références": 6993,
      "##iculture": 6994,
      "condu": 6995,
      "ouvrir": 6996,
      "pains": 6997,
      "intra": 6998,
      "##tter": 6999,
      "##mporte": 7000,
      "complément": 7001,
      "##mier": 7002,
      "contra": 7003,
      "contest": 7004,
      "##oto": 7005,
      "##lobe": 7006,
      "##acola": 7007,
      "transactions": 7008,
      "stél": 7009,
      "stabil": 7010,
      "saines": 7011,
      "croy": 7012,
      "croît": 7013,
      "##bule": 7014,
      "prima": 7015,
      "rappro": 7016,
      "##idité": 7017,
      "accent": 7018,
      "##atsagrgcca": 7019,
      "court": 7020,
      "couramment": 7021,
      "##ordinaire": 7022,
      "carrés": 7023,
      "obtient": 7024,
      "leurope": 7025,
      "##ondes": 7026,
      "##desh": 7027,
      "alberta": 7028,
      "preuve": 7029,
      "transformateurs": 7030,
      "davoir": 7031,
      "inconvén": 7032,
      "arch": 7033,
      "décret": 7034,
      "rendements": 7035,
      "perte": 7036,
      "httpwwwm": 7037,
      "httpwwwdfaitmaecigcc": 7038,
      "manuel": 7039,
      "élevage": 7040,
      "lente": 7041,
      "caus": 7042,
      "justif": 7043,
      "affaire": 7044,
      "visiter": 7045,
      "léquipe": 7046,
      "recons": 7047,
      "organisateur": 7048,
      "##sibles": 7049,
      "river": 7050,
      "variés": 7051,
      "brute": 7052,
      "montagne": 7053,
      "institut": 7054,
      "normalement": 7055,
      "normalisation": 7056,
      "formulaires": 7057,
      "imag": 7058,
      "lanase": 7059,
      "##obe": 7060,
      "salées": 7061,
      "crû": 7062,
      "contenir": 7063,
      "subvention": 7064,
      "india": 7065,
      "possibles": 7066,
      "transports": 7067,
      "estiment": 7068,
      "republic": 7069,
      "chemin": 7070,
      "##itesse": 7071,
      "pressions": 7072,
      "##health": 7073,
      "##érap": 7074,
      "métal": 7075,
      "constate": 7076,
      "pradesh": 7077,
      "composent": 7078,
      "buff": 7079,
      "positif": 7080,
      "colloque": 7081,
      "négoce": 7082,
      "##iterran": 7083,
      "verre": 7084,
      "chercher": 7085,
      "iranien": 7086,
      "laitières": 7087,
      "##crire": 7088,
      "bananes": 7089,
      "quarantine": 7090,
      "opport": 7091,
      "détaillant": 7092,
      "chocolats": 7093,
      "tardi": 7094,
      "supérieurs": 7095,
      "##govvn": 7096,
      "procédé": 7097,
      "énum": 7098,
      "déclarations": 7099,
      "photographie": 7100,
      "pénins": 7101,
      "essentielles": 7102,
      "vastes": 7103,
      "raisins": 7104,
      "biotechnologiques": 7105,
      "trouvez": 7106,
      "démont": 7107,
      "ordonn": 7108,
      "arrivée": 7109,
      "fabriquer": 7110,
      "préférent": 7111,
      "boulangeriepâtiss": 7112,
      "guang": 7113,
      "changé": 7114,
      "choisissent": 7115,
      "bénéficie": 7116,
      "conditionnement": 7117,
      "susc": 7118,
      "pauvres": 7119,
      "effectuée": 7120,
      "stockage": 7121,
      "construit": 7122,
      "construire": 7123,
      "dépendance": 7124,
      "lordre": 7125,
      "effectif": 7126,
      "subsistance": 7127,
      "doubler": 7128,
      "allemand": 7129,
      "entreprene": 7130,
      "standard": 7131,
      "idées": 7132,
      "remplissage": 7133,
      "produisant": 7134,
      "efficacement": 7135,
      "difficulté": 7136,
      "george": 7137,
      "supplémentaire": 7138,
      "reflè": 7139,
      "contrôlée": 7140,
      "globale": 7141,
      "adaptative": 7142,
      "sétablir": 7143,
      "abattus": 7144,
      "multiples": 7145,
      "citoyen": 7146,
      "mouvement": 7147,
      "survey": 7148,
      "additionnelles": 7149,
      "substance": 7150,
      "religion": 7151,
      "maindoeuvre": 7152,
      "désignés": 7153,
      "éliminer": 7154,
      "##biotech": 7155,
      "longueurs": 7156,
      "foule": 7157,
      "comporter": 7158,
      "richesse": 7159,
      "absorb": 7160,
      "séparant": 7161,
      "filiale": 7162,
      "découvert": 7163,
      "succursale": 7164,
      "examiner": 7165,
      "travailleurs": 7166,
      "sûr": 7167,
      "sudcoréens": 7168,
      "alliance": 7169,
      "historiques": 7170,
      "enterprises": 7171,
      "soussecteurs": 7172,
      "colorants": 7173,
      "juridiques": 7174,
      "arbres": 7175,
      "élargir": 7176,
      "vingt": 7177,
      "pavot": 7178,
      "aspects": 7179,
      "écozone": 7180,
      "orbitale": 7181,
      "bouteille": 7182,
      "dangereux": 7183,
      "adultes": 7184,
      "arach": 7185,
      "foies": 7186,
      "##sionnaire": 7187,
      "substituts": 7188,
      "macaroni": 7189,
      "suffit": 7190,
      "malaysia": 7191,
      "allégations": 7192,
      "spaghetti": 7193,
      "rayonnement": 7194,
      "sussexottawa": 7195,
      "congélation": 7196,
      "emporter": 7197,
      "korea": 7198,
      "luxe": 7199,
      "lallemagne": 7200,
      "diabète": 7201,
      "cocacola": 7202,
      "circulation": 7203,
      "véhic": 7204,
      "zdsap": 7205,
      "boulangeriepâtisserie": 7206,
      "alle": 7207,
      "bab": 7208,
      "bref": 7209,
      "céli": 7210,
      "customs": 7211,
      "cœur": 7212,
      "due": 7213,
      "dap": 7214,
      "ele": 7215,
      "fal": 7216,
      "fib": 7217,
      "fda": 7218,
      "festi": 7219,
      "foyer": 7220,
      "hur": 7221,
      "how": 7222,
      "hcmv": 7223,
      "ji": 7224,
      "line": 7225,
      "mul": 7226,
      "mong": 7227,
      "mount": 7228,
      "nb": 7229,
      "nun": 7230,
      "nda": 7231,
      "por": 7232,
      "ric": 7233,
      "ramen": 7234,
      "sri": 7235,
      "sens": 7236,
      "tre": 7237,
      "tôt": 7238,
      "uk": 7239,
      "vag": 7240,
      "vérit": 7241,
      "vitesse": 7242,
      "wil": 7243,
      "xin": 7244,
      "yu": 7245,
      "yell": 7246,
      "émul": 7247,
      "émer": 7248,
      "##car": 7249,
      "##clé": 7250,
      "##tw": 7251,
      "##tn": 7252,
      "##tation": 7253,
      "##ave": 7254,
      "##eaux": 7255,
      "##dation": 7256,
      "##dat": 7257,
      "##work": 7258,
      "##lue": 7259,
      "##lux": 7260,
      "##laur": 7261,
      "##nal": 7262,
      "##ncil": 7263,
      "##vées": 7264,
      "##vues": 7265,
      "##hra": 7266,
      "##ye": 7267,
      "##yles": 7268,
      "##gie": 7269,
      "##ms": 7270,
      "##mm": 7271,
      "##mén": 7272,
      "##mann": 7273,
      "##bateurs": 7274,
      "##bert": 7275,
      "##bataires": 7276,
      "##kist": 7277,
      "##kok": 7278,
      "##èque": 7279,
      "##èves": 7280,
      "##jab": 7281,
      "##ño": 7282,
      "##ess": 7283,
      "##ondu": 7284,
      "##entre": 7285,
      "##ura": 7286,
      "##erait": 7287,
      "larab": 7288,
      "lastronome": 7289,
      "##orti": 7290,
      "##orifiques": 7291,
      "lesprit": 7292,
      "etranger": 7293,
      "##alage": 7294,
      "##ende": 7295,
      "##llus": 7296,
      "##ésité": 7297,
      "##raph": 7298,
      "##cies": 7299,
      "##cide": 7300,
      "##cium": 7301,
      "parents": 7302,
      "##astique": 7303,
      "déch": 7304,
      "plaines": 7305,
      "pourtant": 7306,
      "exa": 7307,
      "exter": 7308,
      "sea": 7309,
      "semestre": 7310,
      "unit": 7311,
      "unités": 7312,
      "choi": 7313,
      "cebu": 7314,
      "margar": 7315,
      "relever": 7316,
      "##abad": 7317,
      "prai": 7318,
      "##sem": 7319,
      "##old": 7320,
      "surv": 7321,
      "consist": 7322,
      "consoli": 7323,
      "##uler": 7324,
      "commonwe": 7325,
      "ananas": 7326,
      "rédi": 7327,
      "##ams": 7328,
      "conç": 7329,
      "conces": 7330,
      "##pré": 7331,
      "##ista": 7332,
      "mollus": 7333,
      "entités": 7334,
      "entente": 7335,
      "##issables": 7336,
      "##rief": 7337,
      "intense": 7338,
      "##étation": 7339,
      "##estock": 7340,
      "##osques": 7341,
      "consommées": 7342,
      "##otes": 7343,
      "phils": 7344,
      "teva": 7345,
      "##cipitations": 7346,
      "touche": 7347,
      "prévention": 7348,
      "précipitations": 7349,
      "##ivre": 7350,
      "rapidité": 7351,
      "##idémie": 7352,
      "accum": 7353,
      "##ety": 7354,
      "##onnent": 7355,
      "appare": 7356,
      "luim": 7357,
      "lutilis": 7358,
      "carbur": 7359,
      "##phong": 7360,
      "##ensé": 7361,
      "##ouverture": 7362,
      "dépicerie": 7363,
      "totalité": 7364,
      "##aïque": 7365,
      "##imaux": 7366,
      "force": 7367,
      "forces": 7368,
      "forêts": 7369,
      "##dess": 7370,
      "##érir": 7371,
      "max": 7372,
      "##nia": 7373,
      "david": 7374,
      "income": 7375,
      "inclut": 7376,
      "artis": 7377,
      "restants": 7378,
      "utilisateurs": 7379,
      "pep": 7380,
      "indisp": 7381,
      "pertes": 7382,
      "httpwwwmo": 7383,
      "résolution": 7384,
      "lexamen": 7385,
      "lentille": 7386,
      "vietnamiennes": 7387,
      "grain": 7388,
      "juste": 7389,
      "vision": 7390,
      "recour": 7391,
      "connus": 7392,
      "jugés": 7393,
      "autonom": 7394,
      "##ticulture": 7395,
      "spécialisé": 7396,
      "spécifications": 7397,
      "niño": 7398,
      "sociale": 7399,
      "publie": 7400,
      "permises": 7401,
      "répan": 7402,
      "réper": 7403,
      "biotec": 7404,
      "##ayer": 7405,
      "animales": 7406,
      "progressi": 7407,
      "concurren": 7408,
      "atteind": 7409,
      "imprim": 7410,
      "capac": 7411,
      "évid": 7412,
      "professe": 7413,
      "attra": 7414,
      "attenti": 7415,
      "formé": 7416,
      "formule": 7417,
      "francis": 7418,
      "industrielles": 7419,
      "##férom": 7420,
      "salades": 7421,
      "considérer": 7422,
      "créneau": 7423,
      "secr": 7424,
      "approf": 7425,
      "approche": 7426,
      "indiquent": 7427,
      "destinations": 7428,
      "longues": 7429,
      "ajust": 7430,
      "fiest": 7431,
      "council": 7432,
      "méditerran": 7433,
      "routier": 7434,
      "probabilité": 7435,
      "réfléch": 7436,
      "acheteur": 7437,
      "lundi": 7438,
      "well": 7439,
      "##loitant": 7440,
      "indonésiens": 7441,
      "labrador": 7442,
      "conseille": 7443,
      "conseillé": 7444,
      "cold": 7445,
      "composées": 7446,
      "composaient": 7447,
      "emploi": 7448,
      "emplacement": 7449,
      "fonctionne": 7450,
      "##azak": 7451,
      "négative": 7452,
      "constituée": 7453,
      "délais": 7454,
      "##édifice": 7455,
      "acidité": 7456,
      "kilos": 7457,
      "##oku": 7458,
      "défense": 7459,
      "intéressées": 7460,
      "##kets": 7461,
      "conservés": 7462,
      "conservées": 7463,
      "réfrigérées": 7464,
      "cuil": 7465,
      "cuirs": 7466,
      "carteaff": 7467,
      "technology": 7468,
      "apparaît": 7469,
      "estimation": 7470,
      "répondent": 7471,
      "spati": 7472,
      "##poser": 7473,
      "stratégiques": 7474,
      "femme": 7475,
      "requise": 7476,
      "stipule": 7477,
      "menac": 7478,
      "dominé": 7479,
      "dimportateurs": 7480,
      "textiles": 7481,
      "danimaux": 7482,
      "##ency": 7483,
      "newton": 7484,
      "grippe": 7485,
      "communs": 7486,
      "importexport": 7487,
      "instrument": 7488,
      "##conomistcom": 7489,
      "comptoirs": 7490,
      "##fection": 7491,
      "révolution": 7492,
      "algérien": 7493,
      "##entiment": 7494,
      "fabriqué": 7495,
      "difficiles": 7496,
      "irra": 7497,
      "nourr": 7498,
      "diversifié": 7499,
      "simplement": 7500,
      "jouent": 7501,
      "complètement": 7502,
      "humaines": 7503,
      "prochaine": 7504,
      "réex": 7505,
      "excellentes": 7506,
      "favorisé": 7507,
      "épicerie": 7508,
      "caractérisée": 7509,
      "devenu": 7510,
      "compétente": 7511,
      "compétentes": 7512,
      "effectuées": 7513,
      "economist": 7514,
      "##well": 7515,
      "livestock": 7516,
      "administrations": 7517,
      "supermarkets": 7518,
      "résident": 7519,
      "robert": 7520,
      "influent": 7521,
      "spécialisées": 7522,
      "attiré": 7523,
      "langues": 7524,
      "axées": 7525,
      "scène": 7526,
      "lentremise": 7527,
      "palay": 7528,
      "trip": 7529,
      "complexe": 7530,
      "future": 7531,
      "biodiés": 7532,
      "biopharm": 7533,
      "majeur": 7534,
      "sapprovision": 7535,
      "tiu": 7536,
      "suffisant": 7537,
      "préoccupation": 7538,
      "dexpansion": 7539,
      "signification": 7540,
      "intermédiaire": 7541,
      "îleduprinceédouard": 7542,
      "filtres": 7543,
      "garn": 7544,
      "refro": 7545,
      "refus": 7546,
      "appelée": 7547,
      "exposants": 7548,
      "dintérêt": 7549,
      "intégr": 7550,
      "régulière": 7551,
      "demandé": 7552,
      "appropriées": 7553,
      "adapter": 7554,
      "accompagnée": 7555,
      "fromages": 7556,
      "abattoir": 7557,
      "expériment": 7558,
      "expériences": 7559,
      "bassins": 7560,
      "pratiquement": 7561,
      "##view": 7562,
      "mouton": 7563,
      "filets": 7564,
      "administratives": 7565,
      "conjon": 7566,
      "dimension": 7567,
      "bancaires": 7568,
      "green": 7569,
      "accueill": 7570,
      "lactée": 7571,
      "semblables": 7572,
      "interdite": 7573,
      "approvisionnements": 7574,
      "clubmarket": 7575,
      "original": 7576,
      "dactivité": 7577,
      "lamérique": 7578,
      "réussir": 7579,
      "lévolution": 7580,
      "élaborer": 7581,
      "envisage": 7582,
      "étendue": 7583,
      "culinaire": 7584,
      "##onald": 7585,
      "fluctuations": 7586,
      "sudcoré": 7587,
      "kiosques": 7588,
      "surpass": 7589,
      "nexiste": 7590,
      "httpwwweconomistcom": 7591,
      "lépicerie": 7592,
      "faudra": 7593,
      "penser": 7594,
      "qcj": 7595,
      "enseign": 7596,
      "contamination": 7597,
      "manifest": 7598,
      "bleu": 7599,
      "haiphong": 7600,
      "auxquels": 7601,
      "perçue": 7602,
      "fresh": 7603,
      "pommiers": 7604,
      "##indexhtml": 7605,
      "dhuiles": 7606,
      "exclusivement": 7607,
      "##jerusalem": 7608,
      "étudier": 7609,
      "caméras": 7610,
      "jakarta": 7611,
      "cessé": 7612,
      "incitatifs": 7613,
      "médecins": 7614,
      "bactéri": 7615,
      "medical": 7616,
      "profondeur": 7617,
      "performance": 7618,
      "optim": 7619,
      "ethniques": 7620,
      "packaged": 7621,
      "##esterres": 7622,
      "forcément": 7623,
      "spectros": 7624,
      "protagonistes": 7625,
      "guerre": 7626,
      "périssables": 7627,
      "saskat": 7628,
      "tailler": 7629,
      "opportun": 7630,
      "arachides": 7631,
      "célibataires": 7632,
      "fibres": 7633,
      "##laurent": 7634,
      "choice": 7635,
      "margarine": 7636,
      "commonwealth": 7637,
      "mollusques": 7638,
      "luimême": 7639,
      "professeur": 7640,
      "carteaffiche": 7641,
      "biodiésel": 7642,
      "biopharmaceu": 7643,
      "ah": 7644,
      "ak": 7645,
      "air": 7646,
      "aver": 7647,
      "aire": 7648,
      "bre": 7649,
      "bour": 7650,
      "baisser": 7651,
      "cf": 7652,
      "cé": 7653,
      "cible": 7654,
      "clock": 7655,
      "dr": 7656,
      "donde": 7657,
      "egg": 7658,
      "eight": 7659,
      "fen": 7660,
      "fac": 7661,
      "furent": 7662,
      "fha": 7663,
      "fléch": 7664,
      "fèves": 7665,
      "ga": 7666,
      "gm": 7667,
      "gal": 7668,
      "gain": 7669,
      "ginternet": 7670,
      "hab": 7671,
      "jet": 7672,
      "jui": 7673,
      "ko": 7674,
      "ks": 7675,
      "kp": 7676,
      "kand": 7677,
      "kris": 7678,
      "kosher": 7679,
      "lén": 7680,
      "lancement": 7681,
      "mort": 7682,
      "mas": 7683,
      "mcc": 7684,
      "noires": 7685,
      "naissance": 7686,
      "oignons": 7687,
      "ps": 7688,
      "pon": 7689,
      "pat": 7690,
      "pdf": 7691,
      "portion": 7692,
      "path": 7693,
      "russe": 7694,
      "smc": 7695,
      "tag": 7696,
      "tap": 7697,
      "tiendra": 7698,
      "vou": 7699,
      "vul": 7700,
      "ye": 7701,
      "zo": 7702,
      "##ottes": 7703,
      "##rég": 7704,
      "##acc": 7705,
      "##action": 7706,
      "##ache": 7707,
      "##ef": 7708,
      "##ection": 7709,
      "##eil": 7710,
      "##dd": 7711,
      "##wers": 7712,
      "##lab": 7713,
      "##lers": 7714,
      "##nan": 7715,
      "##ning": 7716,
      "##nombre": 7717,
      "##ires": 7718,
      "##ients": 7719,
      "##fran": 7720,
      "##forme": 7721,
      "##yce": 7722,
      "##guer": 7723,
      "##éi": 7724,
      "##uées": 7725,
      "##unes": 7726,
      "##bes": 7727,
      "##bdom": 7728,
      "##èlement": 7729,
      "##jou": 7730,
      "##ïn": 7731,
      "##espèces": 7732,
      "##tiers": 7733,
      "##tième": 7734,
      "##ish": 7735,
      "##ismes": 7736,
      "##istiques": 7737,
      "##itation": 7738,
      "lap": 7739,
      "lale": 7740,
      "lactivité": 7741,
      "##red": 7742,
      "##organ": 7743,
      "##organis": 7744,
      "##oria": 7745,
      "##iné": 7746,
      "##rogojp": 7747,
      "##als": 7748,
      "##ality": 7749,
      "destruction": 7750,
      "##ench": 7751,
      "enqu": 7752,
      "enrob": 7753,
      "##tein": 7754,
      "##tements": 7755,
      "##uet": 7756,
      "##llic": 7757,
      "##usser": 7758,
      "proli": 7759,
      "provis": 7760,
      "##neaux": 7761,
      "##cht": 7762,
      "##ource": 7763,
      "auquel": 7764,
      "audess": 7765,
      "##ports": 7766,
      "##ced": 7767,
      "##lee": 7768,
      "##ciirdf": 7769,
      "parag": 7770,
      "##ommun": 7771,
      "démission": 7772,
      "inég": 7773,
      "exo": 7774,
      "unies": 7775,
      "##agées": 7776,
      "étape": 7777,
      "étendu": 7778,
      "reti": 7779,
      "retenir": 7780,
      "remont": 7781,
      "quels": 7782,
      "##olé": 7783,
      "rét": 7784,
      "réalisé": 7785,
      "réalise": 7786,
      "##ican": 7787,
      "sujets": 7788,
      "##pping": 7789,
      "##dients": 7790,
      "moteurs": 7791,
      "ententes": 7792,
      "entière": 7793,
      "entrées": 7794,
      "##ila": 7795,
      "intit": 7796,
      "##esterie": 7797,
      "##peaux": 7798,
      "trit": 7799,
      "##mbo": 7800,
      "##mbai": 7801,
      "annuels": 7802,
      "annual": 7803,
      "##chel": 7804,
      "phosph": 7805,
      "##acés": 7806,
      "prévision": 7807,
      "préférence": 7808,
      "précieux": 7809,
      "transbor": 7810,
      "stric": 7811,
      "store": 7812,
      "sain": 7813,
      "islande": 7814,
      "principe": 7815,
      "##ocra": 7816,
      "priorités": 7817,
      "##gement": 7818,
      "##ilinternet": 7819,
      "interférom": 7820,
      "rappe": 7821,
      "rapporte": 7822,
      "##cule": 7823,
      "##ida": 7824,
      "écrit": 7825,
      "vif": 7826,
      "vivent": 7827,
      "vivement": 7828,
      "détablisse": 7829,
      "luzon": 7830,
      "##rendre": 7831,
      "##roupe": 7832,
      "board": 7833,
      "bottes": 7834,
      "carb": 7835,
      "carré": 7836,
      "carottes": 7837,
      "siège": 7838,
      "##alisés": 7839,
      "##enser": 7840,
      "distances": 7841,
      "déplace": 7842,
      "thérap": 7843,
      "expli": 7844,
      "expatri": 7845,
      "fragment": 7846,
      "fractions": 7847,
      "soupe": 7848,
      "coré": 7849,
      "corre": 7850,
      "corrig": 7851,
      "corruption": 7852,
      "distill": 7853,
      "httpstrategis": 7854,
      "demandeur": 7855,
      "matimop": 7856,
      "centaines": 7857,
      "dastronomie": 7858,
      "décrit": 7859,
      "assoup": 7860,
      "pouvez": 7861,
      "basse": 7862,
      "directs": 7863,
      "directives": 7864,
      "génération": 7865,
      "httpwwws": 7866,
      "httpwwwdfaitmaecigcca": 7867,
      "établ": 7868,
      "finale": 7869,
      "financ": 7870,
      "donnée": 7871,
      "magné": 7872,
      "télécommun": 7873,
      "nimporte": 7874,
      "avantag": 7875,
      "exigé": 7876,
      "répert": 7877,
      "biotech": 7878,
      "bruce": 7879,
      "impressi": 7880,
      "monte": 7881,
      "insuffis": 7882,
      "casher": 7883,
      "porté": 7884,
      "##jetrogojp": 7885,
      "télévision": 7886,
      "quantit": 7887,
      "australiennes": 7888,
      "actifs": 7889,
      "acquis": 7890,
      "considère": 7891,
      "considérées": 7892,
      "##iciel": 7893,
      "limités": 7894,
      "sauv": 7895,
      "exempl": 7896,
      "grandissant": 7897,
      "grandissante": 7898,
      "contenus": 7899,
      "indiquées": 7900,
      "amateur": 7901,
      "repose": 7902,
      "bouc": 7903,
      "boutiques": 7904,
      "hebdom": 7905,
      "fiables": 7906,
      "rouille": 7907,
      "rouges": 7908,
      "enregistrées": 7909,
      "nuclé": 7910,
      "récent": 7911,
      "##ava": 7912,
      "gammes": 7913,
      "techno": 7914,
      "volont": 7915,
      "composante": 7916,
      "##acil": 7917,
      "diversité": 7918,
      "prévoient": 7919,
      "##centre": 7920,
      "##hanoi": 7921,
      "larticle": 7922,
      "jusquen": 7923,
      "négatifs": 7924,
      "néglige": 7925,
      "constitué": 7926,
      "délai": 7927,
      "iraniens": 7928,
      "##ficies": 7929,
      "faciles": 7930,
      "bank": 7931,
      "bangkok": 7932,
      "libres": 7933,
      "électrons": 7934,
      "ménage": 7935,
      "intéressé": 7936,
      "mentionner": 7937,
      "cuites": 7938,
      "region": 7939,
      "regulations": 7940,
      "évaluée": 7941,
      "estimées": 7942,
      "estimatif": 7943,
      "superficies": 7944,
      "occupés": 7945,
      "angulaire": 7946,
      "posséder": 7947,
      "##cription": 7948,
      "vivantes": 7949,
      "##amber": 7950,
      "déclarés": 7951,
      "royale": 7952,
      "lacquisition": 7953,
      "photograph": 7954,
      "photographique": 7955,
      "photographiques": 7956,
      "correspondent": 7957,
      "##ahar": 7958,
      "menu": 7959,
      "##aigon": 7960,
      "suppose": 7961,
      "participants": 7962,
      "vaches": 7963,
      "lunette": 7964,
      "haram": 7965,
      "dimportance": 7966,
      "texte": 7967,
      "dessert": 7968,
      "##encer": 7969,
      "directrice": 7970,
      "organic": 7971,
      "initiale": 7972,
      "initiative": 7973,
      "##dfaitmaecigccainternet": 7974,
      "veiller": 7975,
      "littor": 7976,
      "instituts": 7977,
      "##assium": 7978,
      "joué": 7979,
      "consacrée": 7980,
      "théorie": 7981,
      "garantie": 7982,
      "changer": 7983,
      "humains": 7984,
      "mieuxêtre": 7985,
      "ciirdf": 7986,
      "hygiène": 7987,
      "régimes": 7988,
      "sensible": 7989,
      "signes": 7990,
      "efficacité": 7991,
      "effectué": 7992,
      "répartis": 7993,
      "potentiels": 7994,
      "##ielsen": 7995,
      "compétitif": 7996,
      "factbook": 7997,
      "darachides": 7998,
      "blancs": 7999,
      "indication": 8000,
      "reconnu": 8001,
      "reconnaissance": 8002,
      "sapplique": 8003,
      "times": 8004,
      "dexploit": 8005,
      "dexploitation": 8006,
      "existent": 8007,
      "pollin": 8008,
      "congrès": 8009,
      "encourager": 8010,
      "##aspx": 8011,
      "nutritionnelle": 8012,
      "nutritionnel": 8013,
      "demandent": 8014,
      "demander": 8015,
      "appropriée": 8016,
      "énoncés": 8017,
      "départements": 8018,
      "adaptés": 8019,
      "camion": 8020,
      "électroniques": 8021,
      "hanoi": 8022,
      "quarts": 8023,
      "réalisés": 8024,
      "lafrique": 8025,
      "investir": 8026,
      "brass": 8027,
      "manufacturing": 8028,
      "iii": 8029,
      "sommaire": 8030,
      "emplois": 8031,
      "fuji": 8032,
      "potassium": 8033,
      "froid": 8034,
      "navig": 8035,
      "invest": 8036,
      "traduction": 8037,
      "applications": 8038,
      "saintlaurent": 8039,
      "##toria": 8040,
      "sélectionnez": 8041,
      "latmosphère": 8042,
      "médicaux": 8043,
      "fréquence": 8044,
      "nettement": 8045,
      "boîtes": 8046,
      "pouvait": 8047,
      "lévaluation": 8048,
      "atteignant": 8049,
      "provinciale": 8050,
      "détecter": 8051,
      "accepter": 8052,
      "validité": 8053,
      "parallèlement": 8054,
      "ignor": 8055,
      "enrichis": 8056,
      "automob": 8057,
      "historique": 8058,
      "prometteur": 8059,
      "enterprise": 8060,
      "juridique": 8061,
      "avancé": 8062,
      "httpatsagrca": 8063,
      "susmentionnées": 8064,
      "ultraorth": 8065,
      "accélérer": 8066,
      "sensibilisation": 8067,
      "##faitmaecigcca": 8068,
      "##chercheur": 8069,
      "demeurera": 8070,
      "aigrelette": 8071,
      "winnipeg": 8072,
      "lalcool": 8073,
      "coopératives": 8074,
      "inconsommable": 8075,
      "brunéi": 8076,
      "remarquable": 8077,
      "henry": 8078,
      "melba": 8079,
      "énormes": 8080,
      "cosmos": 8081,
      "california": 8082,
      "bébé": 8083,
      "##vergure": 8084,
      "cooperation": 8085,
      "mauv": 8086,
      "vêtements": 8087,
      "##glom": 8088,
      "rembours": 8089,
      "remplacement": 8090,
      "frigorifiques": 8091,
      "mènent": 8092,
      "lemploi": 8093,
      "afférentes": 8094,
      "promulgu": 8095,
      "contrebande": 8096,
      "chercheétoiles": 8097,
      "fédéral": 8098,
      "victoria": 8099,
      "constellations": 8100,
      "tardive": 8101,
      "ordonnances": 8102,
      "préférentiel": 8103,
      "entrepreneurs": 8104,
      "festival": 8105,
      "xinjiang": 8106,
      "indispens": 8107,
      "répandu": 8108,
      "capacités": 8109,
      "attrayant": 8110,
      "garnitures": 8111,
      "conjoncture": 8112,
      "httpwwweconomistcomcountries": 8113,
      "audessus": 8114,
      "détablissements": 8115,
      "expatriés": 8116,
      "hebdomad": 8117,
      "littoral": 8118,
      "aim": 8119,
      "actions": 8120,
      "billi": 8121,
      "bars": 8122,
      "bet": 8123,
      "brief": 8124,
      "cra": 8125,
      "crée": 8126,
      "dure": 8127,
      "dâge": 8128,
      "egypt": 8129,
      "flè": 8130,
      "gard": 8131,
      "hut": 8132,
      "hall": 8133,
      "idé": 8134,
      "just": 8135,
      "lou": 8136,
      "lont": 8137,
      "lir": 8138,
      "mû": 8139,
      "mit": 8140,
      "nic": 8141,
      "pis": 8142,
      "pier": 8143,
      "presse": 8144,
      "pôle": 8145,
      "ponde": 8146,
      "rent": 8147,
      "rog": 8148,
      "rares": 8149,
      "rfm": 8150,
      "sch": 8151,
      "sab": 8152,
      "soi": 8153,
      "sait": 8154,
      "sard": 8155,
      "scell": 8156,
      "saigon": 8157,
      "tier": 8158,
      "tomb": 8159,
      "ut": 8160,
      "vap": 8161,
      "vite": 8162,
      "veter": 8163,
      "wwww": 8164,
      "zhe": 8165,
      "âgés": 8166,
      "éle": 8167,
      "émise": 8168,
      "îles": 8169,
      "##ctifs": 8170,
      "##aq": 8171,
      "##dg": 8172,
      "##duellement": 8173,
      "##drat": 8174,
      "##dney": 8175,
      "##world": 8176,
      "##là": 8177,
      "##lat": 8178,
      "##no": 8179,
      "##nch": 8180,
      "##nâtre": 8181,
      "##vité": 8182,
      "##xi": 8183,
      "##hr": 8184,
      "##hon": 8185,
      "##had": 8186,
      "##hors": 8187,
      "##gin": 8188,
      "##men": 8189,
      "##mig": 8190,
      "##même": 8191,
      "##mêmes": 8192,
      "##utiques": 8193,
      "##àb": 8194,
      "##bs": 8195,
      "##kir": 8196,
      "##ède": 8197,
      "##jar": 8198,
      "##jin": 8199,
      "##joint": 8200,
      "##ôme": 8201,
      "##ômes": 8202,
      "##âche": 8203,
      "##onie": 8204,
      "dette": 8205,
      "demi": 8206,
      "dehors": 8207,
      "##tir": 8208,
      "##tise": 8209,
      "##urion": 8210,
      "##urait": 8211,
      "##urope": 8212,
      "##anase": 8213,
      "##erai": 8214,
      "##erration": 8215,
      "##itte": 8216,
      "laines": 8217,
      "lache": 8218,
      "##reme": 8219,
      "##reïn": 8220,
      "##orate": 8221,
      "##ords": 8222,
      "##ino": 8223,
      "##iner": 8224,
      "##inary": 8225,
      "##allé": 8226,
      "##mentaires": 8227,
      "lecteur": 8228,
      "##ends": 8229,
      "##ensions": 8230,
      "##lla": 8231,
      "prou": 8232,
      "prolon": 8233,
      "##chin": 8234,
      "##chou": 8235,
      "##chamber": 8236,
      "##oureuse": 8237,
      "dutilisation": 8238,
      "##linternet": 8239,
      "##outs": 8240,
      "##outes": 8241,
      "##lements": 8242,
      "##aug": 8243,
      "parv": 8244,
      "parad": 8245,
      "##adan": 8246,
      "##ader": 8247,
      "##asia": 8248,
      "départ": 8249,
      "##quez": 8250,
      "pourpar": 8251,
      "##illage": 8252,
      "##attre": 8253,
      "##atta": 8254,
      "semp": 8255,
      "seatt": 8256,
      "cancer": 8257,
      "##ago": 8258,
      "chances": 8259,
      "mart": 8260,
      "##med": 8261,
      "##abli": 8262,
      "prét": 8263,
      "##aph": 8264,
      "##ationsf": 8265,
      "##oid": 8266,
      "surmont": 8267,
      "##ience": 8268,
      "consécu": 8269,
      "consumer": 8270,
      "##sico": 8271,
      "##ulée": 8272,
      "##icgcca": 8273,
      "##ami": 8274,
      "ouv": 8275,
      "ouvre": 8276,
      "outils": 8277,
      "##ctobre": 8278,
      "div": 8279,
      "##cccca": 8280,
      "##dium": 8281,
      "postes": 8282,
      "##éraires": 8283,
      "entiers": 8284,
      "##issants": 8285,
      "dotée": 8286,
      "##ignement": 8287,
      "intell": 8288,
      "intérieures": 8289,
      "##étrie": 8290,
      "##nesol": 8291,
      "##osé": 8292,
      "##osent": 8293,
      "compare": 8294,
      "##vera": 8295,
      "##oth": 8296,
      "##unds": 8297,
      "##ervice": 8298,
      "##chewan": 8299,
      "##formatique": 8300,
      "##isez": 8301,
      "##isembl": 8302,
      "transmis": 8303,
      "régie": 8304,
      "state": 8305,
      "##rédients": 8306,
      "##ocar": 8307,
      "interpr": 8308,
      "biais": 8309,
      "fame": 8310,
      "israë": 8311,
      "traç": 8312,
      "##onné": 8313,
      "##onnant": 8314,
      "écar": 8315,
      "appliquer": 8316,
      "détru": 8317,
      "##aria": 8318,
      "##arim": 8319,
      "entrepris": 8320,
      "obtiennent": 8321,
      "cadbury": 8322,
      "cadeaux": 8323,
      "productions": 8324,
      "nouer": 8325,
      "génère": 8326,
      "expend": 8327,
      "nouvel": 8328,
      "##ilippines": 8329,
      "forum": 8330,
      "mona": 8331,
      "monétaire": 8332,
      "south": 8333,
      "légende": 8334,
      "##uire": 8335,
      "##édération": 8336,
      "albert": 8337,
      "##aily": 8338,
      "##ctivement": 8339,
      "bienfaits": 8340,
      "davis": 8341,
      "décrite": 8342,
      "assure": 8343,
      "assist": 8344,
      "restruct": 8345,
      "basée": 8346,
      "présentées": 8347,
      "##gccas": 8348,
      "httpwwwk": 8349,
      "httpwwwed": 8350,
      "##outan": 8351,
      "##outchou": 8352,
      "wwwe": 8353,
      "passage": 8354,
      "infant": 8355,
      "cacher": 8356,
      "caoutchou": 8357,
      "finis": 8358,
      "graves": 8359,
      "gratu": 8360,
      "graduellement": 8361,
      "diffus": 8362,
      "##olescents": 8363,
      "donnent": 8364,
      "annéelumière": 8365,
      "recomb": 8366,
      "jugé": 8367,
      "personneressource": 8368,
      "autorité": 8369,
      "##ticles": 8370,
      "spéciale": 8371,
      "recherchent": 8372,
      "nik": 8373,
      "nirim": 8374,
      "aberration": 8375,
      "nébule": 8376,
      "publiques": 8377,
      "richard": 8378,
      "##ressent": 8379,
      "trouvant": 8380,
      "domici": 8381,
      "##lène": 8382,
      "arables": 8383,
      "dépenser": 8384,
      "volumes": 8385,
      "profits": 8386,
      "chiffrait": 8387,
      "chiffraient": 8388,
      "##lissement": 8389,
      "salles": 8390,
      "acétique": 8391,
      "acquisition": 8392,
      "hongkong": 8393,
      "tableaux": 8394,
      "tablettes": 8395,
      "craig": 8396,
      "sucrées": 8397,
      "créée": 8398,
      "mondiaux": 8399,
      "associé": 8400,
      "exemptions": 8401,
      "débouché": 8402,
      "amis": 8403,
      "amorc": 8404,
      "achète": 8405,
      "congelée": 8406,
      "étiquetés": 8407,
      "ladys": 8408,
      "chem": 8409,
      "heur": 8410,
      "réduite": 8411,
      "couche": 8412,
      "humi": 8413,
      "pression": 8414,
      "##orisation": 8415,
      "réforme": 8416,
      "##ronter": 8417,
      "##oseph": 8418,
      "prête": 8419,
      "indonésiennes": 8420,
      "extrait": 8421,
      "##aissent": 8422,
      "largent": 8423,
      "tourteaux": 8424,
      "tournesol": 8425,
      "retourn": 8426,
      "observation": 8427,
      "figurer": 8428,
      "personnelle": 8429,
      "accorder": 8430,
      "modifiées": 8431,
      "pharmaci": 8432,
      "lexpiration": 8433,
      "lexploitant": 8434,
      "détermination": 8435,
      "succes": 8436,
      "linter": 8437,
      "lintermédi": 8438,
      "médicament": 8439,
      "##ckland": 8440,
      "technologiques": 8441,
      "##govau": 8442,
      "##inspectiongcca": 8443,
      "appartiennent": 8444,
      "occidentales": 8445,
      "##manie": 8446,
      "posséd": 8447,
      "nutritive": 8448,
      "lacs": 8449,
      "photon": 8450,
      "correspondre": 8451,
      "processing": 8452,
      "##oshi": 8453,
      "égyptiens": 8454,
      "suppléments": 8455,
      "participer": 8456,
      "propriétés": 8457,
      "propriétaires": 8458,
      "dominées": 8459,
      "raisin": 8460,
      "dimportantes": 8461,
      "tax": 8462,
      "##ernationalgccainternet": 8463,
      "communications": 8464,
      "consulté": 8465,
      "ouverture": 8466,
      "boulangeries": 8467,
      "démocra": 8468,
      "centrales": 8469,
      "nécessairement": 8470,
      "hauteur": 8471,
      "initialement": 8472,
      "vraisembl": 8473,
      "##ceptation": 8474,
      "italien": 8475,
      "litt": 8476,
      "mélang": 8477,
      "pouvoirs": 8478,
      "coupes": 8479,
      "restriction": 8480,
      "humain": 8481,
      "assume": 8482,
      "classent": 8483,
      "classés": 8484,
      "classait": 8485,
      "dentrep": 8486,
      "jaunâtre": 8487,
      "circons": 8488,
      "suscep": 8489,
      "##commer": 8490,
      "matériau": 8491,
      "satisfont": 8492,
      "satisfais": 8493,
      "polar": 8494,
      "polarim": 8495,
      "rurale": 8496,
      "compétence": 8497,
      "bovine": 8498,
      "effectuent": 8499,
      "absolu": 8500,
      "définition": 8501,
      "solidement": 8502,
      "côtes": 8503,
      "axés": 8504,
      "##dings": 8505,
      "médioc": 8506,
      "cellule": 8507,
      "complets": 8508,
      "respectées": 8509,
      "chaude": 8510,
      "chauff": 8511,
      "marquées": 8512,
      "exposé": 8513,
      "recev": 8514,
      "contrôler": 8515,
      "dagriculture": 8516,
      "linstitut": 8517,
      "poursuit": 8518,
      "sétabl": 8519,
      "multipli": 8520,
      "commencer": 8521,
      "réalisée": 8522,
      "réalisées": 8523,
      "entraîner": 8524,
      "impossible": 8525,
      "stree": 8526,
      "##vietnam": 8527,
      "##profile": 8528,
      "prospér": 8529,
      "prospères": 8530,
      "éclai": 8531,
      "manufacturers": 8532,
      "moutons": 8533,
      "voies": 8534,
      "##novation": 8535,
      "surgelé": 8536,
      "sunkist": 8537,
      "administratifs": 8538,
      "administrative": 8539,
      "plantation": 8540,
      "distincts": 8541,
      "bénéficient": 8542,
      "horaire": 8543,
      "potable": 8544,
      "soutenu": 8545,
      "thaïlandaises": 8546,
      "libanais": 8547,
      "orientation": 8548,
      "orientale": 8549,
      "mécanismes": 8550,
      "fish": 8551,
      "navires": 8552,
      "dépasser": 8553,
      "traduit": 8554,
      "infrarouges": 8555,
      "alex": 8556,
      "issu": 8557,
      "tuy": 8558,
      "envoy": 8559,
      "homard": 8560,
      "certifiés": 8561,
      "absorbe": 8562,
      "bhoutan": 8563,
      "contrairement": 8564,
      "analyses": 8565,
      "irriguées": 8566,
      "législ": 8567,
      "découverte": 8568,
      "dynamiques": 8569,
      "atteignaient": 8570,
      "provinciaux": 8571,
      "déquipement": 8572,
      "accepté": 8573,
      "raffinée": 8574,
      "raffinées": 8575,
      "bloc": 8576,
      "##country": 8577,
      "parallèles": 8578,
      "vendeur": 8579,
      "journée": 8580,
      "##rophes": 8581,
      "broy": 8582,
      "soccup": 8583,
      "##ublicationsf": 8584,
      "éloignée": 8585,
      "décrire": 8586,
      "ultravi": 8587,
      "auxquelles": 8588,
      "immig": 8589,
      "##faitmaecigccainternet": 8590,
      "exprimés": 8591,
      "##aceaeespèces": 8592,
      "domestiques": 8593,
      "oconnorottawa": 8594,
      "urbanisation": 8595,
      "transporteur": 8596,
      "synthèse": 8597,
      "attestant": 8598,
      "meiji": 8599,
      "planification": 8600,
      "signalé": 8601,
      "côtières": 8602,
      "témoigne": 8603,
      "jln": 8604,
      "décroissant": 8605,
      "figurant": 8606,
      "bahreïn": 8607,
      "neut": 8608,
      "ourse": 8609,
      "special": 8610,
      "##illonnage": 8611,
      "façons": 8612,
      "violation": 8613,
      "robinsons": 8614,
      "daméliorer": 8615,
      "homologues": 8616,
      "quotidiennement": 8617,
      "haïfa": 8618,
      "sortes": 8619,
      "léchantillon": 8620,
      "dinstru": 8621,
      "subséquentes": 8622,
      "aléatoire": 8623,
      "complémentaires": 8624,
      "énumérés": 8625,
      "péninsule": 8626,
      "citoyens": 8627,
      "véhicules": 8628,
      "howard": 8629,
      "yellow": 8630,
      "larabie": 8631,
      "etrangeres": 8632,
      "external": 8633,
      "lutilisateur": 8634,
      "répercussions": 8635,
      "concurrencer": 8636,
      "fiesta": 8637,
      "saskatchewan": 8638,
      "fléchissement": 8639,
      "jetro": 8640,
      "kandahar": 8641,
      "prolif": 8642,
      "paragraph": 8643,
      "exotiques": 8644,
      "carbone": 8645,
      "télécommunications": 8646,
      "bouclier": 8647,
      "pollinisation": 8648,
      "ultraorthodoxe": 8649,
      "##chercheurcenter": 8650,
      "pondeuses": 8651,
      "vapeur": 8652,
      "veterinary": 8653,
      "zhejiang": 8654,
      "##àboire": 8655,
      "pourparlers": 8656,
      "caoutchouc": 8657,
      "domicile": 8658,
      "lintermédiaire": 8659,
      "circonst": 8660,
      "ae": 8661,
      "are": 8662,
      "ate": 8663,
      "ade": 8664,
      "action": 8665,
      "aac": 8666,
      "bad": 8667,
      "bol": 8668,
      "bul": 8669,
      "bêt": 8670,
      "cort": 8671,
      "cass": 8672,
      "dasie": 8673,
      "daily": 8674,
      "flé": 8675,
      "foire": 8676,
      "farm": 8677,
      "forts": 8678,
      "fpo": 8679,
      "friture": 8680,
      "fusion": 8681,
      "fund": 8682,
      "fvo": 8683,
      "gél": 8684,
      "gall": 8685,
      "gérer": 8686,
      "goya": 8687,
      "hers": 8688,
      "halifax": 8689,
      "ib": 8690,
      "ira": 8691,
      "kash": 8692,
      "lond": 8693,
      "lop": 8694,
      "monn": 8695,
      "mut": 8696,
      "mielle": 8697,
      "nt": 8698,
      "nh": 8699,
      "nant": 8700,
      "nam": 8701,
      "niss": 8702,
      "nig": 8703,
      "napp": 8704,
      "pus": 8705,
      "qat": 8706,
      "ral": 8707,
      "rub": 8708,
      "ronald": 8709,
      "sl": 8710,
      "sai": 8711,
      "sél": 8712,
      "slo": 8713,
      "soig": 8714,
      "sulf": 8715,
      "tch": 8716,
      "tub": 8717,
      "tonne": 8718,
      "tcm": 8719,
      "venant": 8720,
      "wine": 8721,
      "wood": 8722,
      "youn": 8723,
      "épar": 8724,
      "édition": 8725,
      "émett": 8726,
      "éducation": 8727,
      "………………………": 8728,
      "##cap": 8729,
      "##cée": 8730,
      "##cainternet": 8731,
      "##cfm": 8732,
      "##town": 8733,
      "##régu": 8734,
      "##ep": 8735,
      "##ek": 8736,
      "##dien": 8737,
      "##wide": 8738,
      "##ward": 8739,
      "##lad": 8740,
      "##lage": 8741,
      "##lands": 8742,
      "##nistes": 8743,
      "##ik": 8744,
      "##fest": 8745,
      "##fies": 8746,
      "##fhtm": 8747,
      "##xel": 8748,
      "##pm": 8749,
      "##piter": 8750,
      "##hl": 8751,
      "##hu": 8752,
      "##hor": 8753,
      "##hin": 8754,
      "##hér": 8755,
      "##hib": 8756,
      "##habit": 8757,
      "##hop": 8758,
      "##yu": 8759,
      "##gée": 8760,
      "##bra": 8761,
      "##bres": 8762,
      "##bel": 8763,
      "##borg": 8764,
      "##qs": 8765,
      "##kg": 8766,
      "##kin": 8767,
      "##kus": 8768,
      "##jout": 8769,
      "##ese": 8770,
      "##ntemp": 8771,
      "##tisse": 8772,
      "##entôt": 8773,
      "##anches": 8774,
      "##ere": 8775,
      "##erts": 8776,
      "##ercice": 8777,
      "##ergie": 8778,
      "##isent": 8779,
      "##israel": 8780,
      "##itr": 8781,
      "##itgovil": 8782,
      "lamb": 8783,
      "lavantage": 8784,
      "laéroport": 8785,
      "##arot": 8786,
      "##orde": 8787,
      "##inom": 8788,
      "##industrie": 8789,
      "##rosion": 8790,
      "lee": 8791,
      "##omne": 8792,
      "enj": 8793,
      "##teil": 8794,
      "##rira": 8795,
      "##rières": 8796,
      "##rige": 8797,
      "##chau": 8798,
      "##ailles": 8799,
      "##lives": 8800,
      "##duction": 8801,
      "##rae": 8802,
      "##rag": 8803,
      "##rages": 8804,
      "##cie": 8805,
      "##ciap": 8806,
      "##iew": 8807,
      "##ief": 8808,
      "quaux": 8809,
      "##asitaire": 8810,
      "dégra": 8811,
      "déchant": 8812,
      "inqui": 8813,
      "insectes": 8814,
      "plat": 8815,
      "plante": 8816,
      "##veurs": 8817,
      "##illa": 8818,
      "##illère": 8819,
      "exam": 8820,
      "exces": 8821,
      "exchange": 8822,
      "##atrices": 8823,
      "##atrice": 8824,
      "sean": 8825,
      "select": 8826,
      "unitaire": 8827,
      "##agen": 8828,
      "##agric": 8829,
      "##agua": 8830,
      "chief": 8831,
      "martin": 8832,
      "étendre": 8833,
      "reine": 8834,
      "##abi": 8835,
      "queen": 8836,
      "##sif": 8837,
      "##sifs": 8838,
[...]
